{
  "version": "1.0",
  "truncation": null,
  "padding": null,
  "added_tokens": [
    {
      "id": 0,
      "content": "<|endoftext|>",
      "single_word": false,
      "lstrip": false,
      "rstrip": false,
      "normalized": false,
      "special": true
    }
  ],
  "normalizer": null,
  "pre_tokenizer": {
    "type": "ByteLevel",
    "add_prefix_space": false,
    "trim_offsets": true,
    "use_regex": true
  },
  "post_processor": null,
  "decoder": {
    "type": "ByteLevel",
    "add_prefix_space": true,
    "trim_offsets": true,
    "use_regex": true
  },
  "model": {
    "type": "BPE",
    "dropout": null,
    "unk_token": null,
    "continuing_subword_prefix": null,
    "end_of_word_suffix": null,
    "fuse_unk": false,
    "byte_fallback": false,
    "ignore_merges": false,
    "vocab": {
      "<|endoftext|>": 0,
      "!": 1,
      "\"": 2,
      "#": 3,
      "$": 4,
      "%": 5,
      "&": 6,
      "'": 7,
      "(": 8,
      ")": 9,
      "*": 10,
      "+": 11,
      ",": 12,
      "-": 13,
      ".": 14,
      "/": 15,
      "0": 16,
      "1": 17,
      "2": 18,
      "3": 19,
      "4": 20,
      "5": 21,
      "6": 22,
      "7": 23,
      "8": 24,
      "9": 25,
      ":": 26,
      ";": 27,
      "<": 28,
      "=": 29,
      ">": 30,
      "?": 31,
      "@": 32,
      "A": 33,
      "B": 34,
      "C": 35,
      "D": 36,
      "E": 37,
      "F": 38,
      "G": 39,
      "H": 40,
      "I": 41,
      "J": 42,
      "K": 43,
      "L": 44,
      "M": 45,
      "N": 46,
      "O": 47,
      "P": 48,
      "Q": 49,
      "R": 50,
      "S": 51,
      "T": 52,
      "U": 53,
      "V": 54,
      "W": 55,
      "X": 56,
      "Y": 57,
      "Z": 58,
      "[": 59,
      "\\": 60,
      "]": 61,
      "^": 62,
      "_": 63,
      "`": 64,
      "a": 65,
      "b": 66,
      "c": 67,
      "d": 68,
      "e": 69,
      "f": 70,
      "g": 71,
      "h": 72,
      "i": 73,
      "j": 74,
      "k": 75,
      "l": 76,
      "m": 77,
      "n": 78,
      "o": 79,
      "p": 80,
      "q": 81,
      "r": 82,
      "s": 83,
      "t": 84,
      "u": 85,
      "v": 86,
      "w": 87,
      "x": 88,
      "y": 89,
      "z": 90,
      "{": 91,
      "|": 92,
      "}": 93,
      "~": 94,
      "¡": 95,
      "¢": 96,
      "£": 97,
      "¤": 98,
      "¥": 99,
      "¦": 100,
      "§": 101,
      "¨": 102,
      "©": 103,
      "ª": 104,
      "«": 105,
      "¬": 106,
      "®": 107,
      "¯": 108,
      "°": 109,
      "±": 110,
      "²": 111,
      "³": 112,
      "´": 113,
      "µ": 114,
      "¶": 115,
      "·": 116,
      "¸": 117,
      "¹": 118,
      "º": 119,
      "»": 120,
      "¼": 121,
      "½": 122,
      "¾": 123,
      "¿": 124,
      "À": 125,
      "Á": 126,
      "Â": 127,
      "Ã": 128,
      "Ä": 129,
      "Å": 130,
      "Æ": 131,
      "Ç": 132,
      "È": 133,
      "É": 134,
      "Ê": 135,
      "Ë": 136,
      "Ì": 137,
      "Í": 138,
      "Î": 139,
      "Ï": 140,
      "Ð": 141,
      "Ñ": 142,
      "Ò": 143,
      "Ó": 144,
      "Ô": 145,
      "Õ": 146,
      "Ö": 147,
      "×": 148,
      "Ø": 149,
      "Ù": 150,
      "Ú": 151,
      "Û": 152,
      "Ü": 153,
      "Ý": 154,
      "Þ": 155,
      "ß": 156,
      "à": 157,
      "á": 158,
      "â": 159,
      "ã": 160,
      "ä": 161,
      "å": 162,
      "æ": 163,
      "ç": 164,
      "è": 165,
      "é": 166,
      "ê": 167,
      "ë": 168,
      "ì": 169,
      "í": 170,
      "î": 171,
      "ï": 172,
      "ð": 173,
      "ñ": 174,
      "ò": 175,
      "ó": 176,
      "ô": 177,
      "õ": 178,
      "ö": 179,
      "÷": 180,
      "ø": 181,
      "ù": 182,
      "ú": 183,
      "û": 184,
      "ü": 185,
      "ý": 186,
      "þ": 187,
      "ÿ": 188,
      "Ā": 189,
      "ā": 190,
      "Ă": 191,
      "ă": 192,
      "Ą": 193,
      "ą": 194,
      "Ć": 195,
      "ć": 196,
      "Ĉ": 197,
      "ĉ": 198,
      "Ċ": 199,
      "ċ": 200,
      "Č": 201,
      "č": 202,
      "Ď": 203,
      "ď": 204,
      "Đ": 205,
      "đ": 206,
      "Ē": 207,
      "ē": 208,
      "Ĕ": 209,
      "ĕ": 210,
      "Ė": 211,
      "ė": 212,
      "Ę": 213,
      "ę": 214,
      "Ě": 215,
      "ě": 216,
      "Ĝ": 217,
      "ĝ": 218,
      "Ğ": 219,
      "ğ": 220,
      "Ġ": 221,
      "ġ": 222,
      "Ģ": 223,
      "ģ": 224,
      "Ĥ": 225,
      "ĥ": 226,
      "Ħ": 227,
      "ħ": 228,
      "Ĩ": 229,
      "ĩ": 230,
      "Ī": 231,
      "ī": 232,
      "Ĭ": 233,
      "ĭ": 234,
      "Į": 235,
      "į": 236,
      "İ": 237,
      "ı": 238,
      "Ĳ": 239,
      "ĳ": 240,
      "Ĵ": 241,
      "ĵ": 242,
      "Ķ": 243,
      "ķ": 244,
      "ĸ": 245,
      "Ĺ": 246,
      "ĺ": 247,
      "Ļ": 248,
      "ļ": 249,
      "Ľ": 250,
      "ľ": 251,
      "Ŀ": 252,
      "ŀ": 253,
      "Ł": 254,
      "ł": 255,
      "Ń": 256,
      "ĠĠ": 257,
      "ĠĠĠĠ": 258,
      "ĠĠĠ": 259,
      "ĠĠĠĠĠĠĠ": 260,
      "on": 261,
      "in": 262,
      "er": 263,
      "re": 264,
      "at": 265,
      "se": 266,
      "or": 267,
      "st": 268,
      "Ġt": 269,
      "en": 270,
      "ĠĠĠĠĠĠĠĠĠĠĠ": 271,
      "al": 272,
      "de": 273,
      "ion": 274,
      "Ġa": 275,
      "le": 276,
      "he": 277,
      "Ġi": 278,
      "Ġ=": 279,
      "ar": 280,
      "Ġ\"": 281,
      "me": 282,
      "Ġc": 283,
      "it": 284,
      "Ġf": 285,
      "ro": 286,
      "ct": 287,
      "an": 288,
      "--": 289,
      "ce": 290,
      "lf": 291,
      "Ġre": 292,
      "self": 293,
      "Ġp": 294,
      "ur": 295,
      "ent": 296,
      "ĠĠĠĠĠĠĠĠ": 297,
      "pe": 298,
      "ing": 299,
      "Ġthe": 300,
      "ut": 301,
      "ge": 302,
      "Ġs": 303,
      "ss": 304,
      "mp": 305,
      "Ġin": 306,
      "lo": 307,
      "Ġn": 308,
      "li": 309,
      "ue": 310,
      "Ġo": 311,
      "Ġb": 312,
      "ed": 313,
      "\"\"": 314,
      "ex": 315,
      "un": 316,
      "ame": 317,
      "str": 318,
      "Ġself": 319,
      "co": 320,
      "ype": 321,
      "ot": 322,
      "la": 323,
      "ĠĠĠĠĠĠĠĠĠĠĠĠĠĠĠ": 324,
      "Ġw": 325,
      "\",": 326,
      "Ġde": 327,
      "es": 328,
      "one": 329,
      "Ġd": 330,
      "fi": 331,
      "Ġm": 332,
      "ĠN": 333,
      "Ġ(": 334,
      "ad": 335,
      "ation": 336,
      "pt": 337,
      "Ġto": 338,
      "ck": 339,
      "):": 340,
      "ort": 341,
      "ra": 342,
      "ate": 343,
      "Ġif": 344,
      "urn": 345,
      "ul": 346,
      "turn": 347,
      "----": 348,
      "Ġ#": 349,
      "id": 350,
      "ch": 351,
      "Ġis": 352,
      "Ġan": 353,
      "il": 354,
      "el": 355,
      "ol": 356,
      "th": 357,
      "__": 358,
      "ri": 359,
      "Ġ-": 360,
      "ĠT": 361,
      "Ġfor": 362,
      "ĠNone": 363,
      "is": 364,
      "ĠA": 365,
      "val": 366,
      "ter": 367,
      "ata": 368,
      "ver": 369,
      "Ġreturn": 370,
      "Ġdef": 371,
      "Ġ'": 372,
      "Ġ\"\"\"": 373,
      "ode": 374,
      "``": 375,
      "age": 376,
      "um": 377,
      "up": 378,
      "rom": 379,
      "==": 380,
      "Ġof": 381,
      "ption": 382,
      "get": 383,
      "ect": 384,
      "mport": 385,
      "as": 386,
      "._": 387,
      "ext": 388,
      "et": 389,
      "čĊ": 390,
      "py": 391,
      "()": 392,
      "ic": 393,
      "ap": 394,
      "ĠC": 395,
      "ble": 396,
      "ult": 397,
      "ith": 398,
      "name": 399,
      "ht": 400,
      "ĠS": 401,
      "Ġand": 402,
      "con": 403,
      "Re": 404,
      "Ġth": 405,
      "Ġcon": 406,
      "##": 407,
      "od": 408,
      "Ġ:": 409,
      "ke": 410,
      "all": 411,
      "type": 412,
      "am": 413,
      "Ġstr": 414,
      "to": 415,
      "Ġnot": 416,
      "ve": 417,
      "sp": 418,
      "set": 419,
      "end": 420,
      "gs": 421,
      "us": 422,
      "value": 423,
      "ror": 424,
      "iz": 425,
      "ub": 426,
      "vi": 427,
      "Ġ_": 428,
      "Ġe": 429,
      "Ġ)": 430,
      "qu": 431,
      "te": 432,
      "lass": 433,
      "ĠĠĠĠĠĠĠĠĠĠĠĠĠĠĠĠĠĠĠ": 434,
      "di": 435,
      "\":": 436,
      "Ġimport": 437,
      "int": 438,
      "per": 439,
      "Ġ[": 440,
      "que": 441,
      "ack": 442,
      "ction": 443,
      "ime": 444,
      "ath": 445,
      "Ġh": 446,
      "ĠP": 447,
      "\")": 448,
      "Ġfi": 449,
      "00": 450,
      "ĠI": 451,
      "Ġex": 452,
      "ig": 453,
      "Ġ`": 454,
      "ment": 455,
      "par": 456,
      "from": 457,
      "Ġ->": 458,
      "pro": 459,
      "ta": 460,
      "Ġ{": 461,
      "ase": 462,
      "Ġor": 463,
      "ĠL": 464,
      "tr": 465,
      "and": 466,
      "ma": 467,
      "quest": 468,
      "Ġbe": 469,
      "ist": 470,
      "--------": 471,
      "Type": 472,
      "ure": 473,
      "Ġ1": 474,
      "che": 475,
      "(\"": 476,
      "Ġco": 477,
      "ĠF": 478,
      "Ġst": 479,
      "ers": 480,
      "Ġ*": 481,
      "our": 482,
      "Ġpro": 483,
      "class": 484,
      "ĠD": 485,
      "ject": 486,
      "ĠO": 487,
      "Ġas": 488,
      "orm": 489,
      "able": 490,
      "..": 491,
      "Ġg": 492,
      "fig": 493,
      "Ġme": 494,
      "tp": 495,
      "ow": 496,
      "odel": 497,
      "key": 498,
      "po": 499,
      "ser": 500,
      "onse": 501,
      "put": 502,
      "Ġ0": 503,
      "ly": 504,
      "der": 505,
      "red": 506,
      "oc": 507,
      "),": 508,
      "Ġ|": 509,
      "text": 510,
      "ial": 511,
      "ance": 512,
      "http": 513,
      "list": 514,
      "01": 515,
      "====": 516,
      "lient": 517,
      "Ġl": 518,
      "use": 519,
      "mple": 520,
      "Ġwith": 521,
      "rror": 522,
      "out": 523,
      "Ġse": 524,
      "ource": 525,
      "Error": 526,
      "sion": 527,
      "Ġlo": 528,
      "\"\"\"": 529,
      "Ġdi": 530,
      "',": 531,
      "ag": 532,
      "com": 533,
      "':": 534,
      "//": 535,
      "fa": 536,
      "ĠM": 537,
      "Ġr": 538,
      "ine": 539,
      "args": 540,
      "res": 541,
      "ĠĠĠĠĠĠĠĠĠĠĠĠĠĠĠĠ": 542,
      "Ġ``": 543,
      "nt": 544,
      "Ġvalue": 545,
      "ize": 546,
      "://": 547,
      "data": 548,
      "Res": 549,
      "Ġfile": 550,
      "ĠE": 551,
      "tri": 552,
      "))": 553,
      "Ġfrom": 554,
      "ci": 555,
      "Ġname": 556,
      "Ġon": 557,
      "form": 558,
      "ise": 559,
      "\"]": 560,
      "ptional": 561,
      "ĠU": 562,
      "Ġwh": 563,
      "rue": 564,
      "lic": 565,
      "ĠThe": 566,
      "https": 567,
      "thon": 568,
      "eld": 569,
      "Ġpar": 570,
      "fo": 571,
      "time": 572,
      "ty": 573,
      "ity": 574,
      "im": 575,
      "Con": 576,
      "Ġtype": 577,
      "yn": 578,
      "IN": 579,
      "path": 580,
      "Ġres": 581,
      "ool": 582,
      "ff": 583,
      "Ġuse": 584,
      "app": 585,
      "ence": 586,
      "In": 587,
      "ument": 588,
      "else": 589,
      "Ġ2": 590,
      "version": 591,
      "Ġby": 592,
      "ust": 593,
      "alse": 594,
      "De": 595,
      "Ġra": 596,
      "sh": 597,
      "pre": 598,
      "low": 599,
      "Ġdata": 600,
      "em": 601,
      "sc": 602,
      "bject": 603,
      "ated": 604,
      "ule": 605,
      "],": 606,
      "ER": 607,
      "Ġelse": 608,
      "code": 609,
      "ON": 610,
      "####": 611,
      "thod": 612,
      "ssion": 613,
      "qui": 614,
      "ive": 615,
      "Ġma": 616,
      "stance": 617,
      "ssage": 618,
      "gg": 619,
      "Ġy": 620,
      "def": 621,
      "vice": 622,
      "om": 623,
      "Ġ+": 624,
      "Ġthat": 625,
      "=\"": 626,
      "port": 627,
      "param": 628,
      "oo": 629,
      "Ġun": 630,
      "ew": 631,
      "Ġar": 632,
      "ĠB": 633,
      "file": 634,
      "[\"": 635,
      "Ġthis": 636,
      "ls": 637,
      "ator": 638,
      ">>": 639,
      "sponse": 640,
      "but": 641,
      "ip": 642,
      "Ġv": 643,
      "ĠRe": 644,
      "ĠG": 645,
      "ts": 646,
      "Ġlist": 647,
      ").": 648,
      "error": 649,
      "ork": 650,
      "kw": 651,
      "atch": 652,
      "ry": 653,
      "bu": 654,
      "ded": 655,
      "ign": 656,
      "Ġint": 657,
      "of": 658,
      "init": 659,
      "Ġ__": 660,
      "Ġ@": 661,
      "ations": 662,
      "Ġch": 663,
      "cess": 664,
      "Ġraise": 665,
      "Ġen": 666,
      "ill": 667,
      "ary": 668,
      "unction": 669,
      "**": 670,
      "ore": 671,
      "ord": 672,
      "Ġ==": 673,
      "Ġal": 674,
      "wa": 675,
      "Ġat": 676,
      "ĠV": 677,
      "ies": 678,
      "kwargs": 679,
      "ai": 680,
      "ran": 681,
      "op": 682,
      "lu": 683,
      "Ġsh": 684,
      "ĠW": 685,
      "load": 686,
      "Ġare": 687,
      "Ġset": 688,
      "ken": 689,
      "ory": 690,
      "date": 691,
      "ĠR": 692,
      "Ġ3": 693,
      "Ġ**": 694,
      "art": 695,
      "ĠAn": 696,
      "ĠĠĠĠĠĠĠĠĠĠĠĠĠĠĠĠĠĠĠĠĠĠĠ": 697,
      "und": 698,
      "ind": 699,
      "dd": 700,
      "model": 701,
      "ifi": 702,
      "pp": 703,
      "iv": 704,
      "ĠOptional": 705,
      "dex": 706,
      ".\"\"\"": 707,
      "ackage": 708,
      "](": 709,
      "est": 710,
      "Ġget": 711,
      "ample": 712,
      "ync": 713,
      ":`": 714,
      "ob": 715,
      "ðŁ": 716,
      "('": 717,
      "ense": 718,
      "reate": 719,
      "nect": 720,
      "vent": 721,
      "ab": 722,
      "client": 723,
      "ict": 724,
      "tent": 725,
      "ener": 726,
      "__(": 727,
      "Ġ<": 728,
      "Ġit": 729,
      "None": 730,
      "Ġrequest": 731,
      "ou": 732,
      "import": 733,
      "----------------": 734,
      "EN": 735,
      "head": 736,
      "url": 737,
      "config": 738,
      "pi": 739,
      "Ġus": 740,
      "ache": 741,
      "read": 742,
      "ml": 743,
      "ings": 744,
      "========": 745,
      "roup": 746,
      "Ġkey": 747,
      "cept": 748,
      "ĠĠĠĠĠ": 749,
      "ant": 750,
      "ault": 751,
      "tribut": 752,
      "uth": 753,
      "adata": 754,
      "rent": 755,
      "ptions": 756,
      "ange": 757,
      "rit": 758,
      "ES": 759,
      "ray": 760,
      "ild": 761,
      "doc": 762,
      "Resp": 763,
      "ec": 764,
      "mit": 765,
      "ithub": 766,
      "Response": 767,
      "col": 768,
      "AT": 769,
      "Pro": 770,
      "mb": 771,
      "quired": 772,
      "Ġdefault": 773,
      "Def": 774,
      "Ġtime": 775,
      "api": 776,
      "odule": 777,
      "fault": 778,
      "not": 779,
      "github": 780,
      "ther": 781,
      "ask": 782,
      "if": 783,
      "act": 784,
      "instance": 785,
      "valid": 786,
      "ery": 787,
      "ameter": 788,
      "ition": 789,
      "Ġpy": 790,
      "Ġcan": 791,
      "rap": 792,
      "lock": 793,
      "ĠH": 794,
      "unt": 795,
      "Ex": 796,
      "js": 797,
      "Ġout": 798,
      "Ġpa": 799,
      "tain": 800,
      "python": 801,
      "line": 802,
      "ile": 803,
      "scri": 804,
      "ĠNot": 805,
      "test": 806,
      "ĠAny": 807,
      "Ġ..": 808,
      "St": 809,
      "os": 810,
      "Ġwill": 811,
      "TypeDef": 812,
      "lable": 813,
      "Ġser": 814,
      "add": 815,
      "lib": 816,
      "umb": 817,
      "Ġresult": 818,
      "ream": 819,
      "Request": 820,
      "Ġobject": 821,
      "02": 822,
      "uct": 823,
      "atus": 824,
      "PI": 825,
      "cal": 826,
      "ms": 827,
      "fer": 828,
      "ens": 829,
      "loat": 830,
      "ll": 831,
      "ĠFalse": 832,
      "rect": 833,
      "Ġpre": 834,
      "package": 835,
      "his": 836,
      "ac": 837,
      "own": 838,
      "Ġmodel": 839,
      "dict": 840,
      "tern": 841,
      "ark": 842,
      "Ġx": 843,
      "perty": 844,
      "back": 845,
      "size": 846,
      "Ġspe": 847,
      "ace": 848,
      "AR": 849,
      "info": 850,
      "Ġbool": 851,
      "ping": 852,
      "alue": 853,
      "Ġno": 854,
      "ĠIn": 855,
      "')": 856,
      "ang": 857,
      "ud": 858,
      "ys": 859,
      "Ġresponse": 860,
      "OR": 861,
      "ils": 862,
      "Ġla": 863,
      "gger": 864,
      "ĠTrue": 865,
      "pr": 866,
      "True": 867,
      "mo": 868,
      "min": 869,
      "âĢ": 870,
      "arch": 871,
      "bo": 872,
      "Ġsup": 873,
      "point": 874,
      "Ġcomp": 875,
      "]:": 876,
      "ere": 877,
      "Ġisinstance": 878,
      "Ġbu": 879,
      "IT": 880,
      "base": 881,
      "ard": 882,
      "len": 883,
      "tadata": 884,
      "umber": 885,
      "arg": 886,
      "Ġcol": 887,
      "Name": 888,
      "icense": 889,
      "Data": 890,
      "ari": 891,
      "Ġdict": 892,
      "Ġpath": 893,
      "pla": 894,
      "Ġso": 895,
      "ost": 896,
      "arn": 897,
      ".__": 898,
      "mpl": 899,
      "Ġconfig": 900,
      "method": 901,
      "Ġwe": 902,
      "core": 903,
      "led": 904,
      "Ġro": 905,
      "uld": 906,
      "json": 907,
      "ght": 908,
      "request": 909,
      "Ġ}": 910,
      "ception": 911,
      "RE": 912,
      "clu": 913,
      "ert": 914,
      "SE": 915,
      "Ġerror": 916,
      "ast": 917,
      "~~": 918,
      "ST": 919,
      "::": 920,
      "query": 921,
      "nel": 922,
      "arget": 923,
      "ep": 924,
      "comp": 925,
      "mat": 926,
      "Ġty": 927,
      "Ġlen": 928,
      "Ġ/": 929,
      "########": 930,
      ">>>": 931,
      "ĠIf": 932,
      "ature": 933,
      "run": 934,
      "ĠSe": 935,
      "Ġcode": 936,
      "uple": 937,
      "ates": 938,
      "Ġhas": 939,
      "types": 940,
      "heck": 941,
      "])": 942,
      "tes": 943,
      "Ġup": 944,
      "oto": 945,
      "ink": 946,
      "Ġall": 947,
      "attr": 948,
      "Ġclient": 949,
      "by": 950,
      "ializ": 951,
      "format": 952,
      "|>": 953,
      "ĠCon": 954,
      "AL": 955,
      "<|": 956,
      "ib": 957,
      "endof": 958,
      "endoftext": 959,
      "rame": 960,
      "iter": 961,
      "ĠEx": 962,
      "Ġdo": 963,
      "ĠThis": 964,
      "ould": 965,
      "append": 966,
      "Ġfunction": 967,
      "sed": 968,
      "ĠPy": 969,
      "Ġdoc": 970,
      "ape": 971,
      "ron": 972,
      "nd": 973,
      "Dict": 974,
      "Ġrun": 975,
      "umn": 976,
      "Ġ%": 977,
      "pa": 978,
      "ull": 979,
      "Ġversion": 980,
      "Ġ>>>": 981,
      "Ġne": 982,
      "cur": 983,
      "lif": 984,
      "Ġapp": 985,
      "ĠLicense": 986,
      "turns": 987,
      "Ġk": 988,
      "ĠUn": 989,
      "Ġid": 990,
      "Ġmessage": 991,
      "'s": 992,
      "ave": 993,
      "gn": 994,
      "Ġmethod": 995,
      "ally": 996,
      "List": 997,
      "mand": 998,
      "log": 999,
      "Ġsub": 1000,
      "64": 1001,
      "Ġfield": 1002,
      "ensor": 1003,
      "nection": 1004,
      "Ġwhen": 1005,
      "ress": 1006,
      "Ġac": 1007,
      "fix": 1008,
      "Se": 1009,
      "Ġadd": 1010,
      "extra": 1011,
      "Ġ.": 1012,
      "count": 1013,
      "uration": 1014,
      "cifi": 1015,
      "Ġexcept": 1016,
      "ight": 1017,
      "ree": 1018,
      "response": 1019,
      "Ġused": 1020,
      "ir": 1021,
      "ME": 1022,
      "space": 1023,
      "ference": 1024,
      "ĠDe": 1025,
      "LE": 1026,
      "Ġnew": 1027,
      "12": 1028,
      "so": 1029,
      "Ġ4": 1030,
      "ich": 1031,
      "item": 1032,
      "clo": 1033,
      "False": 1034,
      "ential": 1035,
      "]]": 1036,
      "tra": 1037,
      "AN": 1038,
      "sub": 1039,
      "Ġtry": 1040,
      "try": 1041,
      "Ġyou": 1042,
      "ments": 1043,
      "property": 1044,
      "ces": 1045,
      "cation": 1046,
      "Ġle": 1047,
      "Ġcom": 1048,
      "ound": 1049,
      "Ġarg": 1050,
      "be": 1051,
      "main": 1052,
      "10": 1053,
      "Ġtyping": 1054,
      "ding": 1055,
      "ecut": 1056,
      "ING": 1057,
      "DE": 1058,
      "ameters": 1059,
      "ook": 1060,
      "default": 1061,
      "io": 1062,
      "ension": 1063,
      "Ġcall": 1064,
      "index": 1065,
      "field": 1066,
      "Ġj": 1067,
      "wait": 1068,
      "word": 1069,
      "ix": 1070,
      "andl": 1071,
      "Ġinst": 1072,
      "org": 1073,
      "work": 1074,
      "Config": 1075,
      "ide": 1076,
      "token": 1077,
      "og": 1078,
      "spe": 1079,
      "Ġclass": 1080,
      "lat": 1081,
      "rite": 1082,
      "Ġdis": 1083,
      "ield": 1084,
      "Required": 1085,
      "ĠList": 1086,
      "Ġelif": 1087,
      "dir": 1088,
      "ION": 1089,
      "cket": 1090,
      "rans": 1091,
      "html": 1092,
      "vel": 1093,
      "clude": 1094,
      "ĠK": 1095,
      "Ser": 1096,
      "right": 1097,
      "rc": 1098,
      "chema": 1099,
      "sent": 1100,
      "ĠNotRequired": 1101,
      "redential": 1102,
      "Get": 1103,
      "call": 1104,
      "unk": 1105,
      "unc": 1106,
      "result": 1107,
      "gle": 1108,
      "âĶ": 1109,
      "Ġ{}": 1110,
      "Ġwhich": 1111,
      "Ġper": 1112,
      "message": 1113,
      "with": 1114,
      "docs": 1115,
      "['": 1116,
      "Ġwork": 1117,
      "UT": 1118,
      "we": 1119,
      "Ġvalues": 1120,
      "ved": 1121,
      "Id": 1122,
      "Ġother": 1123,
      "ans": 1124,
      "tool": 1125,
      "params": 1126,
      "iss": 1127,
      "lect": 1128,
      "Ġoutput": 1129,
      "annel": 1130,
      "ach": 1131,
      "gin": 1132,
      "reg": 1133,
      "En": 1134,
      "for": 1135,
      "IC": 1136,
      "rst": 1137,
      "row": 1138,
      "lob": 1139,
      "Ġ...": 1140,
      "ak": 1141,
      "gth": 1142,
      "ĠValue": 1143,
      "32": 1144,
      "headers": 1145,
      "âĢį": 1146,
      "11": 1147,
      "cs": 1148,
      "ĠAr": 1149,
      "Ġinput": 1150,
      "cond": 1151,
      "():": 1152,
      "ilter": 1153,
      "vid": 1154,
      "scription": 1155,
      "Ġinter": 1156,
      "yst": 1157,
      "var": 1158,
      "bel": 1159,
      "pen": 1160,
      "Ġ>": 1161,
      "pos": 1162,
      "ql": 1163,
      "atic": 1164,
      "oogle": 1165,
      "fe": 1166,
      "ĠReturns": 1167,
      "uments": 1168,
      "itor": 1169,
      "Ġany": 1170,
      "Ġpass": 1171,
      "Ġ\"\\": 1172,
      "oin": 1173,
      "md": 1174,
      "fla": 1175,
      "Ġonly": 1176,
      "map": 1177,
      "```": 1178,
      "gra": 1179,
      "ph": 1180,
      "Ġcur": 1181,
      "Un": 1182,
      "hel": 1183,
      "group": 1184,
      "ystem": 1185,
      "quence": 1186,
      "ody": 1187,
      "Ġmax": 1188,
      "string": 1189,
      "Ġspecifi": 1190,
      "Ġstring": 1191,
      "Ar": 1192,
      "Ġli": 1193,
      "`.": 1194,
      "Ġass": 1195,
      "agin": 1196,
      "ĠĠĠĠĠĠĠĠĠĠĠĠĠĠĠĠĠĠĠĠĠĠĠĠĠĠĠ": 1197,
      "Ġbase": 1198,
      "ual": 1199,
      "Par": 1200,
      "rint": 1201,
      "().": 1202,
      "lete": 1203,
      "ses": 1204,
      "Ġshould": 1205,
      "`,": 1206,
      "']": 1207,
      "node": 1208,
      "max": 1209,
      "ics": 1210,
      "ey": 1211,
      "allable": 1212,
      "lease": 1213,
      "ID": 1214,
      "lit": 1215,
      "source": 1216,
      "tribute": 1217,
      "Ġ[]": 1218,
      "umentation": 1219,
      "cri": 1220,
      "Ġtest": 1221,
      "ĠValueError": 1222,
      "ustom": 1223,
      "Ġuser": 1224,
      "mon": 1225,
      "Set": 1226,
      "lement": 1227,
      "AC": 1228,
      "Co": 1229,
      "project": 1230,
      "ager": 1231,
      "ĠPython": 1232,
      "da": 1233,
      "Ġ5": 1234,
      "Ġunder": 1235,
      "ref": 1236,
      "models": 1237,
      "Ch": 1238,
      "ĠJ": 1239,
      "Ġ--": 1240,
      "TT": 1241,
      "ĠCo": 1242,
      "man": 1243,
      "Ġsource": 1244,
      "start": 1245,
      "ax": 1246,
      "Ġcheck": 1247,
      "Ġfloat": 1248,
      "='": 1249,
      "The": 1250,
      "Resource": 1251,
      "ted": 1252,
      "Ġcontain": 1253,
      "Ġos": 1254,
      "inter": 1255,
      "Ġign": 1256,
      "cre": 1257,
      "Ġpo": 1258,
      "output": 1259,
      "Base": 1260,
      "lection": 1261,
      "Ġnode": 1262,
      "Ġend": 1263,
      "ong": 1264,
      "face": 1265,
      "ility": 1266,
      "mplement": 1267,
      "Ġformat": 1268,
      "flow": 1269,
      "ialize": 1270,
      "Ġmust": 1271,
      "array": 1272,
      "Ġag": 1273,
      "obj": 1274,
      "ute": 1275,
      "Ġsupport": 1276,
      "Ġone": 1277,
      "tributes": 1278,
      "Ġmodule": 1279,
      "andler": 1280,
      "Ġnumber": 1281,
      "ED": 1282,
      "Client": 1283,
      "ariable": 1284,
      "ain": 1285,
      "mpt": 1286,
      "ors": 1287,
      "cloud": 1288,
      "ffer": 1289,
      "sync": 1290,
      "Ġreg": 1291,
      "content": 1292,
      "ðŁı": 1293,
      "An": 1294,
      "Ġ\\": 1295,
      "Ġprint": 1296,
      "gging": 1297,
      "peration": 1298,
      "viron": 1299,
      "plo": 1300,
      "ĠAPI": 1301,
      "Ġte": 1302,
      "ines": 1303,
      "Ġprovi": 1304,
      "25": 1305,
      "licy": 1306,
      "object": 1307,
      "04": 1308,
      "mplate": 1309,
      "Me": 1310,
      "state": 1311,
      "ternal": 1312,
      "user": 1313,
      "ched": 1314,
      "orch": 1315,
      "metadata": 1316,
      "Ġtext": 1317,
      "ĠType": 1318,
      "Ġcontext": 1319,
      "RO": 1320,
      "mage": 1321,
      "the": 1322,
      "pend": 1323,
      "dDict": 1324,
      "vo": 1325,
      "tin": 1326,
      "redentials": 1327,
      "Ġgener": 1328,
      "auth": 1329,
      "oth": 1330,
      "ams": 1331,
      "Ġmay": 1332,
      "service": 1333,
      "stri": 1334,
      "place": 1335,
      "amples": 1336,
      "CH": 1337,
      "Ġhave": 1338,
      "ne": 1339,
      "du": 1340,
      "Ġdirect": 1341,
      "Ġ::": 1342,
      "Ġawait": 1343,
      "================": 1344,
      "uto": 1345,
      "cli": 1346,
      "Ġback": 1347,
      "input": 1348,
      "}\"": 1349,
      "raph": 1350,
      "LO": 1351,
      "AS": 1352,
      "Ġent": 1353,
      "context": 1354,
      "update": 1355,
      "sk": 1356,
      "Str": 1357,
      "Ġvi": 1358,
      "pert": 1359,
      "16": 1360,
      "Ġob": 1361,
      "over": 1362,
      "onent": 1363,
      "ash": 1364,
      "^^": 1365,
      "Ġover": 1366,
      "inal": 1367,
      "Ġtra": 1368,
      "Ġstart": 1369,
      "Ġnp": 1370,
      "à¤": 1371,
      "boto": 1372,
      "Ġargs": 1373,
      "Ġ6": 1374,
      "gr": 1375,
      "())": 1376,
      "Ġcontent": 1377,
      "ps": 1378,
      "lay": 1379,
      "EC": 1380,
      "ner": 1381,
      "block": 1382,
      "Met": 1383,
      "ww": 1384,
      "write": 1385,
      "apping": 1386,
      "Ġoptional": 1387,
      "perties": 1388,
      "module": 1389,
      "Ġmetadata": 1390,
      "Ġhttps": 1391,
      "stribut": 1392,
      "âĶĢ": 1393,
      "Ġite": 1394,
      "bug": 1395,
      "Ġ'ðŁ": 1396,
      "iteral": 1397,
      "Ġusing": 1398,
      "Ġasync": 1399,
      "ifier": 1400,
      "Result": 1401,
      "UL": 1402,
      "fore": 1403,
      "tx": 1404,
      "ĠGet": 1405,
      "struct": 1406,
      "image": 1407,
      "Ġignore": 1408,
      "ersion": 1409,
      "status": 1410,
      "Ġman": 1411,
      "Ġinstance": 1412,
      "Ġ),": 1413,
      "lugin": 1414,
      "},": 1415,
      "Ġcurrent": 1416,
      "Ġsession": 1417,
      "Ġindex": 1418,
      "Ġbut": 1419,
      "TypedDict": 1420,
      "ify": 1421,
      "check": 1422,
      "tings": 1423,
      "ative": 1424,
      "zure": 1425,
      "cache": 1426,
      "Ġlog": 1427,
      "pect": 1428,
      "gram": 1429,
      "Ġsu": 1430,
      "sign": 1431,
      "old": 1432,
      "ENT": 1433,
      "ell": 1434,
      "ay": 1435,
      "stream": 1436,
      "session": 1437,
      "return": 1438,
      "cord": 1439,
      "Ġextra": 1440,
      "cy": 1441,
      "ĠĠĠĠĠĠĠĠĠĠĠĠĠĠĠĠĠĠĠĠĠĠĠĠĠĠĠĠĠĠĠĠ": 1442,
      "amp": 1443,
      "Ġvalid": 1444,
      "Ġsp": 1445,
      "float": 1446,
      "Ġmin": 1447,
      "func": 1448,
      "create": 1449,
      "Ġline": 1450,
      "oft": 1451,
      "ped": 1452,
      "ĠArgs": 1453,
      "Ġevent": 1454,
      "Ġstate": 1455,
      "join": 1456,
      "Ġtrans": 1457,
      "db": 1458,
      "agent": 1459,
      "ical": 1460,
      "ws": 1461,
      "uture": 1462,
      "attern": 1463,
      "03": 1464,
      "Ġproject": 1465,
      "Ġtoken": 1466,
      "indow": 1467,
      "Ġtool": 1468,
      "aginator": 1469,
      "22": 1470,
      "do": 1471,
      "andle": 1472,
      "Ġ!": 1473,
      "parse": 1474,
      "utils": 1475,
      "PE": 1476,
      "Ġquery": 1477,
      "ote": 1478,
      "ware": 1479,
      "no": 1480,
      "vert": 1481,
      "AD": 1482,
      "14": 1483,
      "resh": 1484,
      "late": 1485,
      "Ġread": 1486,
      "\"),": 1487,
      "Model": 1488,
      "otal": 1489,
      "--------------------------------": 1490,
      "action": 1491,
      "Ġ[\"": 1492,
      "Ġtuple": 1493,
      "aly": 1494,
      "event": 1495,
      "resource": 1496,
      "tag": 1497,
      "header": 1498,
      "Ġlogger": 1499,
      "ĠSt": 1500,
      "dis": 1501,
      "Ġab": 1502,
      "arning": 1503,
      "av": 1504,
      "15": 1505,
      "13": 1506,
      "trans": 1507,
      "08": 1508,
      "05": 1509,
      "Ġresource": 1510,
      "angu": 1511,
      "items": 1512,
      "~~~~": 1513,
      "anguage": 1514,
      "cls": 1515,
      "options": 1516,
      "To": 1517,
      "lication": 1518,
      "Py": 1519,
      "values": 1520,
      "âĶĢâĶĢ": 1521,
      "my": 1522,
      "udi": 1523,
      "API": 1524,
      "Ġ!=": 1525,
      "Ġserver": 1526,
      "ren": 1527,
      "ĠĠĠĠĠĠ": 1528,
      "ĠĠĠĠĠĠĠĠĠ": 1529,
      "fil": 1530,
      "idth": 1531,
      "Ġ(\"": 1532,
      "Ġtarget": 1533,
      "Value": 1534,
      "ê¦": 1535,
      "Ġeach": 1536,
      "mode": 1537,
      "ĠY": 1538,
      "help": 1539,
      "ister": 1540,
      "Ġtimeout": 1541,
      "ead": 1542,
      "its": 1543,
      "function": 1544,
      "Ġ+=": 1545,
      "Ġfilter": 1546,
      "move": 1547,
      "df": 1548,
      "env": 1549,
      "cp": 1550,
      "num": 1551,
      "fact": 1552,
      "LI": 1553,
      "ormal": 1554,
      "OT": 1555,
      "ions": 1556,
      "0000": 1557,
      "################": 1558,
      "yload": 1559,
      "dim": 1560,
      "Sh": 1561,
      "'t": 1562,
      "Service": 1563,
      "ok": 1564,
      "peline": 1565,
      "cor": 1566,
      "fter": 1567,
      "18": 1568,
      "Ġkwargs": 1569,
      "src": 1570,
      "ible": 1571,
      "yle": 1572,
      "Ġcreate": 1573,
      "ating": 1574,
      "PC": 1575,
      "ailable": 1576,
      "vider": 1577,
      "____": 1578,
      "iven": 1579,
      "table": 1580,
      "formation": 1581,
      "Ġbytes": 1582,
      "UR": 1583,
      "sql": 1584,
      "Ġsuper": 1585,
      "ĠUnion": 1586,
      "stub": 1587,
      "mi": 1588,
      "Ġcls": 1589,
      "vironment": 1590,
      "Ġmat": 1591,
      "Ġfiles": 1592,
      "Ġurl": 1593,
      "tect": 1594,
      "itional": 1595,
      "AG": 1596,
      "ĠPro": 1597,
      "very": 1598,
      "serializ": 1599,
      "build": 1600,
      "names": 1601,
      "Ġexist": 1602,
      "UN": 1603,
      "length": 1604,
      "FA": 1605,
      "bytes": 1606,
      "down": 1607,
      "top": 1608,
      "Ġchange": 1609,
      "ization": 1610,
      "cla": 1611,
      "mail": 1612,
      "process": 1613,
      "extension": 1614,
      "ous": 1615,
      "sport": 1616,
      "Ġact": 1617,
      "bool": 1618,
      "\"{": 1619,
      "reference": 1620,
      "pc": 1621,
      "IS": 1622,
      "Qu": 1623,
      "Po": 1624,
      "Ġpython": 1625,
      "ĠDefault": 1626,
      "ingle": 1627,
      "Ġz": 1628,
      "Ġyour": 1629,
      "Ġmatch": 1630,
      "perations": 1631,
      "ning": 1632,
      "CO": 1633,
      "entifier": 1634,
      "timeout": 1635,
      "level": 1636,
      "...": 1637,
      "ite": 1638,
      "ug": 1639,
      "Ġ{\"": 1640,
      "07": 1641,
      "label": 1642,
      "cl": 1643,
      "play": 1644,
      "TI": 1645,
      "].": 1646,
      "09": 1647,
      "ting": 1648,
      "Ġdate": 1649,
      "mpty": 1650,
      "box": 1651,
      "raw": 1652,
      "Ġparams": 1653,
      "Exception": 1654,
      "view": 1655,
      "Key": 1656,
      "24": 1657,
      "latest": 1658,
      "19": 1659,
      "Ġsk": 1660,
      "Ġcre": 1661,
      "debug": 1662,
      "Ġdoes": 1663,
      "ca": 1664,
      "Ġdocumentation": 1665,
      "filter": 1666,
      "Ġcor": 1667,
      "target": 1668,
      "upport": 1669,
      "Ġ]": 1670,
      "Ġimage": 1671,
      "Ġpart": 1672,
      "Ġmore": 1673,
      "ccess": 1674,
      "SON": 1675,
      "Ġfol": 1676,
      "local": 1677,
      "Ġinto": 1678,
      "KE": 1679,
      "FI": 1680,
      "ars": 1681,
      "}\")": 1682,
      "eature": 1683,
      "tro": 1684,
      "AB": 1685,
      "202": 1686,
      "are": 1687,
      "ined": 1688,
      "ats": 1689,
      "coding": 1690,
      "Ġtypes": 1691,
      "itle": 1692,
      "Xls": 1693,
      "mark": 1694,
      "ft": 1695,
      "At": 1696,
      "Ġauth": 1697,
      "Ġcase": 1698,
      "ized": 1699,
      "server": 1700,
      "ns": 1701,
      "Ġfirst": 1702,
      "Ġmult": 1703,
      "ass": 1704,
      "(),": 1705,
      "Ġcommand": 1706,
      "ilder": 1707,
      "spark": 1708,
      "ride": 1709,
      "ues": 1710,
      "YPE": 1711,
      "33": 1712,
      "abled": 1713,
      "Ġneed": 1714,
      "Ġmode": 1715,
      "present": 1716,
      "google": 1717,
      "static": 1718,
      "TR": 1719,
      "(_": 1720,
      "Ġad": 1721,
      "17": 1722,
      "Ġhttp": 1723,
      "Ġprovided": 1724,
      "stamp": 1725,
      "lean": 1726,
      "Ġcache": 1727,
      "pack": 1728,
      "ome": 1729,
      "utput": 1730,
      ".\"": 1731,
      "Ġbuild": 1732,
      "Ġ'\\": 1733,
      "split": 1734,
      "Ġcopy": 1735,
      "qa": 1736,
      "Ġ):": 1737,
      "ĉĉ": 1738,
      "ids": 1739,
      "Ġtop": 1740,
      "Ġsign": 1741,
      "Col": 1742,
      "Lo": 1743,
      "Message": 1744,
      "Ġservice": 1745,
      "command": 1746,
      "stubs": 1747,
      "ĠSee": 1748,
      "idd": 1749,
      "ump": 1750,
      "cked": 1751,
      "ateg": 1752,
      "Ġitem": 1753,
      "Ġstream": 1754,
      "={": 1755,
      "ger": 1756,
      "Ġ},": 1757,
      "Ġallow": 1758,
      "Ġgroup": 1759,
      "tric": 1760,
      "hether": 1761,
      "dtype": 1762,
      "mary": 1763,
      "06": 1764,
      "Ġits": 1765,
      "ias": 1766,
      "pression": 1767,
      "ĠData": 1768,
      "link": 1769,
      "Ġarray": 1770,
      "\"],": 1771,
      "ĠX": 1772,
      "eta": 1773,
      "escri": 1774,
      "âĢįðŁ": 1775,
      "Ġrange": 1776,
      "eb": 1777,
      "keys": 1778,
      ">`": 1779,
      "Ġannot": 1780,
      "Time": 1781,
      "cope": 1782,
      "Ġstatus": 1783,
      "``.": 1784,
      "/{": 1785,
      "MP": 1786,
      "ific": 1787,
      "Ġupdate": 1788,
      "Ġjson": 1789,
      "wh": 1790,
      "tails": 1791,
      "Ġnoqa": 1792,
      "shape": 1793,
      "net": 1794,
      "ification": 1795,
      "licit": 1796,
      "Ġlogging": 1797,
      "PO": 1798,
      "nown": 1799,
      "Ġexecut": 1800,
      "vis": 1801,
      "ĠAdd": 1802,
      "entity": 1803,
      "alled": 1804,
      "ĠID": 1805,
      "serialize": 1806,
      "Ġblock": 1807,
      "Ġav": 1808,
      "Ġrequired": 1809,
      "less": 1810,
      "pdate": 1811,
      "part": 1812,
      "fields": 1813,
      "rary": 1814,
      "---": 1815,
      "Ġtable": 1816,
      "Ġsame": 1817,
      "Ġqu": 1818,
      "off": 1819,
      "Ġhelp": 1820,
      "search": 1821,
      "license": 1822,
      "quire": 1823,
      "¸ı": 1824,
      "ector": 1825,
      "new": 1826,
      "ï¸ı": 1827,
      "Group": 1828,
      "86": 1829,
      "files": 1830,
      "Ġpi": 1831,
      "sum": 1832,
      "Ġsize": 1833,
      "pected": 1834,
      "Ġproto": 1835,
      "sets": 1836,
      "ĠPar": 1837,
      "Ġcontin": 1838,
      "Ġexp": 1839,
      "Lib": 1840,
      "Ġwas": 1841,
      "Ġdistribut": 1842,
      "ĠCallable": 1843,
      "Ġtorch": 1844,
      "Ġgiven": 1845,
      "Ġvariable": 1846,
      "xy": 1847,
      "mt": 1848,
      "prefix": 1849,
      "ĠâĢ": 1850,
      "frame": 1851,
      "Ġinstall": 1852,
      "air": 1853,
      "###": 1854,
      "Ġassert": 1855,
      "column": 1856,
      "ĠFor": 1857,
      "Run": 1858,
      "mission": 1859,
      "([": 1860,
      "ULT": 1861,
      "only": 1862,
      "Ġcolumn": 1863,
      "ymb": 1864,
      "Ġinit": 1865,
      "pri": 1866,
      "99": 1867,
      "dk": 1868,
      "su": 1869,
      "File": 1870,
      "channel": 1871,
      "print": 1872,
      "Ġms": 1873,
      "Ġoptions": 1874,
      "ĠCh": 1875,
      "Field": 1876,
      "TTP": 1877,
      "Event": 1878,
      "ĠDict": 1879,
      "istr": 1880,
      "ibility": 1881,
      "msg": 1882,
      "ason": 1883,
      "sses": 1884,
      "imum": 1885,
      "ublic": 1886,
      "Any": 1887,
      "async": 1888,
      "ML": 1889,
      "})": 1890,
      "connect": 1891,
      "bed": 1892,
      "Ġarguments": 1893,
      "Ġparameters": 1894,
      "match": 1895,
      "issing": 1896,
      "lobal": 1897,
      "Not": 1898,
      "igh": 1899,
      "ail": 1900,
      "Ġ7": 1901,
      "Ġlib": 1902,
      "NA": 1903,
      "Ġtask": 1904,
      "Ġheaders": 1905,
      "Optional": 1906,
      "âĢįâ": 1907,
      "VER": 1908,
      "gine": 1909,
      "ĠGener": 1910,
      "wrap": 1911,
      "\"):": 1912,
      "task": 1913,
      "Ġpackage": 1914,
      "Ġsome": 1915,
      "Ġfollow": 1916,
      "Ġraw": 1917,
      "Ġport": 1918,
      "Ġresults": 1919,
      "conds": 1920,
      "Ġparameter": 1921,
      "ints": 1922,
      "=[": 1923,
      "ĠCreate": 1924,
      "direct": 1925,
      "ten": 1926,
      "Ġload": 1927,
      "connection": 1928,
      "Ġmod": 1929,
      "Ġapi": 1930,
      "ESS": 1931,
      "host": 1932,
      "pyright": 1933,
      "Version": 1934,
      "sa": 1935,
      "MA": 1936,
      "Ġinclude": 1937,
      "Ġ([": 1938,
      "uster": 1939,
      "ont": 1940,
      "FAULT": 1941,
      "Frame": 1942,
      "0001": 1943,
      "Ġspecified": 1944,
      "Ġax": 1945,
      "Path": 1946,
      "idx": 1947,
      "Ġnames": 1948,
      "bin": 1949,
      "Ġfields": 1950,
      "Array": 1951,
      "ured": 1952,
      "23": 1953,
      "open": 1954,
      "pop": 1955,
      "Ġagent": 1956,
      "idget": 1957,
      "now": 1958,
      "</": 1959,
      "ĠUR": 1960,
      "ose": 1961,
      "Ġinformation": 1962,
      "logger": 1963,
      "ĠPath": 1964,
      "Ġmake": 1965,
      "Ġnon": 1966,
      "Create": 1967,
      "ckeditor": 1968,
      "scal": 1969,
      "cc": 1970,
      "hook": 1971,
      "ceptions": 1972,
      "current": 1973,
      "ru": 1974,
      "ither": 1975,
      "Ġver": 1976,
      "Ġopen": 1977,
      "Ġchar": 1978,
      "uction": 1979,
      "Ġlimit": 1980,
      "Stream": 1981,
      "Ġdescription": 1982,
      "IL": 1983,
      "cies": 1984,
      "flare": 1985,
      "Ġsys": 1986,
      "ities": 1987,
      "tensor": 1988,
      "55": 1989,
      "schema": 1990,
      "Ġshape": 1991,
      "****": 1992,
      "ĠâĢĶ": 1993,
      "\".": 1994,
      "Ġconnection": 1995,
      "Ġlabel": 1996,
      "Auth": 1997,
      "mote": 1998,
      "Ġpri": 1999,
      "Ġpage": 2000,
      "Context": 2001,
      "Ġavailable": 2002,
      "[:": 2003,
      "Man": 2004,
      "Ġdim": 2005,
      "chedule": 2006,
      "DO": 2007,
      "Ġorder": 2008,
      "spec": 2009,
      "Ġlocal": 2010,
      "az": 2011,
      "script": 2012,
      "''": 2013,
      "ful": 2014,
      "Ġ*,": 2015,
      "Ġimp": 2016,
      "Output": 2017,
      "lan": 2018,
      "Ġobj": 2019,
      "PT": 2020,
      "oftware": 2021,
      "ake": 2022,
      "Ġbefore": 2023,
      "ches": 2024,
      "Ġprocess": 2025,
      "coder": 2026,
      "ice": 2027,
      "ĠException": 2028,
      "body": 2029,
      "Ġu": 2030,
      "Var": 2031,
      "Form": 2032,
      "Ġdirectory": 2033,
      "ailed": 2034,
      "device": 2035,
      "void": 2036,
      "Ġcustom": 2037,
      "IG": 2038,
      "Ġtag": 2039,
      "struction": 2040,
      "kit": 2041,
      "Ġpos": 2042,
      "Ġalso": 2043,
      "Bu": 2044,
      "Ġnum": 2045,
      "Ġcontinue": 2046,
      "gener": 2047,
      "valu": 2048,
      "Ġcomple": 2049,
      "cloudflare": 2050,
      "erge": 2051,
      "dr": 2052,
      "Ġmsg": 2053,
      "CP": 2054,
      "CON": 2055,
      "Ġsc": 2056,
      "entic": 2057,
      "rix": 2058,
      "28": 2059,
      "Metadata": 2060,
      "74": 2061,
      "Ġstruct": 2062,
      "future": 2063,
      "velo": 2064,
      "stall": 2065,
      "alyt": 2066,
      "mplemented": 2067,
      "execut": 2068,
      "Ġfound": 2069,
      "Ġtotal": 2070,
      "Ġexample": 2071,
      "zer": 2072,
      "order": 2073,
      "olve": 2074,
      "penden": 2075,
      "26": 2076,
      "cry": 2077,
      "Input": 2078,
      "Ġwhere": 2079,
      "Status": 2080,
      "ĠLiteral": 2081,
      "EL": 2082,
      "Ġthen": 2083,
      "Ġthan": 2084,
      ".\")": 2085,
      "lines": 2086,
      "trol": 2087,
      "Ġwhile": 2088,
      "75": 2089,
      "alytics": 2090,
      "Ġoff": 2091,
      "posit": 2092,
      "ti": 2093,
      "ï¸ı':": 2094,
      "Ġbody": 2095,
      "cent": 2096,
      "DI": 2097,
      "umpy": 2098,
      "Info": 2099,
      "dev": 2100,
      "post": 2101,
      "``,": 2102,
      "txt": 2103,
      "94": 2104,
      "Ġconfiguration": 2105,
      "Ġvis": 2106,
      "width": 2107,
      "Ġlast": 2108,
      "plot": 2109,
      "Object": 2110,
      "comple": 2111,
      "click": 2112,
      "chunk": 2113,
      "INT": 2114,
      "Ġsingle": 2115,
      "annot": 2116,
      "mask": 2117,
      "ĠAN": 2118,
      "Ġnext": 2119,
      "Ġinstead": 2120,
      "EX": 2121,
      "ymbol": 2122,
      "Ġafter": 2123,
      "Ġ8": 2124,
      "np": 2125,
      "reak": 2126,
      "proto": 2127,
      "Function": 2128,
      "mbed": 2129,
      "((": 2130,
      "OUT": 2131,
      "ld": 2132,
      "Ġspecific": 2133,
      "Add": 2134,
      "String": 2135,
      "lied": 2136,
      "pyder": 2137,
      "ready": 2138,
      "ĠIt": 2139,
      "Ġchunk": 2140,
      "number": 2141,
      "ĠAt": 2142,
      "36": 2143,
      "`:": 2144,
      "Ġenum": 2145,
      "gment": 2146,
      "tests": 2147,
      "side": 2148,
      "State": 2149,
      "ĠUse": 2150,
      "ward": 2151,
      "}/": 2152,
      "Ġ--------": 2153,
      "Ġvia": 2154,
      "meta": 2155,
      "}'": 2156,
      "Ġspec": 2157,
      "color": 2158,
      "Ġfla": 2159,
      "other": 2160,
      "change": 2161,
      "Ġparent": 2162,
      "mod": 2163,
      "Ġrepresent": 2164,
      "option": 2165,
      "description": 2166,
      "ET": 2167,
      "Ġfeature": 2168,
      "ĠBase": 2169,
      "etch": 2170,
      "gent": 2171,
      "ling": 2172,
      "round": 2173,
      "ĠJSON": 2174,
      "rop": 2175,
      "Dll": 2176,
      "Return": 2177,
      "ools": 2178,
      "qual": 2179,
      "LibXls": 2180,
      "DllLibXls": 2181,
      "tools": 2182,
      "tion": 2183,
      "manager": 2184,
      "38": 2185,
      "latform": 2186,
      "mory": 2187,
      "Ġtrue": 2188,
      "Ġoperation": 2189,
      "Ġval": 2190,
      "ĠURL": 2191,
      "ITH": 2192,
      "sdk": 2193,
      "Ġwithout": 2194,
      "Ġattribute": 2195,
      "Comp": 2196,
      "Ġiter": 2197,
      "ĠAsync": 2198,
      "pol": 2199,
      "andom": 2200,
      "www": 2201,
      "pository": 2202,
      "Ġclo": 2203,
      "Ġoption": 2204,
      "Ġdatetime": 2205,
      "ights": 2206,
      "tainer": 2207,
      "wise": 2208,
      "endpoint": 2209,
      "ified": 2210,
      "Ġaut": 2211,
      "cast": 2212,
      "ĠFix": 2213,
      "34": 2214,
      "delete": 2215,
      "lot": 2216,
      "35": 2217,
      "commit": 2218,
      "page": 2219,
      "handler": 2220,
      "Ġattributes": 2221,
      "Source": 2222,
      "20": 2223,
      "Ġuni": 2224,
      "address": 2225,
      "Ġ>=": 2226,
      "().__": 2227,
      "Show": 2228,
      "Paginator": 2229,
      "__.": 2230,
      "Ġeither": 2231,
      "Ġscal": 2232,
      "aws": 2233,
      "verse": 2234,
      "Ġorig": 2235,
      "Ġwrit": 2236,
      "Ġelement": 2237,
      "strip": 2238,
      "utf": 2239,
      "Ġaccess": 2240,
      "Ġannotations": 2241,
      "hen": 2242,
      "ures": 2243,
      "gress": 2244,
      "imple": 2245,
      "ynam": 2246,
      "bor": 2247,
      "000": 2248,
      "ĠTo": 2249,
      "ags": 2250,
      "Ġsearch": 2251,
      "Ġroot": 2252,
      "This": 2253,
      "teger": 2254,
      "Ġargument": 2255,
      "Ġenvironment": 2256,
      "Ġtensor": 2257,
      "abs": 2258,
      "batch": 2259,
      "Ġbet": 2260,
      "Union": 2261,
      "ĠYou": 2262,
      "Ġboto": 2263,
      "Ġ&": 2264,
      "coded": 2265,
      "mbda": 2266,
      "Ġcollection": 2267,
      "uni": 2268,
      "^^^^": 2269,
      "85": 2270,
      "Ġparse": 2271,
      "indows": 2272,
      "iple": 2273,
      "support": 2274,
      "ugh": 2275,
      "Class": 2276,
      "]):": 2277,
      "idden": 2278,
      "tran": 2279,
      "27": 2280,
      "Ġdistributed": 2281,
      "ĠRun": 2282,
      "plugin": 2283,
      "Ġsa": 2284,
      "Ġfix": 2285,
      "cio": 2286,
      "last": 2287,
      "95": 2288,
      "store": 2289,
      "Ġrequests": 2290,
      "FF": 2291,
      "limit": 2292,
      "mult": 2293,
      "Query": 2294,
      "orage": 2295,
      "style": 2296,
      "root": 2297,
      "char": 2298,
      "à´": 2299,
      "Ġhost": 2300,
      "AI": 2301,
      "ctionary": 2302,
      "antic": 2303,
      "ransport": 2304,
      "extensions": 2305,
      "Ġreturns": 2306,
      "system": 2307,
      "apache": 2308,
      "graph": 2309,
      "Policy": 2310,
      "Ġkeys": 2311,
      "Ġheader": 2312,
      "Ġind": 2313,
      "Ġ'ðŁĳ": 2314,
      "lue": 2315,
      "issues": 2316,
      "ared": 2317,
      "rt": 2318,
      "Ġreturned": 2319,
      "services": 2320,
      "à¥": 2321,
      "medi": 2322,
      "wo": 2323,
      "Ġter": 2324,
      "Or": 2325,
      "cated": 2326,
      ".\",": 2327,
      "ĠOR": 2328,
      "pyspark": 2329,
      "udio": 2330,
      "icro": 2331,
      "Ġentry": 2332,
      "Ġref": 2333,
      "ĠResponse": 2334,
      "Ġpayload": 2335,
      "ploy": 2336,
      "HE": 2337,
      "ĠEn": 2338,
      "ored": 2339,
      "perator": 2340,
      "credentials": 2341,
      "Ġerrors": 2342,
      "ĠĠĠĠĠĠĠĠĠĠĠĠĠ": 2343,
      "pers": 2344,
      "stra": 2345,
      "With": 2346,
      "rough": 2347,
      "Al": 2348,
      "Ġcli": 2349,
      "Ġsee": 2350,
      "US": 2351,
      "shot": 2352,
      "CT": 2353,
      "temp": 2354,
      "âĢįâĻ": 2355,
      "Ġinterface": 2356,
      "`)": 2357,
      "ĠOpen": 2358,
      "ced": 2359,
      "access": 2360,
      "yncio": 2361,
      "Ġthere": 2362,
      "rid": 2363,
      "ele": 2364,
      "ĠĠĠĠĠĠĠĠĠĠĠĠĠĠĠĠĠĠĠĠĠĠĠĠĠĠĠĠĠĠĠ": 2365,
      "Ġwrap": 2366,
      "lower": 2367,
      "Tensor": 2368,
      "parent": 2369,
      "Ġsystem": 2370,
      "Ġserializ": 2371,
      "Ġobjects": 2372,
      "[[": 2373,
      "callback": 2374,
      "Ġap": 2375,
      "TO": 2376,
      "izer": 2377,
      "Ġ10": 2378,
      "84": 2379,
      "Ġaction": 2380,
      "she": 2381,
      "96": 2382,
      "By": 2383,
      "Ġpas": 2384,
      "Ġcomponent": 2385,
      "ĠKey": 2386,
      "alid": 2387,
      "ular": 2388,
      "ĠCopyright": 2389,
      "Inter": 2390,
      "Ġow": 2391,
      "embed": 2392,
      "Ġproperty": 2393,
      "resp": 2394,
      "copy": 2395,
      "Ġgetattr": 2396,
      "Format": 2397,
      "Ġdevice": 2398,
      "parameters": 2399,
      "Ġdiffer": 2400,
      "keep": 2401,
      "Code": 2402,
      "Ġ202": 2403,
      "TH": 2404,
      "une": 2405,
      "WS": 2406,
      "ĠComp": 2407,
      "Descri": 2408,
      "Ġyield": 2409,
      "tegr": 2410,
      "istry": 2411,
      "Ġnow": 2412,
      "Ġdetails": 2413,
      "Ġlength": 2414,
      "ater": 2415,
      "bound": 2416,
      "replace": 2417,
      "util": 2418,
      "KEY": 2419,
      "Ġpattern": 2420,
      "Configuration": 2421,
      "quires": 2422,
      "internal": 2423,
      "Ġfind": 2424,
      "ĠModel": 2425,
      "ene": 2426,
      "template": 2427,
      "fc": 2428,
      "Ġparser": 2429,
      "Spe": 2430,
      "ween": 2431,
      "ĠSet": 2432,
      "alog": 2433,
      "Ġframe": 2434,
      "UM": 2435,
      "peri": 2436,
      "501": 2437,
      "Ġcreated": 2438,
      "Token": 2439,
      "Ġiss": 2440,
      "err": 2441,
      "ĠCON": 2442,
      "Ġjob": 2443,
      "conf": 2444,
      "ĠSer": 2445,
      "Ġschema": 2446,
      "Ġsupported": 2447,
      "results": 2448,
      "Ġdisable": 2449,
      "Table": 2450,
      "'),": 2451,
      "job": 2452,
      "tuple": 2453,
      "register": 2454,
      "Ġ('": 2455,
      "coun": 2456,
      "Implemented": 2457,
      "ox": 2458,
      "cret": 2459,
      "release": 2460,
      "Ġprefix": 2461,
      "ptim": 2462,
      "ha": 2463,
      "Ġcredentials": 2464,
      "sing": 2465,
      "Ġmark": 2466,
      "(*": 2467,
      "EST": 2468,
      "sole": 2469,
      "ĠCol": 2470,
      "Ġthread": 2471,
      "duct": 2472,
      "luster": 2473,
      "Ġbatch": 2474,
      "next": 2475,
      "RequestTypeDef": 2476,
      "Ġhere": 2477,
      "argument": 2478,
      "Ġexc": 2479,
      "Ġtemplate": 2480,
      "feature": 2481,
      "ename": 2482,
      "Ġlevel": 2483,
      "ume": 2484,
      "Ġca": 2485,
      "nder": 2486,
      ">=": 2487,
      "Ġhandle": 2488,
      "Ġbound": 2489,
      "Connection": 2490,
      "dated": 2491,
      "nap": 2492,
      "inary": 2493,
      "tract": 2494,
      "trics": 2495,
      "Ġhe": 2496,
      "sample": 2497,
      "range": 2498,
      "ATE": 2499,
      "QU": 2500,
      "Ġcolor": 2501,
      "Ġreport": 2502,
      "mypy": 2503,
      "56": 2504,
      "Ġendpoint": 2505,
      "Ġimplement": 2506,
      "Ġnormal": 2507,
      "76": 2508,
      "find": 2509,
      "title": 2510,
      "}.": 2511,
      "Ġattr": 2512,
      "Options": 2513,
      "backend": 2514,
      "Work": 2515,
      "Ġrow": 2516,
      "ird": 2517,
      "ĠTO": 2518,
      "yout": 2519,
      "ĠNotImplemented": 2520,
      "ven": 2521,
      "pass": 2522,
      "cle": 2523,
      "ux": 2524,
      "exceptions": 2525,
      "ways": 2526,
      "Ġret": 2527,
      "ðĳ": 2528,
      "rag": 2529,
      "ALL": 2530,
      "parser": 2531,
      "Ġfollowing": 2532,
      "Ġsort": 2533,
      "cho": 2534,
      "Ġgoogle": 2535,
      "Index": 2536,
      "sci": 2537,
      "ric": 2538,
      "light": 2539,
      "Ġmap": 2540,
      "ĠHTTP": 2541,
      "older": 2542,
      "Ġ\".": 2543,
      "lint": 2544,
      "Ġchannel": 2545,
      "filen": 2546,
      "allback": 2547,
      "active": 2548,
      "typing": 2549,
      "Ġmessages": 2550,
      "Ġfunctions": 2551,
      "Ġprovide": 2552,
      "LIC": 2553,
      "make": 2554,
      "ĠWITH": 2555,
      "PRO": 2556,
      "arts": 2557,
      "inder": 2558,
      "olut": 2559,
      "44": 2560,
      "cript": 2561,
      "uri": 2562,
      "cker": 2563,
      "29": 2564,
      "LM": 2565,
      "child": 2566,
      "ĠĠĠĠĠĠĠĠĠĠ": 2567,
      "Reg": 2568,
      "zone": 2569,
      "Ptr": 2570,
      "etwork": 2571,
      "queue": 2572,
      ")))": 2573,
      "uid": 2574,
      "Ġtri": 2575,
      "ĠSequence": 2576,
      "aged": 2577,
      "ze": 2578,
      "ĠIN": 2579,
      "NAME": 2580,
      "\">": 2581,
      "ived": 2582,
      "patch": 2583,
      "ank": 2584,
      "send": 2585,
      "ĠCode": 2586,
      "IO": 2587,
      "Tag": 2588,
      "ocation": 2589,
      "ĠVersion": 2590,
      "Ġsend": 2591,
      "Ġmodels": 2592,
      "vers": 2593,
      "\"])": 2594,
      "Sequence": 2595,
      "payload": 2596,
      "select": 2597,
      "riter": 2598,
      "Check": 2599,
      "vate": 2600,
      "ises": 2601,
      "dices": 2602,
      "ffi": 2603,
      "ango": 2604,
      "domain": 2605,
      "ended": 2606,
      "torch": 2607,
      "ually": 2608,
      "ECK": 2609,
      "Ġalready": 2610,
      "exp": 2611,
      "CE": 2612,
      "udience": 2613,
      "78": 2614,
      "Ġbreak": 2615,
      "ĠOF": 2616,
      "datetime": 2617,
      "arnings": 2618,
      "DEFAULT": 2619,
      "Ġlike": 2620,
      "ross": 2621,
      "Ġfull": 2622,
      "pull": 2623,
      "100": 2624,
      "200": 2625,
      "Update": 2626,
      "________": 2627,
      "jango": 2628,
      "Enum": 2629,
      "Ġprompt": 2630,
      "offset": 2631,
      "nx": 2632,
      "Ġ$": 2633,
      "stant": 2634,
      "classmethod": 2635,
      ")]": 2636,
      "Ġthem": 2637,
      "step": 2638,
      "veal": 2639,
      "Ġfil": 2640,
      "CHECK": 2641,
      "Mode": 2642,
      "napshot": 2643,
      "Filter": 2644,
      "filename": 2645,
      "azure": 2646,
      "Ġselect": 2647,
      "itions": 2648,
      "Ġauto": 2649,
      "staticmethod": 2650,
      "comm": 2651,
      "Ġretri": 2652,
      "Ġpassed": 2653,
      "nb": 2654,
      "ves": 2655,
      "OL": 2656,
      "ĠIS": 2657,
      "tree": 2658,
      "39": 2659,
      "hash": 2660,
      "ATION": 2661,
      "Ġgenerated": 2662,
      "tokens": 2663,
      "SI": 2664,
      "her": 2665,
      "RAN": 2666,
      "Ġbetween": 2667,
      "policy": 2668,
      "UP": 2669,
      "ait": 2670,
      "als": 2671,
      "spyder": 2672,
      "std": 2673,
      "ĠName": 2674,
      "pattern": 2675,
      "ResponseTypeDef": 2676,
      "dings": 2677,
      "For": 2678,
      "Ġwhether": 2679,
      "auto": 2680,
      "stract": 2681,
      "Ġsample": 2682,
      "serializer": 2683,
      "Ġbeen": 2684,
      "Ġadded": 2685,
      "warning": 2686,
      "ENSE": 2687,
      "Ġskip": 2688,
      "Int": 2689,
      "Te": 2690,
      "ists": 2691,
      "pha": 2692,
      "alf": 2693,
      "Ġdictionary": 2694,
      "ĠDE": 2695,
      "TYPE": 2696,
      "ynamic": 2697,
      "Gener": 2698,
      "-------": 2699,
      "nn": 2700,
      "Ġlanguage": 2701,
      "âĶĢâĶĢâĶĢâĶĢ": 2702,
      "Node": 2703,
      "bar": 2704,
      "46": 2705,
      "Ġ```": 2706,
      "Session": 2707,
      "ivar": 2708,
      "loc": 2709,
      "Async": 2710,
      "Ġpoint": 2711,
      "IP": 2712,
      "Ġstep": 2713,
      "oci": 2714,
      "Manager": 2715,
      "entication": 2716,
      "Ġcallback": 2717,
      "Content": 2718,
      "Ġkeyword": 2719,
      "ming": 2720,
      "Ġlink": 2721,
      "encode": 2722,
      "Ġcalled": 2723,
      "\"\\": 2724,
      "Ġ'{": 2725,
      "ĠOn": 2726,
      "ĠNotImplementedError": 2727,
      "Ġlong": 2728,
      "inition": 2729,
      "spect": 2730,
      "missions": 2731,
      "component": 2732,
      "cul": 2733,
      "Ġboth": 2734,
      "lex": 2735,
      "properties": 2736,
      "Ġempty": 2737,
      ":**": 2738,
      "Com": 2739,
      "Ġmask": 2740,
      "eded": 2741,
      "Sub": 2742,
      "STR": 2743,
      "Ġhandler": 2744,
      "ds": 2745,
      ",),": 2746,
      "Ġchild": 2747,
      "Ġhasattr": 2748,
      "like": 2749,
      "AP": 2750,
      "Ġrelease": 2751,
      "ptune": 2752,
      "istory": 2753,
      "'):": 2754,
      "andard": 2755,
      "classes": 2756,
      "ertific": 2757,
      "af": 2758,
      "Ġdown": 2759,
      "Ġtags": 2760,
      "Ġexception": 2761,
      "~~~~~~~~": 2762,
      "orig": 2763,
      "Ġstyle": 2764,
      "Ġwrite": 2765,
      "settings": 2766,
      "QL": 2767,
      "ĠNOT": 2768,
      "Ġoffset": 2769,
      "thread": 2770,
      "transform": 2771,
      "Ġright": 2772,
      "Ġinfo": 2773,
      "gen": 2774,
      "Ġproperties": 2775,
      "ancel": 2776,
      ">`_": 2777,
      "83": 2778,
      "ĠConfig": 2779,
      "Ġretry": 2780,
      "({": 2781,
      "[-": 2782,
      "Text": 2783,
      "Ġrequire": 2784,
      "Ġcla": 2785,
      "aded": 2786,
      "ĠLE": 2787,
      "Ġdataset": 2788,
      "ton": 2789,
      "ie": 2790,
      "CHECKING": 2791,
      "ĠTh": 2792,
      "party": 2793,
      "Ġautom": 2794,
      "ants": 2795,
      "precated": 2796,
      "del": 2797,
      "Ġcharact": 2798,
      "pool": 2799,
      "ĠParameters": 2800,
      "Link": 2801,
      "Ġbackend": 2802,
      "cat": 2803,
      "ĠStr": 2804,
      "ire": 2805,
      "Trans": 2806,
      "Ġthey": 2807,
      "gor": 2808,
      "Ġtwo": 2809,
      "ffect": 2810,
      "Ġplugin": 2811,
      "Ġworkspace": 2812,
      "Ġfail": 2813,
      "reshold": 2814,
      "common": 2815,
      "Ġrece": 2816,
      "analytics": 2817,
      "ability": 2818,
      "Ġctx": 2819,
      "rate": 2820,
      "rest": 2821,
      "Ġenv": 2822,
      "cover": 2823,
      "ĠAd": 2824,
      "66": 2825,
      "Ġdocument": 2826,
      "TTER": 2827,
      "Ġ\"_": 2828,
      "bit": 2829,
      "Back": 2830,
      "install": 2831,
      "Ġshow": 2832,
      "Ġpipeline": 2833,
      "à¦": 2834,
      "Ġ(#": 2835,
      "Ġq": 2836,
      "ely": 2837,
      "à¥į": 2838,
      "ĠTYPE": 2839,
      "account": 2840,
      "messages": 2841,
      "ĠMe": 2842,
      "Ġevery": 2843,
      "Ġextract": 2844,
      "Ġ\"--": 2845,
      "Ġencoding": 2846,
      "\"))": 2847,
      "Ġmetric": 2848,
      "Ret": 2849,
      "element": 2850,
      "45": 2851,
      "aries": 2852,
      "Ġwould": 2853,
      "Ġembed": 2854,
      "MS": 2855,
      "Ġ~": 2856,
      ":`~": 2857,
      "lt": 2858,
      "Ġed": 2859,
      "Ġfilename": 2860,
      "cpp": 2861,
      "admin": 2862,
      "lation": 2863,
      "Ġpol": 2864,
      "Ġinclu": 2865,
      "Ġjust": 2866,
      "Ġasyncio": 2867,
      "Ġsetup": 2868,
      "mg": 2869,
      "Ġtests": 2870,
      "rtype": 2871,
      "Ġreference": 2872,
      "olution": 2873,
      "attribute": 2874,
      "Ġthrough": 2875,
      "ush": 2876,
      "pie": 2877,
      "gorith": 2878,
      "Ġcontainer": 2879,
      "Ġdtype": 2880,
      "ster": 2881,
      "ordin": 2882,
      "handle": 2883,
      "98": 2884,
      "ged": 2885,
      "soft": 2886,
      "ested": 2887,
      "][": 2888,
      "ince": 2889,
      "Ġmo": 2890,
      "LOG": 2891,
      "location": 2892,
      ".,": 2893,
      "ĠIter": 2894,
      "Ġaccept": 2895,
      "Ġmethods": 2896,
      "Ġcond": 2897,
      "Ġmeta": 2898,
      "30": 2899,
      "Ġstop": 2900,
      "Ġtemp": 2901,
      "vartype": 2902,
      "prompt": 2903,
      "wer": 2904,
      "'.": 2905,
      "Ġdifferent": 2906,
      "Ġmon": 2907,
      "Ġsoftware": 2908,
      "Ġfunc": 2909,
      "git": 2910,
      "sor": 2911,
      "custom": 2912,
      "Ġ{'": 2913,
      "lin": 2914,
      "Instance": 2915,
      "inx": 2916,
      "ORT": 2917,
      "ĠWhen": 2918,
      "press": 2919,
      "Ġthese": 2920,
      "Schema": 2921,
      "Ġexisting": 2922,
      "fy": 2923,
      "Ġsum": 2924,
      "Ġ\"\"": 2925,
      "ĠWe": 2926,
      "ĠLETTER": 2927,
      "stack": 2928,
      "sys": 2929,
      "Ġpla": 2930,
      "imp": 2931,
      "olver": 2932,
      "cf": 2933,
      "math": 2934,
      "Th": 2935,
      "paginator": 2936,
      "serv": 2937,
      "loop": 2938,
      "normal": 2939,
      "itive": 2940,
      "SION": 2941,
      "tach": 2942,
      "ather": 2943,
      "keyword": 2944,
      "License": 2945,
      "Ġwant": 2946,
      "Ġloop": 2947,
      "validate": 2948,
      "ĠAp": 2949,
      "points": 2950,
      "CL": 2951,
      "Ġlibrary": 2952,
      "Ġmultiple": 2953,
      "transport": 2954,
      "report": 2955,
      "Ġ----------": 2956,
      "dantic": 2957,
      "havi": 2958,
      "half": 2959,
      "Search": 2960,
      "decode": 2961,
      "sv": 2962,
      "allow": 2963,
      "extend": 2964,
      "third": 2965,
      "include": 2966,
      "Ġhow": 2967,
      "ĠANY": 2968,
      "ernel": 2969,
      "attributes": 2970,
      "web": 2971,
      "Ġresp": 2972,
      "App": 2973,
      "fn": 2974,
      "ttp": 2975,
      "cer": 2976,
      "ĠĠĠĠĠĠĠĠĠĠĠĠ": 2977,
      "################################": 2978,
      "supported": 2979,
      "ĠWAR": 2980,
      "resources": 2981,
      "ĠQ": 2982,
      "known": 2983,
      "ĠFile": 2984,
      "entry": 2985,
      "Ġapplication": 2986,
      "OS": 2987,
      "ĠRequest": 2988,
      "abc": 2989,
      "gb": 2990,
      "amaz": 2991,
      "Ġform": 2992,
      "bose": 2993,
      "used": 2994,
      "engine": 2995,
      "Le": 2996,
      "Ġexplicit": 2997,
      "amazon": 2998,
      "Ġop": 2999,
      "eval": 3000,
      "Ġnumpy": 3001,
      "builder": 3002,
      "Ġdimension": 3003,
      "37": 3004,
      "dataclass": 3005,
      "documentation": 3006,
      "}\",": 3007,
      "rowser": 3008,
      "vars": 3009,
      "AGE": 3010,
      "metric": 3011,
      "full": 3012,
      "tags": 3013,
      "application": 3014,
      "ĠTypeError": 3015,
      "ench": 3016,
      "Ġrecord": 3017,
      "Named": 3018,
      "trace": 3019,
      "Ġ<=": 3020,
      "Ġadditional": 3021,
      "Di": 3022,
      "ĠLanguage": 3023,
      "Ġlines": 3024,
      "oolean": 3025,
      "Settings": 3026,
      "term": 3027,
      "dist": 3028,
      "Ġcount": 3029,
      "gest": 3030,
      "chain": 3031,
      "rad": 3032,
      "any": 3033,
      "pendencies": 3034,
      "crypt": 3035,
      "ABLE": 3036,
      "DB": 3037,
      "/#": 3038,
      "++": 3039,
      "cmd": 3040,
      "Ġaccount": 3041,
      "Ġfact": 3042,
      "Spec": 3043,
      "Module": 3044,
      "Ġabout": 3045,
      "Ġ(:": 3046,
      "leg": 3047,
      "88": 3048,
      "vious": 3049,
      "Ġcast": 3050,
      "ries": 3051,
      "ĠCheck": 3052,
      "PR": 3053,
      "download": 3054,
      "cing": 3055,
      "layer": 3056,
      "starts": 3057,
      "override": 3058,
      "Line": 3059,
      "ä¸": 3060,
      "Ġtheir": 3061,
      "Invalid": 3062,
      "================================": 3063,
      "Pre": 3064,
      "),,": 3065,
      "bucket": 3066,
      "97": 3067,
      "igen": 3068,
      "ient": 3069,
      "End": 3070,
      "cel": 3071,
      "ining": 3072,
      "áŀ": 3073,
      "cks": 3074,
      "Ġfailed": 3075,
      "served": 3076,
      "Ġitems": 3077,
      "show": 3078,
      "ĠGetDllLibXls": 3079,
      "ECT": 3080,
      "21": 3081,
      "ole": 3082,
      "Ġrender": 3083,
      "has": 3084,
      "vari": 3085,
      "buf": 3086,
      "ĠClient": 3087,
      "mber": 3088,
      "sentence": 3089,
      "ffix": 3090,
      "seconds": 3091,
      "Ġremove": 3092,
      "expr": 3093,
      "widget": 3094,
      "¾':": 3095,
      "ins": 3096,
      "close": 3097,
      "Ġkeep": 3098,
      "respon": 3099,
      ")):": 3100,
      "Ġoriginal": 3101,
      "ia": 3102,
      "andas": 3103,
      "ader": 3104,
      "Ġcallable": 3105,
      "native": 3106,
      "gramming": 3107,
      "=(": 3108,
      "exception": 3109,
      "Dis": 3110,
      "Ġ._": 3111,
      "ĠTODO": 3112,
      "stop": 3113,
      "Ġdelete": 3114,
      "eve": 3115,
      "ĠAuth": 3116,
      "Ġtopic": 3117,
      "img": 3118,
      "moved": 3119,
      "andbox": 3120,
      "Ite": 3121,
      "piece": 3122,
      "AM": 3123,
      "med": 3124,
      "Ġaxis": 3125,
      "HT": 3126,
      "ĠDefaults": 3127,
      "ctx": 3128,
      "Ġmain": 3129,
      "errors": 3130,
      "Ġweb": 3131,
      "erate": 3132,
      "river": 3133,
      "timestamp": 3134,
      "sert": 3135,
      "Ġdisplay": 3136,
      "Ġbased": 3137,
      "Ġrest": 3138,
      "can": 3139,
      "cify": 3140,
      "ignore": 3141,
      "Ġregister": 3142,
      "Ġge": 3143,
      "tention": 3144,
      "User": 3145,
      "ily": 3146,
      "Ġsection": 3147,
      "Ġparam": 3148,
      "Ġcannot": 3149,
      "Ġsuch": 3150,
      "cause": 3151,
      "OP": 3152,
      "ĠDo": 3153,
      "itch": 3154,
      "Rule": 3155,
      "sage": 3156,
      "meth": 3157,
      "Ġaddress": 3158,
      "alcul": 3159,
      "dump": 3160,
      "Ġlook": 3161,
      "ATIN": 3162,
      "ination": 3163,
      "Ġreplace": 3164,
      "Ġ['": 3165,
      "scale": 3166,
      "Ġcontaining": 3167,
      "Ac": 3168,
      "Per": 3169,
      "tegration": 3170,
      "Channel": 3171,
      "Ġlocation": 3172,
      "ency": 3173,
      "Ġexpected": 3174,
      "BU": 3175,
      "Ġwarnings": 3176,
      "Call": 3177,
      "olved": 3178,
      "Ġ\"/": 3179,
      "aw": 3180,
      "TER": 3181,
      "ng": 3182,
      "Ġ(`": 3183,
      "Ġmapping": 3184,
      "ĠWARRAN": 3185,
      "ĠResource": 3186,
      "__)": 3187,
      "ADME": 3188,
      "SC": 3189,
      "ĠRE": 3190,
      "socket": 3191,
      "Ġtitle": 3192,
      "Callable": 3193,
      "first": 3194,
      "ACK": 3195,
      "UB": 3196,
      "total": 3197,
      "ift": 3198,
      "MO": 3199,
      "Identifier": 3200,
      "pb": 3201,
      "RPC": 3202,
      "ĠCall": 3203,
      "Ġdist": 3204,
      "Ġcompat": 3205,
      "sort": 3206,
      "pth": 3207,
      "Ġsequence": 3208,
      "END": 3209,
      "VAL": 3210,
      "Ġunit": 3211,
      "Map": 3212,
      "ground": 3213,
      "vision": 3214,
      "SH": 3215,
      "ategory": 3216,
      "Ġrule": 3217,
      "alias": 3218,
      "ĠMapping": 3219,
      "stim": 3220,
      "ĠUpdate": 3221,
      "ators": 3222,
      "Ġexpression": 3223,
      "ĠNe": 3224,
      "way": 3225,
      "cr": 3226,
      "Ġsettings": 3227,
      "Ġuses": 3228,
      "201": 3229,
      "upy": 3230,
      "provider": 3231,
      "Ġ\"__": 3232,
      "PAT": 3233,
      "namespace": 3234,
      "ories": 3235,
      "IONS": 3236,
      "Ġautomatic": 3237,
      "lative": 3238,
      "ĠTuple": 3239,
      "scope": 3240,
      "Ġmemory": 3241,
      "Ġstack": 3242,
      "Ġwidth": 3243,
      "rule": 3244,
      "gorithm": 3245,
      ")),": 3246,
      "Ġcontains": 3247,
      "startswith": 3248,
      "Ġclick": 3249,
      "ram": 3250,
      "Delete": 3251,
      "Ġoperations": 3252,
      "50": 3253,
      "Ġfuture": 3254,
      "unit": 3255,
      "Ġdest": 3256,
      "Ġview": 3257,
      "section": 3258,
      "Ġapplic": 3259,
      "Tra": 3260,
      "Sec": 3261,
      "Ġcons": 3262,
      "youtype": 3263,
      "norm": 3264,
      "Ġlicense": 3265,
      "ĠApp": 3266,
      "Method": 3267,
      "Ġown": 3268,
      "]],": 3269,
      "deserialize": 3270,
      "ression": 3271,
      "Ġdefined": 3272,
      "Ġidentifier": 3273,
      "ĠAl": 3274,
      "icrosoft": 3275,
      "Element": 3276,
      "Doc": 3277,
      "Ġscope": 3278,
      "ear": 3279,
      "Ġmerge": 3280,
      "(__": 3281,
      "Ġpack": 3282,
      "Ġvari": 3283,
      "ĠRequired": 3284,
      "Ġtimestamp": 3285,
      "sm": 3286,
      "beta": 3287,
      "=_": 3288,
      "liance": 3289,
      "plugins": 3290,
      "Ġ],": 3291,
      "LS": 3292,
      "DataFrame": 3293,
      "uring": 3294,
      "rpc": 3295,
      "tt": 3296,
      "repr": 3297,
      "ĠAll": 3298,
      "ives": 3299,
      "ĠNote": 3300,
      "metry": 3301,
      "Ġchanges": 3302,
      "}:": 3303,
      "pipeline": 3304,
      "Ġmissing": 3305,
      "ĠTime": 3306,
      "Ġdomain": 3307,
      "ike": 3308,
      "case": 3309,
      "Block": 3310,
      "mal": 3311,
      "columns": 3312,
      "77": 3313,
      "Ġdb": 3314,
      "iled": 3315,
      "DK": 3316,
      "Operation": 3317,
      "Handler": 3318,
      "Ġreveal": 3319,
      "Comple": 3320,
      "ĠApache": 3321,
      "remove": 3322,
      "retry": 3323,
      "LICENSE": 3324,
      "ï¼": 3325,
      "amazonaws": 3326,
      "ranch": 3327,
      "exit": 3328,
      "ĠCom": 3329,
      "80": 3330,
      "loud": 3331,
      "FO": 3332,
      "stats": 3333,
      "upyter": 3334,
      "Tuple": 3335,
      "Ġobtain": 3336,
      "Ġwithin": 3337,
      "directory": 3338,
      "SER": 3339,
      "Ġbecause": 3340,
      "Iter": 3341,
      "ĠWhether": 3342,
      "VE": 3343,
      "Ġlay": 3344,
      "ĠNo": 3345,
      "Ġmy": 3346,
      "sentencepiece": 3347,
      "Ġwait": 3348,
      "âĸ": 3349,
      "ĠField": 3350,
      "alth": 3351,
      "ier": 3352,
      "IND": 3353,
      "operation": 3354,
      "gex": 3355,
      "SET": 3356,
      "tected": 3357,
      "ART": 3358,
      "ertificate": 3359,
      "Ġbyte": 3360,
      "havior": 3361,
      "mar": 3362,
      "ĠLATIN": 3363,
      "§Ģ": 3364,
      "Ġ9": 3365,
      "Ġpylint": 3366,
      "Ġinputs": 3367,
      "ero": 3368,
      "Ad": 3369,
      "ĠExample": 3370,
      "Found": 3371,
      "Ġcover": 3372,
      "external": 3373,
      "Ġele": 3374,
      "Provider": 3375,
      "andid": 3376,
      "Ġcorrespon": 3377,
      "Programming": 3378,
      "If": 3379,
      "arrow": 3380,
      "factory": 3381,
      "Ġgraph": 3382,
      "Proto": 3383,
      "Properties": 3384,
      "OutputTypeDef": 3385,
      "Ġindic": 3386,
      "Ġconnect": 3387,
      "acy": 3388,
      "rogram": 3389,
      "opic": 3390,
      "Ġbuf": 3391,
      "setup": 3392,
      "Ġnamespace": 3393,
      "true": 3394,
      "esc": 3395,
      "65": 3396,
      "alys": 3397,
      "exc": 3398,
      "Ġexecution": 3399,
      "safe": 3400,
      "Ġsplit": 3401,
      "xml": 3402,
      "alysis": 3403,
      "NO": 3404,
      "trib": 3405,
      "see": 3406,
      "ending": 3407,
      "Ġnamedtype": 3408,
      "weight": 3409,
      "buffer": 3410,
      "Ġoverride": 3411,
      "PL": 3412,
      "Ġotherwise": 3413,
      "Ġexclude": 3414,
      "Ġ201": 3415,
      "ResourceWith": 3416,
      "configuration": 3417,
      "Ġalways": 3418,
      "Ġet": 3419,
      "secret": 3420,
      "curity": 3421,
      "Ġtransform": 3422,
      "extract": 3423,
      "agement": 3424,
      "Agent": 3425,
      "fd": 3426,
      "ĠĠĠĠĠĠĠĠĠĠĠĠĠĠ": 3427,
      "Logger": 3428,
      "ONE": 3429,
      "sec": 3430,
      "Operations": 3431,
      "Ġtrace": 3432,
      "As": 3433,
      "Types": 3434,
      "No": 3435,
      "empty": 3436,
      "record": 3437,
      "onsh": 3438,
      "lambda": 3439,
      "DS": 3440,
      "TE": 3441,
      "Ġpost": 3442,
      "ĠColumn": 3443,
      "(**": 3444,
      "ployment": 3445,
      "]]:": 3446,
      "Ġvar": 3447,
      "bove": 3448,
      "global": 3449,
      "Ġvisibility": 3450,
      "periment": 3451,
      "retri": 3452,
      "Ġapply": 3453,
      "Ġtree": 3454,
      "container": 3455,
      "zero": 3456,
      "ubli": 3457,
      "ssible": 3458,
      "àµ": 3459,
      "runtime": 3460,
      "inputs": 3461,
      "hy": 3462,
      "ĠDescri": 3463,
      "_{": 3464,
      "DIT": 3465,
      "Ġagain": 3466,
      "ometry": 3467,
      "fs": 3468,
      "Ġhigh": 3469,
      "Ġevalu": 3470,
      "book": 3471,
      "hed": 3472,
      "Sp": 3473,
      "RES": 3474,
      "Ġsent": 3475,
      "parts": 3476,
      "termin": 3477,
      "Ġconvert": 3478,
      "48": 3479,
      "ITY": 3480,
      "Ġappro": 3481,
      "Ġgenerate": 3482,
      "ĠRuntime": 3483,
      "ee": 3484,
      "functions": 3485,
      "Test": 3486,
      "**:": 3487,
      "CS": 3488,
      "áĢ": 3489,
      "specifi": 3490,
      "delta": 3491,
      "Python": 3492,
      "Do": 3493,
      "Ġparsed": 3494,
      ")}": 3495,
      "enabled": 3496,
      "blob": 3497,
      "lab": 3498,
      "ROR": 3499,
      "sure": 3500,
      "non": 3501,
      "¨ðŁı": 3502,
      "********": 3503,
      "\").": 3504,
      "none": 3505,
      "Ġglobal": 3506,
      "Ġâ": 3507,
      "modules": 3508,
      "opt": 3509,
      "Ġabove": 3510,
      "absl": 3511,
      "ret": 3512,
      "Ġvalidate": 3513,
      "straint": 3514,
      "Ġ100": 3515,
      "go": 3516,
      "Ġident": 3517,
      "licenses": 3518,
      "Ġprovider": 3519,
      "variable": 3520,
      "mbers": 3521,
      "arm": 3522,
      "utes": 3523,
      "Ġazure": 3524,
      "voke": 3525,
      "Item": 3526,
      "Server": 3527,
      "Ġmatrix": 3528,
      "otocore": 3529,
      "Ġsignature": 3530,
      "Ġenable": 3531,
      "scribe": 3532,
      "details": 3533,
      "Ġactive": 3534,
      "ever": 3535,
      "Column": 3536,
      "Ġseconds": 3537,
      "imer": 3538,
      "Ġhash": 3539,
      "ian": 3540,
      "logging": 3541,
      "dataset": 3542,
      "iltin": 3543,
      "Ġdf": 3544,
      "ê§Ģ": 3545,
      "pment": 3546,
      "Ġstrings": 3547,
      "*.": 3548,
      "=[\"": 3549,
      "covery": 3550,
      "FC": 3551,
      "Ġtools": 3552,
      "Ġrunning": 3553,
      "ĠAdded": 3554,
      "zen": 3555,
      "hooks": 3556,
      "Ġcollections": 3557,
      "hidden": 3558,
      "Ġ'ðŁ§": 3559,
      "Ġerr": 3560,
      "Range": 3561,
      "Ġimplementation": 3562,
      "const": 3563,
      "compile": 3564,
      "Ġimplied": 3565,
      "role": 3566,
      "Ġdel": 3567,
      "Returns": 3568,
      "cert": 3569,
      "TIME": 3570,
      "tact": 3571,
      "Ġ--------------------------------": 3572,
      "Ġpermissions": 3573,
      "SK": 3574,
      "Ġvariables": 3575,
      "axis": 3576,
      "ym": 3577,
      "Ġvector": 3578,
      "samples": 3579,
      "setter": 3580,
      "urity": 3581,
      "Parser": 3582,
      "vocation": 3583,
      "cb": 3584,
      "ĠWITHOUT": 3585,
      "Ġwhat": 3586,
      "54": 3587,
      "atist": 3588,
      "expected": 3589,
      "jor": 3590,
      "fail": 3591,
      "derr": 3592,
      "Ġsrc": 3593,
      "pytest": 3594,
      "learn": 3595,
      "Ġruntime": 3596,
      "Ġcolumns": 3597,
      "TY": 3598,
      "ĠLe": 3599,
      "Ġreason": 3600,
      "ignment": 3601,
      "multi": 3602,
      "asic": 3603,
      "ATA": 3604,
      "On": 3605,
      "Ġconsole": 3606,
      "ctest": 3607,
      "'],": 3608,
      "ĠRa": 3609,
      "Ġautomatically": 3610,
      "Ġhandl": 3611,
      "Ġdirectly": 3612,
      "Ĥ':": 3613,
      "Ġpers": 3614,
      "cheme": 3615,
      "Ġsepar": 3616,
      "Ġfin": 3617,
      "TIES": 3618,
      "MAN": 3619,
      "Ġ-------": 3620,
      "ĠImport": 3621,
      "latten": 3622,
      "Struct": 3623,
      "Ġmulti": 3624,
      "card": 3625,
      "Ġusage": 3626,
      "256": 3627,
      "Ġpresent": 3628,
      "Ġexists": 3629,
      "gments": 3630,
      "Ġregion": 3631,
      "vide": 3632,
      "interval": 3633,
      "Task": 3634,
      "lated": 3635,
      "Ġtransport": 3636,
      "Ġstructure": 3637,
      "email": 3638,
      "atalog": 3639,
      "nv": 3640,
      "Ġscript": 3641,
      "Ġdon": 3642,
      "defined": 3643,
      "Ġwriting": 3644,
      "HTTP": 3645,
      "remote": 3646,
      "Ġcorrect": 3647,
      "interface": 3648,
      "ices": 3649,
      "ifest": 3650,
      "Ġdeserializ": 3651,
      "Ġperform": 3652,
      "Ġ\"-": 3653,
      "ĠSelf": 3654,
      "strict": 3655,
      "ifications": 3656,
      "Ġpd": 3657,
      "loss": 3658,
      "Ġ([#": 3659,
      "cis": 3660,
      "Default": 3661,
      "ggreg": 3662,
      "mpling": 3663,
      "pendency": 3664,
      "lm": 3665,
      "ĠLicensed": 3666,
      "viders": 3667,
      "Ġinspect": 3668,
      "Execut": 3669,
      "igned": 3670,
      "thing": 3671,
      "skip": 3672,
      "Number": 3673,
      "Ġold": 3674,
      "31": 3675,
      "uber": 3676,
      "ower": 3677,
      "BaseModel": 3678,
      "Ġconstruct": 3679,
      "oot": 3680,
      "encoding": 3681,
      "Ġsince": 3682,
      "Connect": 3683,
      "Ġbeing": 3684,
      "unct": 3685,
      "left": 3686,
      "Ġsuccess": 3687,
      "EM": 3688,
      "escape": 3689,
      "arguments": 3690,
      "imil": 3691,
      "ply": 3692,
      "cap": 3693,
      "ĠExamples": 3694,
      "labels": 3695,
      "SS": 3696,
      "imilar": 3697,
      "Ġprodu": 3698,
      "Ġestim": 3699,
      "distribut": 3700,
      "Ali": 3701,
      "Ġdefaults": 3702,
      "Ġspecify": 3703,
      "ĠResponseMetadata": 3704,
      "son": 3705,
      "ategy": 3706,
      "eric": 3707,
      "hat": 3708,
      "©ðŁı": 3709,
      "Ġrole": 3710,
      "groups": 3711,
      "fit": 3712,
      "Like": 3713,
      "ĠBu": 3714,
      "\"}": 3715,
      "rozen": 3716,
      "compat": 3717,
      "Ġpoints": 3718,
      "Ġfeatures": 3719,
      "Params": 3720,
      "Ġgo": 3721,
      "ĠWork": 3722,
      "Ġcommon": 3723,
      ").__": 3724,
      "\\\\": 3725,
      "Target": 3726,
      "ĠSh": 3727,
      "aml": 3728,
      "79": 3729,
      "Pool": 3730,
      "va": 3731,
      "proxy": 3732,
      "board": 3733,
      "Size": 3734,
      "lama": 3735,
      "workflow": 3736,
      "Ġfinal": 3737,
      "ĠCLI": 3738,
      "alpha": 3739,
      "scikit": 3740,
      "ivity": 3741,
      "pl": 3742,
      "ship": 3743,
      "cryption": 3744,
      "Ġrandom": 3745,
      "89": 3746,
      "âĢįâĻĤ": 3747,
      "environ": 3748,
      "Ġpolicy": 3749,
      "âĢįâĻĢ": 3750,
      "pypi": 3751,
      "flags": 3752,
      "nodes": 3753,
      "Ġscale": 3754,
      "ãĢ": 3755,
      "indices": 3756,
      "mitted": 3757,
      "exists": 3758,
      "argtypes": 3759,
      "[_": 3760,
      "Mapping": 3761,
      "zip": 3762,
      "long": 3763,
      "60": 3764,
      "display": 3765,
      "ä»": 3766,
      "expression": 3767,
      "mcp": 3768,
      "operations": 3769,
      "CK": 3770,
      "Ġshort": 3771,
      "mgmt": 3772,
      "Ġinteger": 3773,
      "uting": 3774,
      "illing": 3775,
      "uint": 3776,
      "iddle": 3777,
      "VERSION": 3778,
      "Ġsql": 3779,
      "lang": 3780,
      "CR": 3781,
      "memory": 3782,
      "ðĳĮ": 3783,
      "optional": 3784,
      "ipeline": 3785,
      "ords": 3786,
      "Ġapplicable": 3787,
      "urations": 3788,
      "cached": 3789,
      "come": 3790,
      "sph": 3791,
      "collection": 3792,
      "ĠAgent": 3793,
      "ĠWARRANTIES": 3794,
      "Valid": 3795,
      "seq": 3796,
      "enchmark": 3797,
      "Ġemail": 3798,
      "usage": 3799,
      "Ġallowed": 3800,
      "DIR": 3801,
      "àª": 3802,
      "til": 3803,
      "render": 3804,
      "ĠFixed": 3805,
      "OUR": 3806,
      "rgb": 3807,
      "Ġfalse": 3808,
      "Ġremote": 3809,
      "ĠZ": 3810,
      "ubernet": 3811,
      "Ġnn": 3812,
      "ĠSign": 3813,
      "Ġ##": 3814,
      "ubernetes": 3815,
      "sequence": 3816,
      "Ġdatabase": 3817,
      "req": 3818,
      "Open": 3819,
      "let": 3820,
      "Ġflow": 3821,
      "platform": 3822,
      "examples": 3823,
      "egg": 3824,
      "tyle": 3825,
      "rust": 3826,
      "Ġbucket": 3827,
      "matrix": 3828,
      "gh": 3829,
      "Job": 3830,
      "Ġauthor": 3831,
      "Action": 3832,
      "verter": 3833,
      "ĠValid": 3834,
      "ĠMCP": 3835,
      "Ġlambda": 3836,
      "Ġpair": 3837,
      "Ġparts": 3838,
      "ends": 3839,
      "overload": 3840,
      "ĠSpe": 3841,
      "âĶģ": 3842,
      "reason": 3843,
      "corator": 3844,
      "Tool": 3845,
      "zy": 3846,
      "Ġcalls": 3847,
      "40": 3848,
      "NotFound": 3849,
      "Ġstd": 3850,
      "Ġhook": 3851,
      "UD": 3852,
      "ĠError": 3853,
      "Fla": 3854,
      "PORT": 3855,
      "aut": 3856,
      "Ġleft": 3857,
      "Ġbuilder": 3858,
      "ragma": 3859,
      "Ġgap": 3860,
      "ellar": 3861,
      "Ġfilters": 3862,
      "pk": 3863,
      "Ġrepository": 3864,
      "iew": 3865,
      "Ġarch": 3866,
      "cols": 3867,
      "Process": 3868,
      "Ġmost": 3869,
      "ude": 3870,
      "Ġelements": 3871,
      "Ġnamed": 3872,
      "Ġnodes": 3873,
      "ASE": 3874,
      "ĠPre": 3875,
      "dates": 3876,
      "Failed": 3877,
      "Ġour": 3878,
      "ration": 3879,
      "ulti": 3880,
      "49": 3881,
      "Log": 3882,
      "workspace": 3883,
      "author": 3884,
      "Ġenumerate": 3885,
      "Dataset": 3886,
      "()`": 3887,
      "NS": 3888,
      "Ġloc": 3889,
      "actions": 3890,
      "87": 3891,
      "Ġevents": 3892,
      "âĢįâĻĢï¸ı':": 3893,
      "arge": 3894,
      "âĢįâĻĤï¸ı':": 3895,
      "Ġprevious": 3896,
      "ĠString": 3897,
      "Ġmaximum": 3898,
      "IB": 3899,
      "after": 3900,
      "ĠDEFAULT": 3901,
      "Ġassoci": 3902,
      "lap": 3903,
      "bot": 3904,
      "metrics": 3905,
      "mplates": 3906,
      "çļ": 3907,
      "Ġeven": 3908,
      "lack": 3909,
      "topic": 3910,
      "PER": 3911,
      "¿':": 3912,
      "ons": 3913,
      "Ġpragma": 3914,
      "ĠPublic": 3915,
      "Ġstandard": 3916,
      "sens": 3917,
      "à°": 3918,
      "47": 3919,
      "warn": 3920,
      "âĶģâĶģ": 3921,
      "__()": 3922,
      "span": 3923,
      "ĠDi": 3924,
      "fb": 3925,
      "uide": 3926,
      "Ġclean": 3927,
      "Ġsci": 3928,
      "Ġbinary": 3929,
      "FOR": 3930,
      "enter": 3931,
      "lice": 3932,
      "desc": 3933,
      "ilt": 3934,
      "cimal": 3935,
      "59": 3936,
      "mapping": 3937,
      "Image": 3938,
      "Ġunique": 3939,
      "figs": 3940,
      "------------": 3941,
      "Ġstill": 3942,
      "Ġupdated": 3943,
      "Ġast": 3944,
      "ceptor": 3945,
      "ĠOnly": 3946,
      "lyte": 3947,
      "unnel": 3948,
      "ĠFunction": 3949,
      "children": 3950,
      "ĠÂ": 3951,
      "Ġ//": 3952,
      "aa": 3953,
      "Color": 3954,
      "faces": 3955,
      "ĠCO": 3956,
      "libs": 3957,
      "Metric": 3958,
      "Ġsegment": 3959,
      "ĠUnpack": 3960,
      "ĠAzure": 3961,
      "undle": 3962,
      "ĠToken": 3963,
      "grpc": 3964,
      "Ġspace": 3965,
      "Ġflag": 3966,
      "__,": 3967,
      "Ġissue": 3968,
      "çļĦ": 3969,
      "[:,": 3970,
      "Access": 3971,
      "Start": 3972,
      "clus": 3973,
      "unary": 3974,
      "ler": 3975,
      "Ġweights": 3976,
      "MAX": 3977,
      "Sign": 3978,
      "Ġdeprecated": 3979,
      "Ġhref": 3980,
      "42": 3981,
      "Ġprovides": 3982,
      "Ġtl": 3983,
      "ases": 3984,
      "utable": 3985,
      "score": 3986,
      "reed": 3987,
      "ĠTe": 3988,
      "Results": 3989,
      "PATH": 3990,
      "Ġduring": 3991,
      "asure": 3992,
      "licies": 3993,
      "Ġcontrol": 3994,
      "Ġdownload": 3995,
      "ateway": 3996,
      "Ġcoun": 3997,
      "shift": 3998,
      "requires": 3999,
      "Ġ{})": 4000,
      "ĠgRPC": 4001,
      "Ġneeded": 4002,
      "Ġinstalled": 4003,
      "Ġlayer": 4004,
      "factor": 4005,
      "lur": 4006,
      "sw": 4007,
      "fetch": 4008,
      "ality": 4009,
      "region": 4010,
      "Deta": 4011,
      "Up": 4012,
      "ĠReturn": 4013,
      "flake": 4014,
      "ĠRuntimeError": 4015,
      "Ġbehavior": 4016,
      "Ġprogress": 4017,
      "signature": 4018,
      "/__": 4019,
      "CFunction": 4020,
      "ho": 4021,
      "ĠMessage": 4022,
      "missing": 4023,
      "Ġequal": 4024,
      "velopment": 4025,
      "ĠAttribute": 4026,
      "Ġclasses": 4027,
      "Ġext": 4028,
      "Ġsm": 4029,
      "68": 4030,
      "ĠAR": 4031,
      "GET": 4032,
      "rp": 4033,
      "exclude": 4034,
      "ĠNumber": 4035,
      "Ġinvalid": 4036,
      "edt": 4037,
      "ider": 4038,
      "Ġios": 4039,
      "ssl": 4040,
      "dest": 4041,
      "ffici": 4042,
      "rection": 4043,
      "aging": 4044,
      "cd": 4045,
      ")``": 4046,
      "Ġbelow": 4047,
      "PY": 4048,
      "enum": 4049,
      "Ġfont": 4050,
      "Ġoperator": 4051,
      "Ġenabled": 4052,
      "`_": 4053,
      "required": 4054,
      "based": 4055,
      "random": 4056,
      "vector": 4057,
      "Property": 4058,
      "67": 4059,
      "reps": 4060,
      "ouble": 4061,
      "ĠDis": 4062,
      "URL": 4063,
      "From": 4064,
      "^^^^^^^^": 4065,
      "detect": 4066,
      "Ġsorted": 4067,
      "csv": 4068,
      "Backend": 4069,
      "xr": 4070,
      "lear": 4071,
      "Off": 4072,
      "null": 4073,
      "uman": 4074,
      "GetDllLibXls": 4075,
      "origin": 4076,
      "58": 4077,
      "...,": 4078,
      "Custom": 4079,
      "Ġcoordin": 4080,
      "Ġversions": 4081,
      "obotocore": 4082,
      "Point": 4083,
      "ĠGeneral": 4084,
      "Ġdefinition": 4085,
      "\"].": 4086,
      "pu": 4087,
      "master": 4088,
      "rows": 4089,
      "PCI": 4090,
      "Ġremoved": 4091,
      "els": 4092,
      "paths": 4093,
      "ERROR": 4094,
      "compute": 4095,
      "tk": 4096,
      "43": 4097,
      "fra": 4098,
      "Ġresolve": 4099,
      "Ġclose": 4100,
      "Ġcompute": 4101,
      "IM": 4102,
      "execute": 4103,
      "Ġplot": 4104,
      "Ġplatform": 4105,
      "Ġlock": 4106,
      "Ġ\"{": 4107,
      "prop": 4108,
      "uuid": 4109,
      "resolve": 4110,
      "Ġzip": 4111,
      "schedule": 4112,
      "uplic": 4113,
      "NamedType": 4114,
      "Ġschedule": 4115,
      "weights": 4116,
      "Ġpossible": 4117,
      "ĠTypeVar": 4118,
      "Ġlabels": 4119,
      "ĠLo": 4120,
      "90": 4121,
      "SP": 4122,
      "eries": 4123,
      "Address": 4124,
      "Device": 4125,
      "tax": 4126,
      "ĠKIND": 4127,
      "cision": 4128,
      "->": 4129,
      "rm": 4130,
      "DF": 4131,
      "NOT": 4132,
      "stand": 4133,
      "Ġ\",": 4134,
      "Ġopt": 4135,
      "chron": 4136,
      "LIN": 4137,
      "win": 4138,
      "Ġproxy": 4139,
      "Ġpaths": 4140,
      "available": 4141,
      "Read": 4142,
      "Ġcommit": 4143,
      "aiobotocore": 4144,
      "pal": 4145,
      "Ġgit": 4146,
      "Ġmetrics": 4147,
      "events": 4148,
      "lying": 4149,
      "Project": 4150,
      "robor": 4151,
      "ĠRPC": 4152,
      "sup": 4153,
      "ĠOr": 4154,
      "Template": 4155,
      "ĠRaises": 4156,
      "ĠSoftware": 4157,
      "proj": 4158,
      "Meta": 4159,
      "require": 4160,
      "Ġverbose": 4161,
      "Ġhel": 4162,
      "Raw": 4163,
      "istant": 4164,
      "password": 4165,
      "Ġ[#": 4166,
      "Ġsocket": 4167,
      "structions": 4168,
      "counter": 4169,
      "Ġexpress": 4170,
      "Wrap": 4171,
      "Ġwindow": 4172,
      "Ġgover": 4173,
      "ick": 4174,
      "control": 4175,
      "roboros": 4176,
      "\"},": 4177,
      "complete": 4178,
      "Protocol": 4179,
      "ĠPer": 4180,
      "Descript": 4181,
      "stral": 4182,
      "Ġcell": 4183,
      "eigen": 4184,
      "depend": 4185,
      "waitable": 4186,
      "ĠEvent": 4187,
      "Ġidx": 4188,
      "umbers": 4189,
      "Ġcorresponding": 4190,
      "*-": 4191,
      "Ġcould": 4192,
      "tab": 4193,
      "ndarray": 4194,
      "byte": 4195,
      "Ġcalcul": 4196,
      "GER": 4197,
      "ĠReg": 4198,
      "Ġ16": 4199,
      "Ġprop": 4200,
      "sol": 4201,
      "åı": 4202,
      "ntity": 4203,
      "merge": 4204,
      "layers": 4205,
      "WAR": 4206,
      "ĠAWS": 4207,
      "ifiers": 4208,
      "stractmethod": 4209,
      "save": 4210,
      "Ass": 4211,
      "Part": 4212,
      "Ġstore": 4213,
      "Ġmak": 4214,
      "Ġcmd": 4215,
      "URE": 4216,
      "tar": 4217,
      "Ġalias": 4218,
      "Ġrequires": 4219,
      "ga": 4220,
      "CF": 4221,
      "ynchron": 4222,
      "Init": 4223,
      "Ġtermin": 4224,
      "cores": 4225,
      "Ġcompliance": 4226,
      "atches": 4227,
      "toml": 4228,
      "Change": 4229,
      "NU": 4230,
      "bc": 4231,
      "Ġfast": 4232,
      "xdr": 4233,
      "Ġbox": 4234,
      "example": 4235,
      "ĠDoc": 4236,
      "Ġoptim": 4237,
      "Ġentity": 4238,
      "returns": 4239,
      "Ġgen": 4240,
      "monitor": 4241,
      "Ġlimitations": 4242,
      "Ġcluster": 4243,
      "Ġ12": 4244,
      "ĠĠĠĠĠĠĠĠĠĠĠĠĠĠĠĠĠĠĠĠĠĠĠĠĠĠĠĠĠĠĠĠĠĠĠ": 4245,
      "Parameter": 4246,
      "Ġdoesn": 4247,
      "Mem": 4248,
      "}`": 4249,
      "Arn": 4250,
      "NX": 4251,
      "onal": 4252,
      "ĠBAS": 4253,
      "oice": 4254,
      "Ġbuffer": 4255,
      "loads": 4256,
      "(?": 4257,
      "Ne": 4258,
      "mediate": 4259,
      "Ġrevealed": 4260,
      "Style": 4261,
      "ĠCallCFunction": 4262,
      "Ġpublic": 4263,
      "ish": 4264,
      "âĢįðŁĳ": 4265,
      "ively": 4266,
      "dimension": 4267,
      "Builder": 4268,
      "ĠPo": 4269,
      "Ġcap": 4270,
      "ĠMax": 4271,
      "Ġserialized": 4272,
      "features": 4273,
      "erial": 4274,
      "Ġph": 4275,
      "curs": 4276,
      "position": 4277,
      "POINT": 4278,
      "train": 4279,
      "identifier": 4280,
      "sRequest": 4281,
      "Ġextension": 4282,
      "invalid": 4283,
      "iddleware": 4284,
      "except": 4285,
      "ness": 4286,
      "Ġreceived": 4287,
      "Date": 4288,
      "ber": 4289,
      "ĠSub": 4290,
      "'))": 4291,
      "sta": 4292,
      "svg": 4293,
      "Ġ[`": 4294,
      "/_": 4295,
      "AY": 4296,
      "bash": 4297,
      "ĠTra": 4298,
      "FT": 4299,
      "JSON": 4300,
      "numpy": 4301,
      "ĠService": 4302,
      "dot": 4303,
      "stdout": 4304,
      "Ġsymbol": 4305,
      "Ġdetect": 4306,
      "ĠSQL": 4307,
      "\");": 4308,
      "Ġiosxr": 4309,
      "iod": 4310,
      "Ġlaw": 4311,
      "straints": 4312,
      "Ġdocs": 4313,
      "Ġchain": 4314,
      "57": 4315,
      "ĠUser": 4316,
      "variance": 4317,
      "Ġfn": 4318,
      "dia": 4319,
      "Ġuseful": 4320,
      "ring": 4321,
      "ĠTHE": 4322,
      "ĠCONDIT": 4323,
      "Hub": 4324,
      "}{": 4325,
      "ĠIterable": 4326,
      "Ġ-*-": 4327,
      "àµį": 4328,
      "Ġagreed": 4329,
      "lobus": 4330,
      "ĠInc": 4331,
      "Ġ\\\"": 4332,
      "Ġ200": 4333,
      "Ġensure": 4334,
      "ialization": 4335,
      "ĠCONDITIONS": 4336,
      "contrib": 4337,
      "Ġpool": 4338,
      "cluster": 4339,
      "Credentials": 4340,
      "Topic": 4341,
      "Transport": 4342,
      "Warning": 4343,
      "pair": 4344,
      "Chat": 4345,
      "summary": 4346,
      "Streaming": 4347,
      "sig": 4348,
      "92": 4349,
      "ik": 4350,
      "document": 4351,
      "counts": 4352,
      "Option": 4353,
      "ĠAttributes": 4354,
      "Ġalong": 4355,
      "sl": 4356,
      "anization": 4357,
      "Ġrelative": 4358,
      "scan": 4359,
      "ĠRet": 4360,
      "objc": 4361,
      "ĠSDK": 4362,
      "export": 4363,
      "INFO": 4364,
      "adding": 4365,
      "success": 4366,
      "tn": 4367,
      "Ġrows": 4368,
      "erature": 4369,
      "oding": 4370,
      "ffers": 4371,
      "Ġtokens": 4372,
      "\"]:": 4373,
      "ef": 4374,
      "README": 4375,
      "GE": 4376,
      "windows": 4377,
      "ĠBASIS": 4378,
      "pdf": 4379,
      "wd": 4380,
      "Ġgoverning": 4381,
      "________________": 4382,
      "ialized": 4383,
      "EXT": 4384,
      "heads": 4385,
      "scriptor": 4386,
      "93": 4387,
      "Cell": 4388,
      "Ġmanager": 4389,
      "partial": 4390,
      "unctools": 4391,
      "sphinx": 4392,
      "ĠText": 4393,
      "pare": 4394,
      "Ġdepend": 4395,
      "Ġnever": 4396,
      "Ġresources": 4397,
      "force": 4398,
      "chat": 4399,
      "ĠChange": 4400,
      "nan": 4401,
      "writ": 4402,
      "Ġrepo": 4403,
      "ĠDelete": 4404,
      "Ġposition": 4405,
      "Ġlat": 4406,
      "ĠUnless": 4407,
      "Ġworkflow": 4408,
      "Ġpip": 4409,
      "Ġmatching": 4410,
      "rupt": 4411,
      "validation": 4412,
      "Of": 4413,
      "png": 4414,
      "Ġtrigger": 4415,
      "Ġstats": 4416,
      "atistics": 4417,
      "ZE": 4418,
      "Ġcharacter": 4419,
      "before": 4420,
      "tempt": 4421,
      "pad": 4422,
      "Ġmx": 4423,
      "where": 4424,
      "Ġgapic": 4425,
      "urface": 4426,
      "Ġdrop": 4427,
      "Series": 4428,
      "Ġ((": 4429,
      "Rout": 4430,
      "Ġavoid": 4431,
      "Ġsw": 4432,
      "ãĢĤ": 4433,
      "foli": 4434,
      "yml": 4435,
      "rank": 4436,
      "UE": 4437,
      "ĠSM": 4438,
      "IGN": 4439,
      "Entry": 4440,
      "upt": 4441,
      "PRE": 4442,
      "aedt": 4443,
      "Ġsecond": 4444,
      "Ġjoin": 4445,
      "View": 4446,
      "getLogger": 4447,
      "Head": 4448,
      "Ġqueue": 4449,
      "Ġmean": 4450,
      "Parameters": 4451,
      "STRING": 4452,
      "convert": 4453,
      "Ġdir": 4454,
      "LED": 4455,
      "52": 4456,
      "folder": 4457,
      "oriz": 4458,
      "yntax": 4459,
      "ĠUni": 4460,
      "upload": 4461,
      "Ġagainst": 4462,
      "Ġsave": 4463,
      "Ġwrapper": 4464,
      "Ġetc": 4465,
      "tail": 4466,
      "ilities": 4467,
      "Ġ'.": 4468,
      "Ġ'ðŁĳ©ðŁı": 4469,
      "apt": 4470,
      "rock": 4471,
      "Ġkind": 4472,
      "lies": 4473,
      "ĠPR": 4474,
      "Network": 4475,
      "Ġfig": 4476,
      ",,": 4477,
      "literal": 4478,
      "Ġprotocol": 4479,
      "Ġcharacters": 4480,
      "Ġlater": 4481,
      "Ġneo": 4482,
      "Pri": 4483,
      "ges": 4484,
      "Ġexit": 4485,
      "Ġinitial": 4486,
      "Parse": 4487,
      "zon": 4488,
      "lurp": 4489,
      "Ġ'''": 4490,
      "grade": 4491,
      "72": 4492,
      "Dto": 4493,
      "ked": 4494,
      "Ġstatic": 4495,
      "Ġassociated": 4496,
      "icon": 4497,
      "leted": 4498,
      "Cre": 4499,
      "aris": 4500,
      "ĠImportError": 4501,
      "Ġmeans": 4502,
      "sPaginator": 4503,
      "bad": 4504,
      "ĠNode": 4505,
      "ender": 4506,
      ")\",": 4507,
      "just": 4508,
      "alle": 4509,
      "Cluster": 4510,
      "foo": 4511,
      "nowled": 4512,
      "reen": 4513,
      "requests": 4514,
      "Ġfa": 4515,
      "fficient": 4516,
      "bb": 4517,
      "Ġremain": 4518,
      "dims": 4519,
      "mean": 4520,
      "lots": 4521,
      "ural": 4522,
      "Ġpartial": 4523,
      "shared": 4524,
      "astral": 4525,
      "issue": 4526,
      "53": 4527,
      "leep": 4528,
      "Row": 4529,
      "Ġbug": 4530,
      "Ref": 4531,
      "Ġexpi": 4532,
      "ĠSession": 4533,
      "Ġmatches": 4534,
      "Ġnested": 4535,
      "===": 4536,
      "Ġnote": 4537,
      "documents": 4538,
      "ĠBy": 4539,
      "Ġusers": 4540,
      "hist": 4541,
      ":]": 4542,
      "You": 4543,
      "olume": 4544,
      "Ġincluding": 4545,
      "GB": 4546,
      "Ġway": 4547,
      "registry": 4548,
      "ĠAwaitable": 4549,
      "ĠGNU": 4550,
      "Ġinterval": 4551,
      "Ġeffect": 4552,
      "Usage": 4553,
      "Ġcoding": 4554,
      "versions": 4555,
      "ĠSp": 4556,
      "Ġsupports": 4557,
      "Ġincluded": 4558,
      "CLI": 4559,
      "Ġcontribut": 4560,
      "ACE": 4561,
      "knx": 4562,
      "Ġwarning": 4563,
      "Ġruns": 4564,
      "Ġ'ðŁĳ¨ðŁı": 4565,
      "ĠOS": 4566,
      "annotation": 4567,
      "Ġplace": 4568,
      "uptools": 4569,
      ";\":": 4570,
      "ĠTrans": 4571,
      "Ġdesign": 4572,
      "ptr": 4573,
      "fin": 4574,
      "ICE": 4575,
      "jupyter": 4576,
      "Ed": 4577,
      "ving": 4578,
      "ĠRes": 4579,
      "Ġhtml": 4580,
      "atom": 4581,
      "Ġfetch": 4582,
      "identity": 4583,
      "tom": 4584,
      "profile": 4585,
      "Arg": 4586,
      "wrapper": 4587,
      "si": 4588,
      "vance": 4589,
      "structure": 4590,
      "Ġcomb": 4591,
      "xonsh": 4592,
      "ĠSupport": 4593,
      "gy": 4594,
      "alt": 4595,
      "áŁ": 4596,
      "Ġspan": 4597,
      "flag": 4598,
      "Ġsignal": 4599,
      "Ġ(``": 4600,
      "Ġterms": 4601,
      "Ġsig": 4602,
      "esp": 4603,
      "agents": 4604,
      "Ġflags": 4605,
      "threshold": 4606,
      "amily": 4607,
      "ba": 4608,
      "Attribute": 4609,
      "bra": 4610,
      "cpython": 4611,
      "rency": 4612,
      "ays": 4613,
      "stat": 4614,
      ":`.": 4615,
      "ĠTool": 4616,
      "ĠInter": 4617,
      "Ġgot": 4618,
      "bind": 4619,
      "Ġunderlying": 4620,
      "short": 4621,
      "WOR": 4622,
      "pip": 4623,
      "Ġsimple": 4624,
      "Ġmodify": 4625,
      "releases": 4626,
      "TAL": 4627,
      "Ġpassword": 4628,
      "cu": 4629,
      "Ġpathlib": 4630,
      "Ġzero": 4631,
      "Ġneeds": 4632,
      "unch": 4633,
      "Ġprogram": 4634,
      "Ġonce": 4635,
      "cessed": 4636,
      ";':": 4637,
      "Ġwidget": 4638,
      "Ġconfigured": 4639,
      "dapt": 4640,
      "Descriptor": 4641,
      "Ġfree": 4642,
      "ets": 4643,
      "Ġkernel": 4644,
      "sem": 4645,
      "Ġmodules": 4646,
      "mac": 4647,
      "(-": 4648,
      "Ġinternal": 4649,
      "iling": 4650,
      "agg": 4651,
      "ĠMet": 4652,
      "Ġwere": 4653,
      "Ġlower": 4654,
      "abstractmethod": 4655,
      "ĠLLM": 4656,
      "NV": 4657,
      "ĠGit": 4658,
      "akes": 4659,
      "ned": 4660,
      "ĠObject": 4661,
      "exog": 4662,
      "ident": 4663,
      "Ġdecode": 4664,
      "Ġcases": 4665,
      "Ġprivate": 4666,
      "sensitive": 4667,
      "70": 4668,
      "embeddings": 4669,
      "ker": 4670,
      "folio": 4671,
      "ĠTensor": 4672,
      "llm": 4673,
      "nowflake": 4674,
      "atio": 4675,
      "Ġconf": 4676,
      "Ġsetting": 4677,
      "environment": 4678,
      "Ġreal": 4679,
      ")[": 4680,
      "public": 4681,
      "rl": 4682,
      "ummary": 4683,
      "Ġstrict": 4684,
      "ializer": 4685,
      "Ġ----------------------------------------------------------------": 4686,
      "Ġexport": 4687,
      "Ġcompatibility": 4688,
      "Ġcl": 4689,
      "ixin": 4690,
      "á©": 4691,
      "ASS": 4692,
      "ette": 4693,
      "outputs": 4694,
      "this": 4695,
      "filters": 4696,
      "63": 4697,
      "Ġdynamic": 4698,
      "Ġmanaged": 4699,
      "ota": 4700,
      "packages": 4701,
      "Ġrepresentation": 4702,
      "GI": 4703,
      "Ġhy": 4704,
      "Interface": 4705,
      "uted": 4706,
      "Ġnetwork": 4707,
      "pg": 4708,
      "tifact": 4709,
      "strings": 4710,
      "Ġdependencies": 4711,
      "69": 4712,
      "Container": 4713,
      "cell": 4714,
      "cos": 4715,
      "alyzer": 4716,
      "ĠSMALL": 4717,
      "separ": 4718,
      "Ġreserved": 4719,
      "Retry": 4720,
      "Ob": 4721,
      "binary": 4722,
      "Ġcf": 4723,
      "ĠSearch": 4724,
      "ula": 4725,
      "82": 4726,
      "ĳðŁı": 4727,
      "ĠNO": 4728,
      "ĠClass": 4729,
      "iler": 4730,
      "Ġcandid": 4731,
      "ĠIP": 4732,
      "ocal": 4733,
      "024": 4734,
      "herit": 4735,
      "eno": 4736,
      "Ġsamples": 4737,
      "Ġacross": 4738,
      "System": 4739,
      "Ġindent": 4740,
      "Ġactually": 4741,
      "channels": 4742,
      "verride": 4743,
      "ĠUp": 4744,
      "Ġdjango": 4745,
      "ĠHttp": 4746,
      "ĠOpenAPI": 4747,
      "inner": 4748,
      "verage": 4749,
      "assert": 4750,
      "Endpoint": 4751,
      "lli": 4752,
      "Ġpydantic": 4753,
      "ublish": 4754,
      "storage": 4755,
      "raises": 4756,
      "\"][\"": 4757,
      "fp": 4758,
      "ĠUN": 4759,
      "Wrapper": 4760,
      "Ġhandling": 4761,
      "TONE": 4762,
      "ĠQuery": 4763,
      "ĠEnum": 4764,
      "td": 4765,
      "library": 4766,
      "Ġsuffix": 4767,
      "apply": 4768,
      "Http": 4769,
      "unicode": 4770,
      "51": 4771,
      "ĠTable": 4772,
      "SKIN": 4773,
      "Linear": 4774,
      "nowledge": 4775,
      "ĠHT": 4776,
      "nvml": 4777,
      "CHAN": 4778,
      "Ġcore": 4779,
      "Alias": 4780,
      "condition": 4781,
      "linux": 4782,
      "Record": 4783,
      "ĠModule": 4784,
      "tz": 4785,
      "Ġhttpx": 4786,
      "91": 4787,
      "major": 4788,
      "ilslurp": 4789,
      "divid": 4790,
      "ebook": 4791,
      "gative": 4792,
      "Ġexact": 4793,
      "Param": 4794,
      "LLM": 4795,
      "Ġexceptions": 4796,
      "ĠSec": 4797,
      "prot": 4798,
      "ĠHTML": 4799,
      "uff": 4800,
      "window": 4801,
      "imit": 4802,
      "free": 4803,
      "Ġsecret": 4804,
      "duration": 4805,
      "Ġshared": 4806,
      "ically": 4807,
      "serve": 4808,
      "blocks": 4809,
      "FL": 4810,
      "APITAL": 4811,
      "Literal": 4812,
      "ĠRFC": 4813,
      "Ġoutputs": 4814,
      "formed": 4815,
      "ressed": 4816,
      "Cache": 4817,
      "GR": 4818,
      "Use": 4819,
      "members": 4820,
      "objects": 4821,
      "ĠKeyError": 4822,
      "uv": 4823,
      "Ġvalidation": 4824,
      "verity": 4825,
      "izes": 4826,
      "ĠDescribe": 4827,
      "à§": 4828,
      "chine": 4829,
      "lyph": 4830,
      "PD": 4831,
      "repo": 4832,
      "Ġresolved": 4833,
      "Ġcommands": 4834,
      "polars": 4835,
      "language": 4836,
      "Ġforce": 4837,
      "ĠWindows": 4838,
      "resses": 4839,
      "changed": 4840,
      "Author": 4841,
      "generate": 4842,
      "Ġpod": 4843,
      "Ġdocuments": 4844,
      "Ġignored": 4845,
      "Page": 4846,
      "tcp": 4847,
      "Ġredu": 4848,
      "defaults": 4849,
      "Ġmarker": 4850,
      "âĶĢâĶĢâĶĢâĶĢâĶĢâĶĢâĶĢâĶĢ": 4851,
      "Ġfit": 4852,
      "Ġsure": 4853,
      "ĠCAPITAL": 4854,
      "unique": 4855,
      "ĠStatus": 4856,
      "clear": 4857,
      "parameter": 4858,
      "Direct": 4859,
      "Ġexamples": 4860,
      "running": 4861,
      "}\\": 4862,
      "Ġsummary": 4863,
      "Details": 4864,
      "åĪ": 4865,
      "clean": 4866,
      "yaml": 4867,
      "protocol": 4868,
      "Ġallows": 4869,
      "Attributes": 4870,
      "istent": 4871,
      "abilities": 4872,
      "Ġri": 4873,
      "hex": 4874,
      "Region": 4875,
      "aginate": 4876,
      "Ġcomplete": 4877,
      "ILITY": 4878,
      "cfg": 4879,
      "final": 4880,
      "ĨĴ": 4881,
      "Ġentries": 4882,
      "Ġwell": 4883,
      "Web": 4884,
      "lict": 4885,
      "raise": 4886,
      "mes": 4887,
      "vista": 4888,
      "unknown": 4889,
      "Ġdone": 4890,
      "Ġforward": 4891,
      "Sk": 4892,
      "depth": 4893,
      "Ġuntil": 4894,
      "Expr": 4895,
      "eq": 4896,
      "ĠRemove": 4897,
      "ĠInit": 4898,
      "words": 4899,
      "Attr": 4900,
      "ullable": 4901,
      "62": 4902,
      "roll": 4903,
      "Ġbranch": 4904,
      "execution": 4905,
      "alone": 4906,
      "Ġhidden": 4907,
      "Completion": 4908,
      "contain": 4909,
      "Ġmany": 4910,
      "mun": 4911,
      ")`": 4912,
      "Ġloss": 4913,
      "dependencies": 4914,
      "(\"\\": 4915,
      "[\"_": 4916,
      "methods": 4917,
      "subscription": 4918,
      "bf": 4919,
      "mag": 4920,
      "high": 4921,
      "orld": 4922,
      "Ġfallback": 4923,
      "ĠAc": 4924,
      "/)": 4925,
      "2026": 4926,
      "stderr": 4927,
      "Ġchanged": 4928,
      "Ġissues": 4929,
      "hx": 4930,
      "Ġupload": 4931,
      "ĠDO": 4932,
      "series": 4933,
      "ĠĠĠĠĠĠĠĠĠĠĠĠĠĠĠĠĠĠ": 4934,
      "specific": 4935,
      "Ġrank": 4936,
      "angle": 4937,
      "commands": 4938,
      "precation": 4939,
      "arison": 4940,
      "${": 4941,
      "Ġinside": 4942,
      "Ġcached": 4943,
      "glue": 4944,
      "Args": 4945,
      "raries": 4946,
      "dataform": 4947,
      "sResponse": 4948,
      "height": 4949,
      "uter": 4950,
      "providers": 4951,
      "components": 4952,
      "impl": 4953,
      "(\\": 4954,
      "POST": 4955,
      "Ġhist": 4956,
      "UTH": 4957,
      "Ġregistry": 4958,
      "Ġcapt": 4959,
      "BO": 4960,
      "Ġindices": 4961,
      "Ġpytest": 4962,
      "IAL": 4963,
      "props": 4964,
      "created": 4965,
      "Ġannotation": 4966,
      "MODE": 4967,
      "ĠOutput": 4968,
      "dumps": 4969,
      "NotFoundError": 4970,
      "Timeout": 4971,
      "ĠWeb": 4972,
      "ĠOther": 4973,
      "rtual": 4974,
      "annotations": 4975,
      ");": 4976,
      "Azure": 4977,
      "lector": 4978,
      "Ġpe": 4979,
      "tore": 4980,
      "progress": 4981,
      "Ġweight": 4982,
      "symbol": 4983,
      "ae": 4984,
      "Act": 4985,
      "uda": 4986,
      "retries": 4987,
      "}\".": 4988,
      "commend": 4989,
      "istic": 4990,
      "expi": 4991,
      "builtin": 4992,
      "Xmp": 4993,
      "getattr": 4994,
      "ĠCloud": 4995,
      "Ġsync": 4996,
      "ĠTest": 4997,
      "Level": 4998,
      "agn": 4999,
      "Hel": 5000,
      "au": 5001,
      "Ġrights": 5002,
      "()),": 5003,
      "BUG": 5004,
      "Ġ''": 5005,
      "named": 5006,
      "Ġrequested": 5007,
      "Ġscan": 5008,
      "hell": 5009,
      "Ġio": 5010,
      "....": 5011,
      "]]]": 5012,
      "phinx": 5013,
      "images": 5014,
      "ks": 5015,
      "Ġminor": 5016,
      "Security": 5017,
      ")\"": 5018,
      "reat": 5019,
      "sect": 5020,
      "Batch": 5021,
      "Ġstored": 5022,
      "attrs": 5023,
      "ĠStream": 5024,
      "diff": 5025,
      "ĠMan": 5026,
      "Ġfails": 5027,
      "ĠCor": 5028,
      "AND": 5029,
      "FILE": 5030,
      "HO": 5031,
      "Ġthose": 5032,
      "member": 5033,
      "na": 5034,
      "park": 5035,
      "Body": 5036,
      "Ġip": 5037,
      "Ġfe": 5038,
      "ters": 5039,
      "Ġmypy": 5040,
      "alive": 5041,
      "Report": 5042,
      "Ġoc": 5043,
      "pod": 5044,
      "All": 5045,
      "Ġir": 5046,
      "osition": 5047,
      "sha": 5048,
      "Ġutf": 5049,
      "Command": 5050,
      "xx": 5051,
      "ĠĠĠĠĠĠĠĠĠĠĠĠĠĠĠĠĠ": 5052,
      "arwh": 5053,
      "ï¼Į": 5054,
      "Ġdebug": 5055,
      "Ġcurrently": 5056,
      "handl": 5057,
      "history": 5058,
      "mazon": 5059,
      "mplementation": 5060,
      "grid": 5061,
      "Ġ(_": 5062,
      "ectors": 5063,
      "Ġrather": 5064,
      "day": 5065,
      "shed": 5066,
      "zoneinfo": 5067,
      "UID": 5068,
      "Ġheight": 5069,
      "arwhals": 5070,
      "loader": 5071,
      "USE": 5072,
      "tl": 5073,
      "Ġ\"\",": 5074,
      "001": 5075,
      "Ġsets": 5076,
      "Ġcondition": 5077,
      "Ġctypes": 5078,
      "ĠInput": 5079,
      "Ġsubclass": 5080,
      "Ġ11": 5081,
      "udit": 5082,
      "Gets": 5083,
      "Ġactual": 5084,
      "alib": 5085,
      "Pol": 5086,
      "evalu": 5087,
      "Ġimages": 5088,
      "rove": 5089,
      "tty": 5090,
      "ARK": 5091,
      ")',": 5092,
      "atest": 5093,
      "Ġserialization": 5094,
      "Ġpl": 5095,
      "neptune": 5096,
      "Ġmember": 5097,
      "LC": 5098,
      "poch": 5099,
      "attention": 5100,
      "ĠCustom": 5101,
      "ĠGoogle": 5102,
      "tep": 5103,
      "SD": 5104,
      "Ġconst": 5105,
      "elemetry": 5106,
      "41": 5107,
      "ycle": 5108,
      "mem": 5109,
      "inst": 5110,
      "Ġuniv": 5111,
      "sq": 5112,
      "FIG": 5113,
      "Ġfailure": 5114,
      "Ġrate": 5115,
      "onical": 5116,
      "Load": 5117,
      "dl": 5118,
      "kind": 5119,
      "operator": 5120,
      "ĠFOR": 5121,
      "Ġthreshold": 5122,
      "subtype": 5123,
      "tension": 5124,
      "Ġclear": 5125,
      "plotlib": 5126,
      "Is": 5127,
      "Ġpandas": 5128,
      "ough": 5129,
      "ĠDes": 5130,
      "Ġauthentication": 5131,
      "CESS": 5132,
      "={\"": 5133,
      "Credential": 5134,
      "ĠThese": 5135,
      "Ġapplied": 5136,
      "fill": 5137,
      "Ġutils": 5138,
      "Ġ'%": 5139,
      "Ġidentity": 5140,
      "Ġhandles": 5141,
      ".*": 5142,
      "plan": 5143,
      "indent": 5144,
      "hes": 5145,
      "Ġmight": 5146,
      "![": 5147,
      "cancel": 5148,
      "Ġtake": 5149,
      "(\"_": 5150,
      "'])": 5151,
      "81": 5152,
      "============": 5153,
      "dration": 5154,
      "Ġconfigurations": 5155,
      "Count": 5156,
      "single": 5157,
      "linear": 5158,
      "ĉĉĉ": 5159,
      "mount": 5160,
      "ĠâĶ": 5161,
      "heel": 5162,
      "Ġsomeword": 5163,
      "Ġsix": 5164,
      "Ġ[@": 5165,
      "Ġmodified": 5166,
      "Ġtab": 5167,
      "[...,": 5168,
      "Ġcontents": 5169,
      "Ġinstances": 5170,
      "He": 5171,
      "loaded": 5172,
      "Embed": 5173,
      "iases": 5174,
      "Ġmath": 5175,
      "ĠGenerate": 5176,
      "Domain": 5177,
      "Ġder": 5178,
      "ixed": 5179,
      "ACT": 5180,
      "correct": 5181,
      "widgets": 5182,
      "uses": 5183,
      "Mon": 5184,
      "ands": 5185,
      "DER": 5186,
      "PAR": 5187,
      "Ġanother": 5188,
      "ilation": 5189,
      "Ġencoded": 5190,
      "Be": 5191,
      "ĠSystem": 5192,
      "Ġfunctools": 5193,
      "initions": 5194,
      "ĠEX": 5195,
      "Ġorigin": 5196,
      "ĠâĨĴ": 5197,
      "MESS": 5198,
      "apis": 5199,
      "Char": 5200,
      "tachment": 5201,
      "RawResponse": 5202,
      "ĠAss": 5203,
      "Ġblocks": 5204,
      "Ġselected": 5205,
      "restype": 5206,
      "termine": 5207,
      "seil": 5208,
      "ĠRead": 5209,
      "73": 5210,
      "----------": 5211,
      "Ġscore": 5212,
      "Ġhead": 5213,
      "Ġconver": 5214,
      "Ġchat": 5215,
      "ĠConnection": 5216,
      "urls": 5217,
      "IBUT": 5218,
      ",)": 5219,
      "enari": 5220,
      "quote": 5221,
      "lier": 5222,
      "OG": 5223,
      "insert": 5224,
      "liant": 5225,
      "font": 5226,
      "Ġleast": 5227,
      "ĠAdditional": 5228,
      "ropo": 5229,
      "Export": 5230,
      "dividual": 5231,
      "Ġ`--": 5232,
      "LOGGER": 5233,
      "WN": 5234,
      "ops": 5235,
      "Ġformatted": 5236,
      "structured": 5237,
      "requ": 5238,
      "Ġreq": 5239,
      "Ġloaded": 5240,
      "JECT": 5241,
      "Ġdat": 5242,
      "abseil": 5243,
      "Mixin": 5244,
      "Ġfore": 5245,
      "Ġembeddings": 5246,
      "}]": 5247,
      "_(": 5248,
      "security": 5249,
      "Ġminimum": 5250,
      "Ġplt": 5251,
      "MM": 5252,
      "pdb": 5253,
      "chestr": 5254,
      "cipi": 5255,
      "cipient": 5256,
      "Ġ,": 5257,
      "LOW": 5258,
      "ength": 5259,
      "Ġseries": 5260,
      "hub": 5261,
      "ĠLog": 5262,
      "ropout": 5263,
      "delay": 5264,
      "Ġdataclasses": 5265,
      "Runtime": 5266,
      "Ġnative": 5267,
      "Ġbuilt": 5268,
      "Ġ\"\")": 5269,
      "relation": 5270,
      "ĠInt": 5271,
      "Ġliteral": 5272,
      "Ġexplicitly": 5273,
      "ĠForm": 5274,
      "Ġverify": 5275,
      "MEDI": 5276,
      "Ġquant": 5277,
      "enable": 5278,
      "(\"/": 5279,
      "layout": 5280,
      "Ġsafe": 5281,
      "CFG": 5282,
      "Entity": 5283,
      "ĠAs": 5284,
      "Float": 5285,
      "vtk": 5286,
      "segment": 5287,
      "Ġtakes": 5288,
      "Ġstorage": 5289,
      "priate": 5290,
      "Ġsnapshot": 5291,
      "suffix": 5292,
      "').": 5293,
      "added": 5294,
      "Ġwhose": 5295,
      "acter": 5296,
      "ĠMake": 5297,
      "dat": 5298,
      "nip": 5299,
      "ulate": 5300,
      "product": 5301,
      "Ġproduct": 5302,
      "Ġ``\"": 5303,
      "ĠVariable": 5304,
      "fl": 5305,
      "olt": 5306,
      "Ġ_,": 5307,
      "StreamingResponse": 5308,
      "ority": 5309,
      "Ġbit": 5310,
      "Ġeval": 5311,
      "Ġproble": 5312,
      "links": 5313,
      "Ġpatch": 5314,
      "conv": 5315,
      "=%": 5316,
      "asy": 5317,
      "]))": 5318,
      "olic": 5319,
      "Ġowner": 5320,
      "crypted": 5321,
      "jax": 5322,
      "database": 5323,
      "big": 5324,
      "network": 5325,
      "DR": 5326,
      "Profile": 5327,
      "second": 5328,
      "ĠMo": 5329,
      "look": 5330,
      "bus": 5331,
      "Ġim": 5332,
      "yg": 5333,
      "ube": 5334,
      "Lay": 5335,
      "buffers": 5336,
      "Ġexecute": 5337,
      "Api": 5338,
      "ueue": 5339,
      "Cur": 5340,
      "Lab": 5341,
      "XX": 5342,
      "REQU": 5343,
      "ĠAND": 5344,
      "Kind": 5345,
      "255": 5346,
      "ResourceWithRawResponse": 5347,
      "Ġcfg": 5348,
      "pose": 5349,
      "driver": 5350,
      "Ġconditions": 5351,
      "Mo": 5352,
      "uard": 5353,
      "ABILITY": 5354,
      "Ġ15": 5355,
      "Max": 5356,
      "ral": 5357,
      "Ġhistory": 5358,
      "Ġdimensions": 5359,
      "Ġgrpc": 5360,
      "ruff": 5361,
      "embedding": 5362,
      "Ġsimilar": 5363,
      "Ġduration": 5364,
      "](#": 5365,
      "Ġdistance": 5366,
      "optim": 5367,
      "uous": 5368,
      "401": 5369,
      "Auto": 5370,
      "__.__": 5371,
      "cv": 5372,
      "Ġconsider": 5373,
      "ResourceWithStreamingResponse": 5374,
      "div": 5375,
      "ĠPRO": 5376,
      "ĠMac": 5377,
      "drop": 5378,
      "Rest": 5379,
      "ouroboros": 5380,
      "ront": 5381,
      "nippe": 5382,
      "PU": 5383,
      "Ġ'/": 5384,
      "Ġcreating": 5385,
      "2025": 5386,
      "Ġregistered": 5387,
      "Tree": 5388,
      "cking": 5389,
      "cluded": 5390,
      "commended": 5391,
      "LL": 5392,
      "rs": 5393,
      "scriptions": 5394,
      "versation": 5395,
      "steps": 5396,
      "Ġdeserialized": 5397,
      "cial": 5398,
      "deserializer": 5399,
      "Ab": 5400,
      "Ġ[{": 5401,
      "Ġcomment": 5402,
      "ĠArray": 5403,
      "ĠStart": 5404,
      "ui": 5405,
      "Workflow": 5406,
      "Ġnone": 5407,
      "Iss": 5408,
      "dt": 5409,
      "æĸ": 5410,
      "ulation": 5411,
      "clusive": 5412,
      "CLIENT": 5413,
      "]),": 5414,
      "ĠFound": 5415,
      "upper": 5416,
      "Ġbrowser": 5417,
      "Ġcompletion": 5418,
      "Offset": 5419,
      "Ġ]:": 5420,
      "cost": 5421,
      "PUT": 5422,
      ").\"\"\"": 5423,
      "ĠConfiguration": 5424,
      "Ġfinally": 5425,
      "uch": 5426,
      "Ġ'_": 5427,
      "Ġsubprocess": 5428,
      "Ġnormalized": 5429,
      "CRE": 5430,
      "django": 5431,
      "Ġside": 5432,
      "ĠBack": 5433,
      "./": 5434,
      "We": 5435,
      "road": 5436,
      "estim": 5437,
      "failed": 5438,
      "Ġbackground": 5439,
      "normalize": 5440,
      "grap": 5441,
      "Ġ({": 5442,
      "Ġflat": 5443,
      "ffff": 5444,
      "ynchronous": 5445,
      "route": 5446,
      "Namespace": 5447,
      "dependent": 5448,
      "Ġfrozen": 5449,
      "dic": 5450,
      "STAT": 5451,
      "FIX": 5452,
      "Build": 5453,
      "aker": 5454,
      "kernel": 5455,
      "ller": 5456,
      "_,": 5457,
      "Ġtimes": 5458,
      "ĠMA": 5459,
      "Ġparsing": 5460,
      "ĠAnnot": 5461,
      "MIN": 5462,
      "Fact": 5463,
      "Ġtraining": 5464,
      "TRIBUT": 5465,
      "ĠIterator": 5466,
      "llama": 5467,
      "Ġaudio": 5468,
      "Ġnumbers": 5469,
      "Ġtoo": 5470,
      "000000": 5471,
      "'re": 5472,
      "TypeType": 5473,
      "dc": 5474,
      "åĲ": 5475,
      "ferred": 5476,
      "Collection": 5477,
      "Ġraised": 5478,
      "ields": 5479,
      "sandbox": 5480,
      "real": 5481,
      "Ġtasks": 5482,
      "por": 5483,
      "Ġcomponents": 5484,
      "tmp": 5485,
      "Ġpop": 5486,
      "SIZE": 5487,
      "trigger": 5488,
      "calls": 5489,
      "Ġsecurity": 5490,
      "aiter": 5491,
      "Ġfixed": 5492,
      "thedocs": 5493,
      "gz": 5494,
      "utation": 5495,
      "ĠST": 5496,
      "Repository": 5497,
      "signal": 5498,
      "DATA": 5499,
      "Ġemit": 5500,
      "Ġarchive": 5501,
      "Account": 5502,
      "Font": 5503,
      "flatten": 5504,
      "hs": 5505,
      "question": 5506,
      "Schedule": 5507,
      "Ġ\"%": 5508,
      "ĠMark": 5509,
      "Mark": 5510,
      "css": 5511,
      "notification": 5512,
      "Values": 5513,
      "Ġrepresenting": 5514,
      "IR": 5515,
      "bs": 5516,
      "protobuf": 5517,
      "audio": 5518,
      "writer": 5519,
      "codes": 5520,
      "ĠIndex": 5521,
      "Box": 5522,
      "Mod": 5523,
      "ĠCan": 5524,
      "Storage": 5525,
      "Ġworks": 5526,
      "uplicate": 5527,
      "AWS": 5528,
      "units": 5529,
      "Ġhand": 5530,
      "ĠContent": 5531,
      "Component": 5532,
      "RUN": 5533,
      "SL": 5534,
      "So": 5535,
      "ĠArg": 5536,
      "simple": 5537,
      "Ġboolean": 5538,
      "repository": 5539,
      "Ġtransaction": 5540,
      "Feature": 5541,
      "Ġgrid": 5542,
      "iso": 5543,
      "Sets": 5544,
      "61": 5545,
      "atter": 5546,
      "enu": 5547,
      "pelli": 5548,
      "Ġrelated": 5549,
      "Ġdecorator": 5550,
      "ĠĠĠĠĠĠĠĠĠĠĠĠĠĠĠĠĠĠĠĠ": 5551,
      "tainless": 5552,
      "refresh": 5553,
      "({\"": 5554,
      "ationError": 5555,
      "strument": 5556,
      "ointer": 5557,
      "agination": 5558,
      "cpu": 5559,
      "Describe": 5560,
      "ĠNew": 5561,
      "âĢįðŁ¦": 5562,
      "Ġsuccessful": 5563,
      "cum": 5564,
      "FORM": 5565,
      "rep": 5566,
      "doctest": 5567,
      "ised": 5568,
      "Ġitself": 5569,
      "Ġ'ðŁ§ĳðŁı": 5570,
      "Ġ\"<": 5571,
      "ceed": 5572,
      "imension": 5573,
      "ĠFilter": 5574,
      "ĠAttributeError": 5575,
      "mpts": 5576,
      "spose": 5577,
      "diction": 5578,
      "Ġalgorithm": 5579,
      "MEDIUM": 5580,
      "readthedocs": 5581,
      "Ġtrain": 5582,
      "Ġ:=": 5583,
      "Ġ).": 5584,
      "Ġcalling": 5585,
      "Ġattempt": 5586,
      "Ġdistribution": 5587,
      "Transform": 5588,
      "handlers": 5589,
      "ores": 5590,
      "ĠImage": 5591,
      "cessary": 5592,
      "New": 5593,
      "#:": 5594,
      "YY": 5595,
      "rot": 5596,
      "agnost": 5597,
      "year": 5598,
      "ĠRed": 5599,
      "pinder": 5600,
      "seed": 5601,
      "Ġut": 5602,
      "Ġ20": 5603,
      "initial": 5604,
      "ĠContext": 5605,
      "Ġlonger": 5606,
      "Ġmonitor": 5607,
      "SQL": 5608,
      "Tri": 5609,
      "à²": 5610,
      "assets": 5611,
      "appings": 5612,
      "Notification": 5613,
      "Retri": 5614,
      "-----": 5615,
      "SA": 5616,
      "cov": 5617,
      "Ġdeployment": 5618,
      "ĠInvalid": 5619,
      "Ġnormalize": 5620,
      "SY": 5621,
      "onnx": 5622,
      "ĠCre": 5623,
      "Ġcreation": 5624,
      "Order": 5625,
      "=-": 5626,
      "sleep": 5627,
      "Ġdependency": 5628,
      "verbose": 5629,
      "endswith": 5630,
      "400": 5631,
      "InputTypeDef": 5632,
      "Ġbar": 5633,
      "ogram": 5634,
      "lank": 5635,
      "Bucket": 5636,
      "Ġunicode": 5637,
      "ðĳĦ": 5638,
      "71": 5639,
      "ĠGroup": 5640,
      "Ġperformance": 5641,
      "snapshot": 5642,
      "Ġ?": 5643,
      "omo": 5644,
      "Ġappropriate": 5645,
      "Document": 5646,
      "illi": 5647,
      "ĠStainless": 5648,
      "ganization": 5649,
      "site": 5650,
      "Ġpolling": 5651,
      "mpler": 5652,
      "Ġworking": 5653,
      "Expression": 5654,
      "invoke": 5655,
      "logs": 5656,
      "IGHT": 5657,
      "IF": 5658,
      "Ġchildren": 5659,
      ")#": 5660,
      "ybe": 5661,
      "Ġprofile": 5662,
      "KEN": 5663,
      "Ġfolder": 5664,
      "icate": 5665,
      "Location": 5666,
      "Ġxml": 5667,
      "servation": 5668,
      "ĠAuto": 5669,
      "standalone": 5670,
      "Ġdesc": 5671,
      "Ġrot": 5672,
      "ona": 5673,
      "Ġdefine": 5674,
      "username": 5675,
      "Ġpatterns": 5676,
      "browser": 5677,
      "pred": 5678,
      "amer": 5679,
      "ĠĠĠĠĠĠĠĠĠĠĠĠĠĠĠĠĠĠĠĠĠĠĠĠ": 5680,
      "cesses": 5681,
      "Ġlookup": 5682,
      "EP": 5683,
      "Ġexpr": 5684,
      "requirements": 5685,
      "Ġmesh": 5686,
      "Ġrequirements": 5687,
      "echo": 5688,
      "isting": 5689,
      "sser": 5690,
      "Ġqueries": 5691,
      "distance": 5692,
      "Ġmade": 5693,
      "``:": 5694,
      "inf": 5695,
      "using": 5696,
      "framework": 5697,
      "~.": 5698,
      "``)": 5699,
      "Ġengine": 5700,
      "DataAttr": 5701,
      "Ġneptune": 5702,
      ")#,,": 5703,
      "}}": 5704,
      "Pipeline": 5705,
      "SING": 5706,
      "Unknown": 5707,
      "\\\",": 5708,
      "inux": 5709,
      "MIT": 5710,
      "Ġbin": 5711,
      "axes": 5712,
      "runs": 5713,
      "ulated": 5714,
      "CONFIG": 5715,
      "nbextensions": 5716,
      "Ġpairs": 5717,
      "ĠFeature": 5718,
      "Ġretrieve": 5719,
      "ĠBuild": 5720,
      "zap": 5721,
      "rant": 5722,
      "RA": 5723,
      "mk": 5724,
      "signed": 5725,
      "cii": 5726,
      "Ġedit": 5727,
      "ĠResponseMetadataTypeDef": 5728,
      "Ġnull": 5729,
      "lemetry": 5730,
      "pelines": 5731,
      "ĠHandle": 5732,
      "seek": 5733,
      "syn": 5734,
      "regex": 5735,
      "ferences": 5736,
      "ĠConnect": 5737,
      "ticket": 5738,
      "cuda": 5739,
      "mas": 5740,
      "Ġprocessing": 5741,
      "ĠBe": 5742,
      "Ġcollect": 5743,
      "love": 5744,
      "ully": 5745,
      "solute": 5746,
      "Det": 5747,
      "Ġcategory": 5748,
      "Ġinner": 5749,
      "Ġpages": 5750,
      "MESSAGE": 5751,
      "Ġroute": 5752,
      "azy": 5753,
      "'{": 5754,
      "Import": 5755,
      "Multi": 5756,
      "acity": 5757,
      "ĠQu": 5758,
      "ĠĠĠĠĠĠĠĠčĊ": 5759,
      "grappelli": 5760,
      "scheme": 5761,
      "Shape": 5762,
      "firm": 5763,
      "Ġ${": 5764,
      "Ġseparate": 5765,
      "Support": 5766,
      "ceeded": 5767,
      "ildcard": 5768,
      "Proxy": 5769,
      "Ġperiod": 5770,
      "ĠMicrosoft": 5771,
      "CONT": 5772,
      "Ġ#:": 5773,
      "ARY": 5774,
      "Plugin": 5775,
      "Ġserialize": 5776,
      "128": 5777,
      "chedul": 5778,
      "elements": 5779,
      "Ġdestination": 5780,
      "dynamic": 5781,
      "Ġbest": 5782,
      "aio": 5783,
      "lr": 5784,
      "rx": 5785,
      "addr": 5786,
      "Ġnova": 5787,
      "ĠInstall": 5788,
      "Header": 5789,
      "SV": 5790,
      "Ġcar": 5791,
      "reshape": 5792,
      "Ġlogs": 5793,
      "private": 5794,
      "VICE": 5795,
      "Ġstreaming": 5796,
      "category": 5797,
      "projects": 5798,
      "tasks": 5799,
      "ini": 5800,
      "ills": 5801,
      "Ġ[],": 5802,
      "CM": 5803,
      "Ġcost": 5804,
      "theme": 5805,
      "Obj": 5806,
      "`](": 5807,
      "constants": 5808,
      "bri": 5809,
      "parsed": 5810,
      "Ġyet": 5811,
      "#)": 5812,
      "servations": 5813,
      "Ġnotification": 5814,
      ">\"": 5815,
      "reset": 5816,
      "cogn": 5817,
      "Ġknown": 5818,
      "Ġlang": 5819,
      "Ġclosed": 5820,
      "Red": 5821,
      "`).": 5822,
      "---------": 5823,
      "Iterator": 5824,
      "yl": 5825,
      "ĠHow": 5826,
      "TIMEOUT": 5827,
      "Ġ30": 5828,
      "Ġshapely": 5829,
      "holder": 5830,
      "Ġpred": 5831,
      "Ġcursor": 5832,
      "And": 5833,
      "arti": 5834,
      "velopers": 5835,
      "NING": 5836,
      "Ġcaller": 5837,
      "audience": 5838,
      "bd": 5839,
      "ĠExecut": 5840,
      "fss": 5841,
      "ĠMIT": 5842,
      "generator": 5843,
      "Ġsmall": 5844,
      "Variable": 5845,
      "Ã©": 5846,
      "ells": 5847,
      "quant": 5848,
      "Ġllm": 5849,
      "Ġgroups": 5850,
      "chunks": 5851,
      "ĠId": 5852,
      "Ġcook": 5853,
      "LEN": 5854,
      "Sc": 5855,
      "Ġbind": 5856,
      "allel": 5857,
      "rope": 5858,
      "ĠEach": 5859,
      "Ġlet": 5860,
      "rfc": 5861,
      "Environment": 5862,
      "Ġpackages": 5863,
      ".)": 5864,
      "asn": 5865,
      "marker": 5866,
      "TLS": 5867,
      "Stack": 5868,
      "ģ':": 5869,
      "lug": 5870,
      "OK": 5871,
      "Ġexpect": 5872,
      "gate": 5873,
      "quival": 5874,
      "Ġmailslurp": 5875,
      "eff": 5876,
      "Ġtunnel": 5877,
      "Engine": 5878,
      "Ġcancel": 5879,
      "Cannot": 5880,
      "Graph": 5881,
      "TRIC": 5882,
      "disable": 5883,
      "Ġlatest": 5884,
      "HEAD": 5885,
      "integer": 5886,
      "leak": 5887,
      "ading": 5888,
      "ĠintPtr": 5889,
      "Ġseed": 5890,
      "DEBUG": 5891,
      "badge": 5892,
      "Scal": 5893,
      "Ġaxes": 5894,
      "russ": 5895,
      "\"]]": 5896,
      "reveal": 5897,
      "typed": 5898,
      "currency": 5899,
      "Ġreset": 5900,
      "logy": 5901,
      "Ġcloud": 5902,
      "Store": 5903,
      "cut": 5904,
      "()``": 5905,
      "ĠPlease": 5906,
      "ĠKNX": 5907,
      "ymbolic": 5908,
      "ior": 5909,
      "æķ": 5910,
      "Ġns": 5911,
      "video": 5912,
      "home": 5913,
      "Ġbackup": 5914,
      "Ġ600": 5915,
      "Ġwritten": 5916,
      "ĠĠĠĠĠĠĠĠĠĠĠĠĠĠĠĠĠĠĠĠĠ": 5917,
      "AUTH": 5918,
      "templates": 5919,
      "tempts": 5920,
      "NECT": 5921,
      "Ġalign": 5922,
      "Bytes": 5923,
      "Limit": 5924,
      "ana": 5925,
      "ensity": 5926,
      "Ġcheckpoint": 5927,
      "console": 5928,
      "Cloud": 5929,
      "Ġstrip": 5930,
      "Ġnotice": 5931,
      "Ġregex": 5932,
      "Ġselection": 5933,
      "troller": 5934,
      "Ġtables": 5935,
      "updated": 5936,
      "ServiceRequest": 5937,
      "patterns": 5938,
      "coverage": 5939,
      "Widget": 5940,
      "hint": 5941,
      "scripts": 5942,
      "Ġ[])": 5943,
      "Ġtyp": 5944,
      "many": 5945,
      "reader": 5946,
      ")](": 5947,
      "lapsed": 5948,
      "artifact": 5949,
      "asyncio": 5950,
      "ĠEN": 5951,
      "aving": 5952,
      "Ġthreading": 5953,
      "Case": 5954,
      "utdown": 5955,
      "Ġmanifest": 5956,
      "sheet": 5957,
      "rand": 5958,
      "Long": 5959,
      "ius": 5960,
      "Ġå": 5961,
      "Ġ60": 5962,
      "AV": 5963,
      "Ġssl": 5964,
      "checkpoint": 5965,
      "ĠĠĠĠĠĠĠĠĠĠĠĠĠĠĠĠĠĠĠĠĠĠĠĠĠ": 5966,
      "Ġtempor": 5967,
      "Ġchunks": 5968,
      "Ġcoordinates": 5969,
      "Ġdecla": 5970,
      "Ġsteps": 5971,
      "ĠREADME": 5972,
      "swer": 5973,
      "ĥ':": 5974,
      "Ġround": 5975,
      "tables": 5976,
      "intain": 5977,
      "See": 5978,
      "Ġchecks": 5979,
      "Ġwrapped": 5980,
      "__\",": 5981,
      "Ġstat": 5982,
      "Flags": 5983,
      "ention": 5984,
      "Ġ<<": 5985,
      "zeros": 5986,
      "compatible": 5987,
      "ä»¶": 5988,
      "HER": 5989,
      "PM": 5990,
      "lev": 5991,
      "ĠIDs": 5992,
      "jobs": 5993,
      "Ġcause": 5994,
      "routing": 5995,
      "Ġshell": 5996,
      "Ġhuman": 5997,
      "Ġ1000": 5998,
      "Catalog": 5999,
      "ale": 6000,
      "'\\": 6001,
      "SUP": 6002,
      "stellar": 6003,
      "isc": 6004,
      "Ġho": 6005,
      "ĠProject": 6006,
      "Ġgeometry": 6007,
      "perimental": 6008,
      "variables": 6009,
      "ĠÂ§": 6010,
      "Integer": 6011,
      "Write": 6012,
      "___": 6013,
      "COMP": 6014,
      "mer": 6015,
      "Control": 6016,
      "ENV": 6017,
      "LY": 6018,
      "Ġ{},": 6019,
      "pandas": 6020,
      "Ġel": 6021,
      "ĠFla": 6022,
      "CODE": 6023,
      "ĠLesser": 6024,
      "Ġfactor": 6025,
      "dm": 6026,
      "Ġproper": 6027,
      "PTION": 6028,
      "UnionTypeDef": 6029,
      "Uni": 6030,
      "~~~~~~~~~~~~~~~~": 6031,
      "ĠSource": 6032,
      "Writer": 6033,
      "rf": 6034,
      "ĠĠĠĠĠĠĠĠĠĠĠĠĠĠĠĠĠĠĠĠĠĠĠĠĠĠĠĠĠĠĠĠĠĠĠĠĠĠĠĠĠĠĠĠĠĠĠĠĠĠĠĠĠĠĠĠĠĠĠĠĠĠĠĠ": 6035,
      "bricks": 6036,
      "ipy": 6037,
      "Ġassume": 6038,
      "æľ": 6039,
      "Prompt": 6040,
      "center": 6041,
      "Ġrules": 6042,
      "anti": 6043,
      "Ġincludes": 6044,
      "Ġembedding": 6045,
      "ĠAnnotated": 6046,
      "poration": 6047,
      "Summary": 6048,
      "irt": 6049,
      "INTER": 6050,
      "media": 6051,
      "ished": 6052,
      "101": 6053,
      "Vector": 6054,
      "ess": 6055,
      "closed": 6056,
      "Generic": 6057,
      ":\\": 6058,
      "verify": 6059,
      ">.": 6060,
      "Reader": 6061,
      ")->": 6062,
      "attn": 6063,
      "frames": 6064,
      "></": 6065,
      "Description": 6066,
      "MENT": 6067,
      "]`": 6068,
      "branch": 6069,
      "ierarch": 6070,
      "loor": 6071,
      "ĠNext": 6072,
      "appro": 6073,
      "Ġstdout": 6074,
      "gt": 6075,
      "Ġcredential": 6076,
      "ĠON": 6077,
      "callable": 6078,
      "period": 6079,
      "Port": 6080,
      "Ġalpha": 6081,
      "ava": 6082,
      ".\\": 6083,
      "bias": 6084,
      "IZ": 6085,
      "encoder": 6086,
      "false": 6087,
      "ili": 6088,
      "logged": 6089,
      "processor": 6090,
      "Application": 6091,
      "requency": 6092,
      "xB": 6093,
      "Ġprob": 6094,
      "Ġsimp": 6095,
      "Ġword": 6096,
      "Analytics": 6097,
      "catalog": 6098,
      "Audience": 6099,
      "Ġdetermin": 6100,
      "Ġexternal": 6101,
      "à§į": 6102,
      "ĠConstruct": 6103,
      "COL": 6104,
      "NVML": 6105,
      "ĠVar": 6106,
      "completion": 6107,
      "formance": 6108,
      "Ġdataclass": 6109,
      "è¯": 6110,
      "Ġcompatible": 6111,
      "âĸĪ": 6112,
      "Ġpur": 6113,
      "Ġatom": 6114,
      "Ġleg": 6115,
      "streaming": 6116,
      "times": 6117,
      "quivalent": 6118,
      "Ġids": 6119,
      "ĠServer": 6120,
      "++++": 6121,
      "è¿": 6122,
      "Ġuri": 6123,
      "sen": 6124,
      "orical": 6125,
      "Ġurllib": 6126,
      "ĠElement": 6127,
      "circ": 6128,
      "TOKEN": 6129,
      "ĠAmazon": 6130,
      "ĠMy": 6131,
      "scopes": 6132,
      "Match": 6133,
      "encoded": 6134,
      "ĠSend": 6135,
      "Ġmaterial": 6136,
      "Ġprimary": 6137,
      "Ġplan": 6138,
      "ulner": 6139,
      "sers": 6140,
      "à±": 6141,
      "Ġdepth": 6142,
      "Ġdescri": 6143,
      "processing": 6144,
      "Ġremaining": 6145,
      "ĠGitHub": 6146,
      "DED": 6147,
      "management": 6148,
      "irtual": 6149,
      "deps": 6150,
      "Ġface": 6151,
      "Ġcommun": 6152,
      "Ġusername": 6153,
      "credential": 6154,
      "Ġaggreg": 6155,
      "Ġencode": 6156,
      "crement": 6157,
      "benchmark": 6158,
      "\"\",": 6159,
      "ORS": 6160,
      "ĠPyrogram": 6161,
      "forward": 6162,
      "blue": 6163,
      "fast": 6164,
      "enario": 6165,
      "crete": 6166,
      "ULL": 6167,
      "pages": 6168,
      "Ġtre": 6169,
      "Ġimports": 6170,
      "oop": 6171,
      "Issue": 6172,
      "SOUR": 6173,
      "UST": 6174,
      "erts": 6175,
      "Ġ`.": 6176,
      "configs": 6177,
      "Ġlinear": 6178,
      "wrapped": 6179,
      "radient": 6180,
      "hing": 6181,
      "oring": 6182,
      "ĠGeneric": 6183,
      "Operator": 6184,
      "Ġkw": 6185,
      "Ġturn": 6186,
      "ckle": 6187,
      "ĠTypedDict": 6188,
      "Ġflatten": 6189,
      "univ": 6190,
      "Ġsegments": 6191,
      "testdata": 6192,
      "Ġmanagedattribute": 6193,
      "DES": 6194,
      "uation": 6195,
      "ertain": 6196,
      "lazy": 6197,
      "ĠDPT": 6198,
      "datasets": 6199,
      "AA": 6200,
      "Simple": 6201,
      "glove": 6202,
      "kv": 6203,
      "crimin": 6204,
      "Ġpacket": 6205,
      "(\"--": 6206,
      "Ġrfc": 6207,
      "Ġdisabled": 6208,
      "ja": 6209,
      "rics": 6210,
      "ĠĠĠĠĠĠĠĠĠĠĠĠĠĠĠĠĠĠĠĠĠĠ": 6211,
      "VAR": 6212,
      "inel": 6213,
      "Ġunits": 6214,
      "}/{": 6215,
      "ĠMin": 6216,
      "rong": 6217,
      "([\"": 6218,
      "activ": 6219,
      "Authentication": 6220,
      "Ġaio": 6221,
      "Ġspecial": 6222,
      "ĠBaseModel": 6223,
      "Ġhapp": 6224,
      "Ġlists": 6225,
      "Ġregular": 6226,
      "allowed": 6227,
      "FE": 6228,
      "align": 6229,
      "conda": 6230,
      "ufe": 6231,
      "alert": 6232,
      "Ġprevent": 6233,
      "Ġstarting": 6234,
      "Ġcopyright": 6235,
      "Ġappe": 6236,
      "CI": 6237,
      "Ġnorm": 6238,
      "ORY": 6239,
      "Ġservices": 6240,
      "Ġescape": 6241,
      "nbst": 6242,
      "alk": 6243,
      "chan": 6244,
      "Ġanalysis": 6245,
      "Ġconstructor": 6246,
      "ampa": 6247,
      "Ġboundary": 6248,
      "Ġscopes": 6249,
      "âĶģâĶģâĶģâĶģ": 6250,
      "ampaign": 6251,
      "relative": 6252,
      "resolved": 6253,
      "choice": 6254,
      "Des": 6255,
      "wall": 6256,
      "Pay": 6257,
      "cct": 6258,
      "owner": 6259,
      "hour": 6260,
      "stable": 6261,
      "construction": 6262,
      "shields": 6263,
      "ĠPipeline": 6264,
      "helpers": 6265,
      "Pos": 6266,
      "Ġreverse": 6267,
      "defs": 6268,
      "imports": 6269,
      "ĠRetri": 6270,
      "angul": 6271,
      "deployment": 6272,
      "getenv": 6273,
      "Ġ32": 6274,
      "ĠPO": 6275,
      "ResponseError": 6276,
      "crets": 6277,
      "descriptor": 6278,
      "ascii": 6279,
      "cons": 6280,
      "Ġdeserialization": 6281,
      "setuptools": 6282,
      "/.": 6283,
      "design": 6284,
      "Ġsem": 6285,
      "Cond": 6286,
      "Ġcross": 6287,
      "VALID": 6288,
      "\"[": 6289,
      "colors": 6290,
      "Ġcp": 6291,
      "MSG": 6292,
      "ctype": 6293,
      "irst": 6294,
      "Ġflyte": 6295,
      "à¤¾':": 6296,
      "ĠLib": 6297,
      "Ġasset": 6298,
      "cursor": 6299,
      "Ġjnp": 6300,
      "sources": 6301,
      "Ġabsolute": 6302,
      "Ġrepresents": 6303,
      "nested": 6304,
      "aggreg": 6305,
      "Ġbias": 6306,
      "chemy": 6307,
      "Extract": 6308,
      "/*": 6309,
      "rece": 6310,
      "Ġworker": 6311,
      "pending": 6312,
      "UC": 6313,
      "Ġmerged": 6314,
      "ĩ':": 6315,
      "Ġartifact": 6316,
      "Ġsug": 6317,
      "Ġrecords": 6318,
      "lookup": 6319,
      "br": 6320,
      "ERS": 6321,
      "istration": 6322,
      "Ġrefresh": 6323,
      "cctz": 6324,
      "Core": 6325,
      "çĶ": 6326,
      "comment": 6327,
      "neo": 6328,
      "ĠCommand": 6329,
      "¼':": 6330,
      "Ġdash": 6331,
      "Snapshot": 6332,
      "Ġencoder": 6333,
      "pping": 6334,
      "Ġplease": 6335,
      "****************": 6336,
      "Pattern": 6337,
      "six": 6338,
      "ĠRef": 6339,
      "TS": 6340,
      "car": 6341,
      "exec": 6342,
      "umi": 6343,
      "matic": 6344,
      "tions": 6345,
      "itect": 6346,
      "ENDPOINT": 6347,
      "cook": 6348,
      "COUN": 6349,
      "Queue": 6350,
      "Ġlarge": 6351,
      "ipher": 6352,
      "rules": 6353,
      "which": 6354,
      "Ġpartic": 6355,
      "ĠUnicode": 6356,
      "PP": 6357,
      "Role": 6358,
      "accept": 6359,
      "cheduler": 6360,
      "ĠImp": 6361,
      "grad": 6362,
      "Ġsampling": 6363,
      "CTION": 6364,
      "Names": 6365,
      "googleapis": 6366,
      "Conf": 6367,
      "guide": 6368,
      "lso": 6369,
      "ymlink": 6370,
      "slots": 6371,
      "Ġdoctest": 6372,
      "Ġlibraries": 6373,
      "Ġvide": 6374,
      "à«": 6375,
      "atype": 6376,
      "''''": 6377,
      "Ġfra": 6378,
      "ĠMissing": 6379,
      "bedrock": 6380,
      "Symbol": 6381,
      "usters": 6382,
      "iles": 6383,
      "ĠStruct": 6384,
      "ygon": 6385,
      "ĠMulti": 6386,
      "ggers": 6387,
      "builtins": 6388,
      "Sync": 6389,
      "ners": 6390,
      "ĠSk": 6391,
      "à¤°": 6392,
      "AF": 6393,
      "Ġindividual": 6394,
      "Ġsaved": 6395,
      "vanced": 6396,
      "magic": 6397,
      "It": 6398,
      "candid": 6399,
      "dash": 6400,
      "hi": 6401,
      "Ġpk": 6402,
      "Ġ`__": 6403,
      "Ġbegin": 6404,
      "cursive": 6405,
      "TEST": 6406,
      "Ġresponses": 6407,
      "Ġsubject": 6408,
      "transaction": 6409,
      "union": 6410,
      "ĠFinal": 6411,
      "Ġoccur": 6412,
      "IX": 6413,
      "äº": 6414,
      "Ġmac": 6415,
      "Ġappend": 6416,
      "ech": 6417,
      "Ġarrays": 6418,
      "inct": 6419,
      "Ġimplemented": 6420,
      "usr": 6421,
      "Ġupper": 6422,
      "ensure": 6423,
      "dapter": 6424,
      "Pack": 6425,
      "vnd": 6426,
      "BL": 6427,
      "Callback": 6428,
      "unsupported": 6429,
      "Ġ'-": 6430,
      "quet": 6431,
      "ISSING": 6432,
      "BR": 6433,
      "CES": 6434,
      "LIG": 6435,
      "aring": 6436,
      "Ġinvocation": 6437,
      "BT": 6438,
      "Ġmembers": 6439,
      "mtls": 6440,
      "archive": 6441,
      "reeze": 6442,
      "pydantic": 6443,
      "UND": 6444,
      "Ġuniverse": 6445,
      "Min": 6446,
      "mm": 6447,
      "\"/": 6448,
      "ĠSymbol": 6449,
      "secure": 6450,
      "CA": 6451,
      "VI": 6452,
      "Ġ64": 6453,
      "Ġnarwhals": 6454,
      "adapt": 6455,
      "Ġentire": 6456,
      "Aggreg": 6457,
      "ĠAb": 6458,
      "analysis": 6459,
      "Ġmut": 6460,
      "Ġ14": 6461,
      "Sql": 6462,
      "Ġgeneration": 6463,
      "roadcast": 6464,
      "ilent": 6465,
      "ĠAI": 6466,
      "ĠOrder": 6467,
      "rel": 6468,
      "asis": 6469,
      "Su": 6470,
      "åħ": 6471,
      "lip": 6472,
      "('/": 6473,
      "unpack": 6474,
      "Integration": 6475,
      "Identity": 6476,
      "failure": 6477,
      "iki": 6478,
      "\"`": 6479,
      "RED": 6480,
      "gp": 6481,
      "sorted": 6482,
      "mbd": 6483,
      "Ġcandidate": 6484,
      "oices": 6485,
      "Ġfall": 6486,
      "ĠSO": 6487,
      "users": 6488,
      "Reser": 6489,
      "Ġtraceback": 6490,
      "itude": 6491,
      "Ġborg": 6492,
      "Ġdue": 6493,
      "tensordict": 6494,
      "hip": 6495,
      "dependency": 6496,
      "achine": 6497,
      "Ġchannels": 6498,
      "ĠFoundation": 6499,
      "Cla": 6500,
      "Ġdeploy": 6501,
      "predict": 6502,
      "dbus": 6503,
      "resourceGroup": 6504,
      "Ġcomplex": 6505,
      "Ġconverted": 6506,
      "Ġscores": 6507,
      "setdefault": 6508,
      "quare": 6509,
      "Ġimportlib": 6510,
      "executor": 6511,
      "Ġpull": 6512,
      "ĠTask": 6513,
      "Ġinstanti": 6514,
      "FLAG": 6515,
      "PES": 6516,
      "ĠMaximum": 6517,
      "ea": 6518,
      "fly": 6519,
      "ä½": 6520,
      "Ġ255": 6521,
      "interfaces": 6522,
      "áŁĴ": 6523,
      "Evalu": 6524,
      "selection": 6525,
      "team": 6526,
      "ĠTypeAlias": 6527,
      "yllable": 6528,
      "ROM": 6529,
      "ĠCur": 6530,
      "FIEL": 6531,
      "Execution": 6532,
      "209": 6533,
      "ones": 6534,
      "packet": 6535,
      "Ġsurface": 6536,
      "gnu": 6537,
      "Ġchecking": 6538,
      "LINE": 6539,
      "asset": 6540,
      "Ġhour": 6541,
      "Ġterminal": 6542,
      "Ġ24": 6543,
      "Ġbetter": 6544,
      "Hook": 6545,
      "Ġcertificate": 6546,
      "ĠSyllable": 6547,
      "MessageTypeDef": 6548,
      "partition": 6549,
      "Socket": 6550,
      "Ġimg": 6551,
      "Ġfill": 6552,
      "ĠBSD": 6553,
      "Ġupdates": 6554,
      "WE": 6555,
      "ATED": 6556,
      "Factory": 6557,
      "chemas": 6558,
      "Ġinitialize": 6559,
      "Sa": 6560,
      "ane": 6561,
      "ĠPri": 6562,
      "started": 6563,
      "ê¦¤": 6564,
      "complex": 6565,
      "Ġdt": 6566,
      "Ġlayout": 6567,
      "ii": 6568,
      "runner": 6569,
      "Ġactiv": 6570,
      "riteria": 6571,
      "CLO": 6572,
      "ium": 6573,
      "cke": 6574,
      "Ġsupp": 6575,
      "Down": 6576,
      "../": 6577,
      "ĠExtract": 6578,
      "}'.": 6579,
      "expand": 6580,
      "Memory": 6581,
      "levant": 6582,
      "workers": 6583,
      "alyz": 6584,
      "Ġtopics": 6585,
      "Ġcounter": 6586,
      "Ġsyntax": 6587,
      "construct": 6588,
      "ideo": 6589,
      "inci": 6590,
      "ĠAct": 6591,
      "NN": 6592,
      "mul": 6593,
      "describe": 6594,
      "tection": 6595,
      "THON": 6596,
      "Tools": 6597,
      "Ġrad": 6598,
      "dispatch": 6599,
      "MPL": 6600,
      "Post": 6601,
      "Ġsim": 6602,
      "Extension": 6603,
      "ĠDef": 6604,
      "ĠSecurity": 6605,
      "\\\"": 6606,
      "¶':": 6607,
      "Ġpix": 6608,
      "Ġretries": 6609,
      "bundle": 6610,
      "ĠLine": 6611,
      "Render": 6612,
      "Ġinstructions": 6613,
      "Ġblob": 6614,
      "Ġterm": 6615,
      "eps": 6616,
      "æĸĩ": 6617,
      "512": 6618,
      "Ġear": 6619,
      "LOAD": 6620,
      "original": 6621,
      "ĠDate": 6622,
      "Ġcx": 6623,
      "Ġput": 6624,
      "ĠBatch": 6625,
      "Ġiterable": 6626,
      "Ġmakes": 6627,
      "Ġpg": 6628,
      "coming": 6629,
      "Unit": 6630,
      "manifest": 6631,
      "ĠNeo": 6632,
      "Ġindicating": 6633,
      "zeroconf": 6634,
      "Cap": 6635,
      "Paginate": 6636,
      "pyproject": 6637,
      "ĠĠĠĠĠĠĠĠĠĠĠĠĠĠĠĠĠĠĠĠĠĠĠĠĠĠ": 6638,
      "ILD": 6639,
      "Ġknow": 6640,
      "cm": 6641,
      "Ġconstraint": 6642,
      "Install": 6643,
      "should": 6644,
      "ĠPDF": 6645,
      "PyVersion": 6646,
      "Empty": 6647,
      "uss": 6648,
      "moves": 6649,
      "ĠConstant": 6650,
      "Ġdocstring": 6651,
      "SUPPORT": 6652,
      "BACK": 6653,
      "bic": 6654,
      "å®": 6655,
      "Ġshown": 6656,
      "additional": 6657,
      "inv": 6658,
      "Reference": 6659,
      "TypeError": 6660,
      ")).": 6661,
      "\"></": 6662,
      "ertificates": 6663,
      "asurement": 6664,
      "\"``": 6665,
      "Mat": 6666,
      "ĠBlock": 6667,
      "Given": 6668,
      "done": 6669,
      "arr": 6670,
      "ĠSH": 6671,
      "Ġstatement": 6672,
      "ublished": 6673,
      "PaginateTypeDef": 6674,
      "BASE": 6675,
      "ĠSPD": 6676,
      "LETE": 6677,
      "Ġlight": 6678,
      "graphrag": 6679,
      "explicit": 6680,
      "globals": 6681,
      "rodu": 6682,
      "Ġrepe": 6683,
      "Ġscikit": 6684,
      "_:": 6685,
      "oss": 6686,
      "Ġplugins": 6687,
      "aarch": 6688,
      "Ġtran": 6689,
      "Ġrelation": 6690,
      "limiter": 6691,
      "ĠUNSET": 6692,
      "ĠĠĠĠĠĠĠĠĠĠĠĠĠĠĠĠĠĠĠĠĠĠĠĠĠĠĠĠ": 6693,
      "Loader": 6694,
      "Ġextensions": 6695,
      "anit": 6696,
      "Ġpad": 6697,
      "Ġcontact": 6698,
      "Ġ</": 6699,
      "Ġbutton": 6700,
      "reater": 6701,
      "ĠIO": 6702,
      "ĠSPDX": 6703,
      "your": 6704,
      "pyi": 6705,
      "-----------": 6706,
      "ĠFIT": 6707,
      "Select": 6708,
      "Signal": 6709,
      "Ġdriver": 6710,
      "inite": 6711,
      "callbacks": 6712,
      "âĸģ": 6713,
      "><": 6714,
      "DIS": 6715,
      "alo": 6716,
      "health": 6717,
      "entries": 6718,
      "__`": 6719,
      "Ġstellar": 6720,
      "Ġtesting": 6721,
      "ĠMacro": 6722,
      "Ġaudience": 6723,
      "xa": 6724,
      "500": 6725,
      "Ġcolors": 6726,
      "Ġidentify": 6727,
      "mbdalib": 6728,
      "alance": 6729,
      "conn": 6730,
      "perf": 6731,
      "Compute": 6732,
      "hydration": 6733,
      "fold": 6734,
      "Ġdetermine": 6735,
      "COM": 6736,
      "When": 6737,
      "Ġpredict": 6738,
      "Ġlinks": 6739,
      "Json": 6740,
      "ond": 6741,
      "Ġaround": 6742,
      "Ġreject": 6743,
      "Ġimprove": 6744,
      "}.{": 6745,
      "Router": 6746,
      "flat": 6747,
      "ĠPol": 6748,
      "Ġfiltered": 6749,
      "Ġhighlight": 6750,
      "]+": 6751,
      "ĠTarget": 6752,
      "espace": 6753,
      "utc": 6754,
      "Ġmig": 6755,
      "æķ°": 6756,
      "ZL": 6757,
      "Ģ':": 6758,
      "Ġpadding": 6759,
      "lig": 6760,
      "------": 6761,
      "ULAR": 6762,
      "hints": 6763,
      "Ġgeneric": 6764,
      "Out": 6765,
      "Ġjs": 6766,
      "wards": 6767,
      "ĠOpenAI": 6768,
      "generated": 6769,
      "âĸĪâĸĪ": 6770,
      "sep": 6771,
      "Ġuuid": 6772,
      "alan": 6773,
      "itespace": 6774,
      "Ġdev": 6775,
      "indexes": 6776,
      "_.": 6777,
      "ially": 6778,
      "ĠOperation": 6779,
      "Ġseen": 6780,
      "FAI": 6781,
      "ev": 6782,
      "here": 6783,
      "__\":": 6784,
      "360": 6785,
      "Vis": 6786,
      "ĠFree": 6787,
      "ĠĠĠĠĠĠĠĠĠĠĠĠĠĠĠĠĠĠĠĠĠĠĠĠĠĠĠĠĠĠ": 6788,
      "ĠDataFrame": 6789,
      "ĠRequestContext": 6790,
      "worker": 6791,
      "Scope": 6792,
      "decoder": 6793,
      "percent": 6794,
      "Ġ`{": 6795,
      "Expected": 6796,
      "temperature": 6797,
      "NESS": 6798,
      "Ġhard": 6799,
      "ĠEnd": 6800,
      "Ġless": 6801,
      "ĠChat": 6802,
      "lexbor": 6803,
      "Script": 6804,
      "fol": 6805,
      "lon": 6806,
      "mitive": 6807,
      "/`": 6808,
      "rich": 6809,
      "ultiple": 6810,
      "FAILED": 6811,
      "scene": 6812,
      "Ġbuiltin": 6813,
      "palette": 6814,
      "Ġpci": 6815,
      "apse": 6816,
      "READ": 6817,
      "Certificate": 6818,
      "VENT": 6819,
      "rain": 6820,
      "Ġfixes": 6821,
      "mega": 6822,
      "Ġslice": 6823,
      "Ġinline": 6824,
      "irflow": 6825,
      "Ġmatplotlib": 6826,
      "ategories": 6827,
      "Argument": 6828,
      "AME": 6829,
      "ĠSchema": 6830,
      "Ġseq": 6831,
      "à¤¤": 6832,
      "è®": 6833,
      "Ġscheme": 6834,
      "ocab": 6835,
      "ĠMethod": 6836,
      "Ġcapture": 6837,
      "STATUS": 6838,
      "[![": 6839,
      "timer": 6840,
      "Ġinherit": 6841,
      "Ġargparse": 6842,
      "markdown": 6843,
      "CUR": 6844,
      "erred": 6845,
      "ĠRout": 6846,
      "month": 6847,
      "serialization": 6848,
      "Ġ2026": 6849,
      "bounds": 6850,
      "Ġtmp": 6851,
      "anded": 6852,
      "Ġpin": 6853,
      "ĠAS": 6854,
      "Ġverb": 6855,
      "coords": 6856,
      "Ġunknown": 6857,
      "Ġnecessary": 6858,
      "Ġcallbacks": 6859,
      "distribution": 6860,
      "inline": 6861,
      "ĠUsage": 6862,
      "Database": 6863,
      "generic": 6864,
      "rou": 6865,
      "Ġintegration": 6866,
      "views": 6867,
      "POSE": 6868,
      "brid": 6869,
      "Ġrel": 6870,
      "ĠCH": 6871,
      "Url": 6872,
      "WO": 6873,
      "mx": 6874,
      "edback": 6875,
      "connector": 6876,
      "deep": 6877,
      "entities": 6878,
      "idual": 6879,
      "ITE": 6880,
      "2023": 6881,
      "Ġproblem": 6882,
      "Ġsuggest": 6883,
      "arent": 6884,
      "intrust": 6885,
      "Ġpermission": 6886,
      "ĠSpecifi": 6887,
      "Ġamount": 6888,
      "ĠPART": 6889,
      "found": 6890,
      "ĠGe": 6891,
      "Ġpercent": 6892,
      "sumer": 6893,
      "Structure": 6894,
      "Ġexactly": 6895,
      "efficient": 6896,
      "aves": 6897,
      "Ġimplicit": 6898,
      "Byte": 6899,
      "Ġcells": 6900,
      "lick": 6901,
      "ĠAC": 6902,
      "ĠPass": 6903,
      "Ġscalar": 6904,
      "Ġframes": 6905,
      "Find": 6906,
      "Ġnothing": 6907,
      "Ġevaluation": 6908,
      "cx": 6909,
      "Ġnv": 6910,
      "Ġchoice": 6911,
      "ĠThere": 6912,
      "Iterable": 6913,
      "ko": 6914,
      "Ġ:]": 6915,
      "Ġnotebook": 6916,
      "ĠMem": 6917,
      "ensearch": 6918,
      "ValueError": 6919,
      "ĠNextToken": 6920,
      "equal": 6921,
      "Ġ.._": 6922,
      "123": 6923,
      "Ġvirtual": 6924,
      "transfer": 6925,
      "TF": 6926,
      "Waiter": 6927,
      "urable": 6928,
      "ĠPY": 6929,
      "ĠDjango": 6930,
      "Ġinterpre": 6931,
      "ĠState": 6932,
      ")'": 6933,
      "onic": 6934,
      "states": 6935,
      "()}": 6936,
      "Ġcontract": 6937,
      "Ġdisk": 6938,
      "Chunk": 6939,
      "sampling": 6940,
      "CONNECT": 6941,
      "gpu": 6942,
      "produ": 6943,
      "Ġlow": 6944,
      "Ġdecoder": 6945,
      "coordin": 6946,
      "Ġwarn": 6947,
      "Ġresolution": 6948,
      "codec": 6949,
      "kubernetes": 6950,
      "hostname": 6951,
      "frozen": 6952,
      "Ġprev": 6953,
      "ulk": 6954,
      "Ġestimator": 6955,
      "yment": 6956,
      "Ġcir": 6957,
      "[:-": 6958,
      "transpose": 6959,
      "âĢįðŁĳ¨ðŁı": 6960,
      "Git": 6961,
      "Ġconn": 6962,
      "Ġ`-": 6963,
      "Ġhooks": 6964,
      "ĠDep": 6965,
      "ardless": 6966,
      "ulnerability": 6967,
      "tic": 6968,
      "Ġspecification": 6969,
      "Ġstarted": 6970,
      "Qual": 6971,
      "redirect": 6972,
      "roid": 6973,
      "Ġinject": 6974,
      "Ġwar": 6975,
      "contents": 6976,
      "Thread": 6977,
      "ulumi": 6978,
      "Release": 6979,
      "Ġ`_": 6980,
      "TAG": 6981,
      "ek": 6982,
      "Ġday": 6983,
      "lengths": 6984,
      "bre": 6985,
      "Example": 6986,
      "clar": 6987,
      "Ġvisit": 6988,
      "Ġwhole": 6989,
      "managed": 6990,
      "ConfigurationTypeDef": 6991,
      "Ġvery": 6992,
      "Lock": 6993,
      "contact": 6994,
      "Ġassets": 6995,
      "MAKE": 6996,
      "orizon": 6997,
      "sf": 6998,
      "otype": 6999,
      "Ġmem": 7000,
      "universe": 7001,
      "Ġrendered": 7002,
      "ĠDescription": 7003,
      "Monitor": 7004,
      "ĠAB": 7005,
      "ĠGenerator": 7006,
      "ĠOtherwise": 7007,
      ")\\": 7008,
      "Note": 7009,
      "Ġdevelopment": 7010,
      "Ġconversion": 7011,
      "Can": 7012,
      "mq": 7013,
      "des": 7014,
      "IST": 7015,
      "gi": 7016,
      "slice": 7017,
      "ĠCI": 7018,
      "caten": 7019,
      "ĠAllow": 7020,
      "Ġflatbuffers": 7021,
      "Ġ\"[": 7022,
      "Encryption": 7023,
      "Ġconnections": 7024,
      "Ġcompleted": 7025,
      "Ġbilling": 7026,
      "ĠAlso": 7027,
      "tries": 7028,
      "ĠFormat": 7029,
      "cod": 7030,
      "rift": 7031,
      "ĠCR": 7032,
      "ðŁı»": 7033,
      "star": 7034,
      "Ġdiff": 7035,
      "ffic": 7036,
      "ðŁı½": 7037,
      "Ġ2025": 7038,
      "peg": 7039,
      "Ġnd": 7040,
      "existing": 7041,
      "Ġ()": 7042,
      "ĠĠĠĠĠĠĠĠĠĠĠĠĠĠĠĠĠĠĠĠĠĠĠĠĠĠĠĠĠĠĠĠĠĠĠĠĠĠĠĠĠĠĠ": 7043,
      "ARCH": 7044,
      "shell": 7045,
      "Ġfrozenset": 7046,
      "}')": 7047,
      "ĠAudience": 7048,
      "()))": 7049,
      ":%": 7050,
      "Ġes": 7051,
      "oted": 7052,
      "ĠAccess": 7053,
      "definition": 7054,
      "plain": 7055,
      ".')": 7056,
      "double": 7057,
      "mesh": 7058,
      "velope": 7059,
      "Only": 7060,
      "Flow": 7061,
      "tls": 7062,
      "arse": 7063,
      "Ġabi": 7064,
      "Ġauthentic": 7065,
      "################################################################": 7066,
      "Ġ`\"": 7067,
      "agonal": 7068,
      "Constraint": 7069,
      "Ġ...]": 7070,
      "elem": 7071,
      "VALUE": 7072,
      "Pass": 7073,
      "QTT": 7074,
      "uf": 7075,
      "ĠTH": 7076,
      "Ġstatistics": 7077,
      "owel": 7078,
      "ORE": 7079,
      "ĠProcess": 7080,
      "Microsoft": 7081,
      "Ġ\"#": 7082,
      "Ġreply": 7083,
      "ĠStep": 7084,
      "topics": 7085,
      "Ġreceive": 7086,
      "SERVER": 7087,
      "Ġhandlers": 7088,
      ".{": 7089,
      "VEL": 7090,
      "dark": 7091,
      "å¤": 7092,
      "rase": 7093,
      "ograph": 7094,
      "Ġdefinitions": 7095,
      "ĠWith": 7096,
      "checks": 7097,
      "Admin": 7098,
      "-------------": 7099,
      "ratio": 7100,
      "ĠĠĠĠĠĠĠĠĠĠĠĠĠĠĠĠĠĠĠĠĠĠĠĠĠĠĠĠĠĠĠĠĠĠĠĠĠĠĠ": 7101,
      "Ġalert": 7102,
      "uck": 7103,
      "Ġprocessed": 7104,
      "Dest": 7105,
      "USER": 7106,
      "monitoring": 7107,
      "BY": 7108,
      "Eigen": 7109,
      "Ġdeleted": 7110,
      "rape": 7111,
      "constraints": 7112,
      "endor": 7113,
      "Ġequivalent": 7114,
      "deploy": 7115,
      "GEN": 7116,
      "My": 7117,
      "Override": 7118,
      "raft": 7119,
      "Remove": 7120,
      "raper": 7121,
      "ĠSE": 7122,
      "})\"": 7123,
      "Length": 7124,
      "wiki": 7125,
      "Ġbad": 7126,
      "edit": 7127,
      "pyrogram": 7128,
      "too": 7129,
      "omer": 7130,
      "Ġvideo": 7131,
      "Ġinvo": 7132,
      "Ġdeep": 7133,
      "Ġcanonical": 7134,
      "ĠContainer": 7135,
      "ClassVar": 7136,
      "Ġexecutable": 7137,
      "Ġspecifying": 7138,
      "264": 7139,
      "PON": 7140,
      "Ġ'--": 7141,
      "ĠPUR": 7142,
      "ĠLink": 7143,
      "ĠCONTRIBUT": 7144,
      "Scan": 7145,
      "hance": 7146,
      "Ġwindows": 7147,
      "Ġansys": 7148,
      "Ġhold": 7149,
      "Ġplain": 7150,
      "criminator": 7151,
      "rreps": 7152,
      "Ġvert": 7153,
      "()]": 7154,
      "Ġ13": 7155,
      "appengine": 7156,
      "ĠConvert": 7157,
      "dirs": 7158,
      "Ġassign": 7159,
      "Ġlogic": 7160,
      "Workspace": 7161,
      "Fixed": 7162,
      "Ġquestion": 7163,
      "outine": 7164,
      "Ġ...,": 7165,
      "Register": 7166,
      "oose": 7167,
      "CHANT": 7168,
      "BER": 7169,
      "oauth": 7170,
      "Ġtx": 7171,
      "Ġhelper": 7172,
      "Ġfully": 7173,
      "iming": 7174,
      "NE": 7175,
      "eration": 7176,
      "Ġedge": 7177,
      "Ġdescriptor": 7178,
      "ERCHANT": 7179,
      "ERCHANTABILITY": 7180,
      "aN": 7181,
      "Ġke": 7182,
      "REG": 7183,
      "ICULAR": 7184,
      "ðŁı¼": 7185,
      "Ġmonth": 7186,
      "Executor": 7187,
      "PREFIX": 7188,
      "ĠPARTICULAR": 7189,
      "Ġincorrect": 7190,
      "coap": 7191,
      "ĠLLC": 7192,
      "Ġdirection": 7193,
      "prev": 7194,
      "Ġpyvista": 7195,
      "material": 7196,
      "Ġdetected": 7197,
      "posed": 7198,
      "rypt": 7199,
      "Ġpyproject": 7200,
      "cred": 7201,
      "Ġdelay": 7202,
      "creen": 7203,
      "ðŁı¾": 7204,
      "ĠPURPOSE": 7205,
      "LA": 7206,
      "urther": 7207,
      "Converter": 7208,
      "ðŁı¿": 7209,
      "LOC": 7210,
      "Workload": 7211,
      "][\"": 7212,
      "Ġpending": 7213,
      "Window": 7214,
      "ĠMust": 7215,
      "Ġ'__": 7216,
      "urllib": 7217,
      "Self": 7218,
      "scalar": 7219,
      "Ġparticular": 7220,
      "Binary": 7221,
      "Ġdecor": 7222,
      "fid": 7223,
      "REQUEST": 7224,
      "Ġæ": 7225,
      "________________________________": 7226,
      "Ġfigure": 7227,
      "separated": 7228,
      "Ġimmediate": 7229,
      "fmt": 7230,
      "Ġstructured": 7231,
      "Ġrisk": 7232,
      "Ġbenchmark": 7233,
      "Ġsubscription": 7234,
      "Ġ50": 7235,
      "sktop": 7236,
      "Ġactions": 7237,
      "unused": 7238,
      "most": 7239,
      "ĠAuthor": 7240,
      "ĠOSError": 7241,
      "chanis": 7242,
      "Ġcatalog": 7243,
      "Convert": 7244,
      "emit": 7245,
      "Ġ-->": 7246,
      "WORK": 7247,
      "machine": 7248,
      "Timestamp": 7249,
      "sim": 7250,
      "constant": 7251,
      "basic": 7252,
      "SO": 7253,
      "Ġretain": 7254,
      "ĠFrame": 7255,
      "ENCE": 7256,
      "Ġoutside": 7257,
      "Ġcomma": 7258,
      "completed": 7259,
      "threads": 7260,
      "decimal": 7261,
      "compare": 7262,
      "Ġgenerator": 7263,
      "Ġtargets": 7264,
      "IVE": 7265,
      "large": 7266,
      "METRIC": 7267,
      "=['": 7268,
      "Ġti": 7269,
      "ĠDB": 7270,
      "paramtype": 7271,
      "ĠFITNESS": 7272,
      "inja": 7273,
      "Display": 7274,
      "Ke": 7275,
      "agers": 7276,
      "ports": 7277,
      "800": 7278,
      "Ġsources": 7279,
      "chestration": 7280,
      "Ġreading": 7281,
      "assignment": 7282,
      "Clo": 7283,
      "Ġchoices": 7284,
      "pix": 7285,
      "Ġ&&": 7286,
      "WARE": 7287,
      "Local": 7288,
      "family": 7289,
      "Ġformatting": 7290,
      "Algorithm": 7291,
      "Edit": 7292,
      "ĠTag": 7293,
      "Ġcomparison": 7294,
      "compress": 7295,
      "Ġfactory": 7296,
      "600": 7297,
      "Fetch": 7298,
      "dom": 7299,
      "Ġmanagement": 7300,
      "Registry": 7301,
      "ä¼": 7302,
      "Ġdid": 7303,
      "ĠProto": 7304,
      "Ġskill": 7305,
      "assistant": 7306,
      "character": 7307,
      "Ġstatsmodels": 7308,
      "Ġqui": 7309,
      "Ġtheme": 7310,
      "ĠTopic": 7311,
      "orizont": 7312,
      "Freeze": 7313,
      "Reason": 7314,
      "Ġstrategy": 7315,
      "argv": 7316,
      "small": 7317,
      "Ġtruss": 7318,
      "Ġconstraints": 7319,
      "Ġrespect": 7320,
      "Ġenviron": 7321,
      "LEVEL": 7322,
      "Ġmanually": 7323,
      "Ġattrs": 7324,
      "Ġtimer": 7325,
      "AGENT": 7326,
      "Ġadmin": 7327,
      "ĠInitialize": 7328,
      "bbox": 7329,
      "à¨": 7330,
      "Ġ=================================": 7331,
      "prob": 7332,
      "Ġexpressions": 7333,
      "epoch": 7334,
      "ture": 7335,
      "Ġrepr": 7336,
      "ARG": 7337,
      "Ġtransfer": 7338,
      "Ġcorrectly": 7339,
      "LIGHT": 7340,
      "under": 7341,
      "Ġwords": 7342,
      "etter": 7343,
      "redu": 7344,
      "Ġ``'": 7345,
      "ecycle": 7346,
      "validator": 7347,
      "Ġdispatch": 7348,
      "related": 7349,
      "dec": 7350,
      "Ġversionadded": 7351,
      "gnore": 7352,
      "Strategy": 7353,
      "cording": 7354,
      "Ġscene": 7355,
      "Ġrecent": 7356,
      "Ġpv": 7357,
      "Please": 7358,
      "cn": 7359,
      "Ġpyright": 7360,
      "Initialize": 7361,
      "NUM": 7362,
      "Ġcertain": 7363,
      "vec": 7364,
      "connections": 7365,
      "Ġserializer": 7366,
      "Ġdirectories": 7367,
      "Ġevaluate": 7368,
      "PS": 7369,
      "Ġì": 7370,
      "Ġfew": 7371,
      "openai": 7372,
      "ĠMERCHANTABILITY": 7373,
      "pher": 7374,
      "Ġcy": 7375,
      "otes": 7376,
      "Ġattach": 7377,
      "2024": 7378,
      "modified": 7379,
      "ĠOverride": 7380,
      "Ġxonsh": 7381,
      "composition": 7382,
      "ndim": 7383,
      "Ġpr": 7384,
      "precationWarning": 7385,
      "Ph": 7386,
      "best": 7387,
      "gers": 7388,
      "ĠResult": 7389,
      "...)": 7390,
      "Ġquota": 7391,
      "ĠMetadata": 7392,
      "Ġfp": 7393,
      "Ġsetattr": 7394,
      "veloper": 7395,
      "Directory": 7396,
      "Folder": 7397,
      "OF": 7398,
      "ulls": 7399,
      "Ġpyasn": 7400,
      "argin": 7401,
      "imal": 7402,
      "Ġentities": 7403,
      "MT": 7404,
      "veral": 7405,
      "quent": 7406,
      "perating": 7407,
      "Ġsens": 7408,
      "Ġaltern": 7409,
      "Ġtokenizer": 7410,
      "Ġflytekit": 7411,
      "Ġsur": 7412,
      "Ġconstant": 7413,
      "ĠLIC": 7414,
      "agate": 7415,
      "MCP": 7416,
      "xs": 7417,
      "Ġstderr": 7418,
      "Decode": 7419,
      "subject": 7420,
      "docker": 7421,
      "ĠLinux": 7422,
      "PROJECT": 7423,
      "contin": 7424,
      "visit": 7425,
      "TYPES": 7426,
      "Ġcert": 7427,
      "Ġupgrade": 7428,
      "Secret": 7429,
      "padding": 7430,
      "rd": 7431,
      "Ġcompression": 7432,
      "Ġsigned": 7433,
      "Email": 7434,
      "=\"{": 7435,
      "Definition": 7436,
      "ĠFast": 7437,
      "ABC": 7438,
      "hand": 7439,
      "well": 7440,
      "Ġgu": 7441,
      "Ġgate": 7442,
      "lists": 7443,
      "Ġstructures": 7444,
      "Ġaccepts": 7445,
      "ongs": 7446,
      "atched": 7447,
      "__(*": 7448,
      "Ġpositive": 7449,
      "Ġconv": 7450,
      "Ġdelta": 7451,
      "'},": 7452,
      "Ġpublished": 7453,
      "Ġlit": 7454,
      "extras": 7455,
      "Ġvectors": 7456,
      "ucto": 7457,
      "tended": 7458,
      "Ġkeywords": 7459,
      "plt": 7460,
      "warnings": 7461,
      "Ġbasic": 7462,
      "__:": 7463,
      "Ġmaintain": 7464,
      "targets": 7465,
      "Linked": 7466,
      "Connector": 7467,
      "WITH": 7468,
      "wt": 7469,
      "spath": 7470,
      "002": 7471,
      "Ġ{{": 7472,
      "ĠFloat": 7473,
      "lications": 7474,
      "ĠNOTE": 7475,
      "Ġcenter": 7476,
      "Ġmatched": 7477,
      "Ġzone": 7478,
      "Ġsending": 7479,
      "LINK": 7480,
      "UCT": 7481,
      "resolver": 7482,
      "Ġreader": 7483,
      "area": 7484,
      "ĠChannel": 7485,
      "super": 7486,
      "Av": 7487,
      "History": 7488,
      "billing": 7489,
      "microsoft": 7490,
      "getitem": 7491,
      "lling": 7492,
      "ociation": 7493,
      "installation": 7494,
      "Ġcleanup": 7495,
      "COUNT": 7496,
      "break": 7497,
      "Ġglobus": 7498,
      "Ġones": 7499,
      "Ġ500": 7500,
      "geometry": 7501,
      "edia": 7502,
      "unded": 7503,
      "lash": 7504,
      "Ġconstruction": 7505,
      "Ġ\\\\": 7506,
      "Ġextraction": 7507,
      "Null": 7508,
      "ony": 7509,
      "Ġanswer": 7510,
      "variant": 7511,
      "contains": 7512,
      "SUPPORTED": 7513,
      ",<": 7514,
      "Ġsilent": 7515,
      "ĠJob": 7516,
      "scipp": 7517,
      "amera": 7518,
      "1024": 7519,
      "CMAKE": 7520,
      "ĠSandbox": 7521,
      "tech": 7522,
      "ĠVowel": 7523,
      "ached": 7524,
      "Ġmultip": 7525,
      "Ġiterator": 7526,
      "Future": 7527,
      "bl": 7528,
      "Ġloading": 7529,
      "ĠLibrary": 7530,
      "bt": 7531,
      "effect": 7532,
      "Ġpositional": 7533,
      "Fire": 7534,
      "glob": 7535,
      "amo": 7536,
      "ĠPage": 7537,
      "collect": 7538,
      "legacy": 7539,
      "Ġreduce": 7540,
      "standard": 7541,
      "ĠISO": 7542,
      "ĠLICENSE": 7543,
      "pytorch": 7544,
      "Ġconversation": 7545,
      "(\"-": 7546,
      "RECT": 7547,
      "alyze": 7548,
      "Policies": 7549,
      "Ġextracted": 7550,
      "Ġcoverage": 7551,
      "Ter": 7552,
      "Rece": 7553,
      "ĠFind": 7554,
      "]\",": 7555,
      "Ġeps": 7556,
      "Ġlive": 7557,
      "ighbor": 7558,
      "les": 7559,
      "ĠSo": 7560,
      "Copyright": 7561,
      "vation": 7562,
      "Ġthree": 7563,
      "tached": 7564,
      "Ġyear": 7565,
      "readable": 7566,
      "Ġfunctionality": 7567,
      "Ġteam": 7568,
      "dropout": 7569,
      "Ġrecommended": 7570,
      "ĠSc": 7571,
      "executable": 7572,
      "çĶ¨": 7573,
      "dh": 7574,
      "orph": 7575,
      "adline": 7576,
      "Ġ'ðŁ¤": 7577,
      "KET": 7578,
      "Ġrotation": 7579,
      "xies": 7580,
      "Ġpush": 7581,
      "Ġdot": 7582,
      "Ġ``(": 7583,
      "Ġcodes": 7584,
      "dirname": 7585,
      "selector": 7586,
      "Ġtemperature": 7587,
      "ĠValidate": 7588,
      "BE": 7589,
      "RP": 7590,
      "ĭ':": 7591,
      "Ġpie": 7592,
      "Gateway": 7593,
      "Num": 7594,
      "vs": 7595,
      "orial": 7596,
      "disabled": 7597,
      "dynam": 7598,
      "icast": 7599,
      "ĠSimple": 7600,
      "marks": 7601,
      "Ġ(`#": 7602,
      "war": 7603,
      "authentication": 7604,
      "polation": 7605,
      "ĠSOFT": 7606,
      "300": 7607,
      "gre": 7608,
      "watch": 7609,
      "ĠSphinx": 7610,
      "ĠMap": 7611,
      "âĸģâĸģ": 7612,
      "bi": 7613,
      "perm": 7614,
      "ASK": 7615,
      "Ġhostname": 7616,
      "Single": 7617,
      "INST": 7618,
      "clip": 7619,
      "Ġendpoints": 7620,
      "Ġmime": 7621,
      "ĠAction": 7622,
      "commun": 7623,
      ">`_).": 7624,
      "Ġmedia": 7625,
      "Ġiteration": 7626,
      "RESPON": 7627,
      "LES": 7628,
      "vm": 7629,
      "always": 7630,
      "Ġdescribe": 7631,
      "Ġlazy": 7632,
      "skimage": 7633,
      "plus": 7634,
      "decorator": 7635,
      "Ġbundle": 7636,
      "Ġnotifications": 7637,
      "\"][": 7638,
      "Ġrouting": 7639,
      "Ġprior": 7640,
      "AML": 7641,
      "stit": 7642,
      "Ġredirect": 7643,
      "Ġol": 7644,
      "Ġifdef": 7645,
      "ĠContribut": 7646,
      "days": 7647,
      "presents": 7648,
      "[[~.": 7649,
      "ĠCompute": 7650,
      "Host": 7651,
      "Ġraises": 7652,
      "ĠJson": 7653,
      "Layer": 7654,
      "pas": 7655,
      "Ġtd": 7656,
      "Ġaws": 7657,
      "utorial": 7658,
      "riend": 7659,
      "ĠDataset": 7660,
      "Alert": 7661,
      "TC": 7662,
      "gmail": 7663,
      "gether": 7664,
      "Ġmove": 7665,
      "IA": 7666,
      "Ġextend": 7667,
      "ummy": 7668,
      "'''": 7669,
      "jit": 7670,
      "Ġ\"$": 7671,
      "Ġadds": 7672,
      "Ġtemplates": 7673,
      "à¤¯": 7674,
      "-%": 7675,
      "ni": 7676,
      "power": 7677,
      "Setup": 7678,
      "ClientError": 7679,
      "2022": 7680,
      "fallback": 7681,
      "xe": 7682,
      "ĠLI": 7683,
      "Ġcomments": 7684,
      "Ġdiscover": 7685,
      "Ġexecutor": 7686,
      "Ġwebhook": 7687,
      "Ġcoordinate": 7688,
      "orizontal": 7689,
      "Global": 7690,
      "orq": 7691,
      "Ġinv": 7692,
      "...\")": 7693,
      "pn": 7694,
      "ŀ¡": 7695,
      "Ġexperiment": 7696,
      "osite": 7697,
      "alyzers": 7698,
      "Stop": 7699,
      "draw": 7700,
      "differ": 7701,
      "NAM": 7702,
      "lueprint": 7703,
      ".'": 7704,
      "slo": 7705,
      "ĠSpyder": 7706,
      "statement": 7707,
      "Ġforecast": 7708,
      "Ġpretty": 7709,
      "Ġspeed": 7710,
      "THER": 7711,
      "RI": 7712,
      "lace": 7713,
      "subscriptions": 7714,
      "nippet": 7715,
      "Ms": 7716,
      "px": 7717,
      "irreps": 7718,
      "Backup": 7719,
      "readme": 7720,
      "ĠDevice": 7721,
      "Ġbuilding": 7722,
      "AIL": 7723,
      "Google": 7724,
      "ĠURI": 7725,
      "Ġdifference": 7726,
      "ĠThread": 7727,
      "estimator": 7728,
      "borg": 7729,
      "Ġinf": 7730,
      "proc": 7731,
      "ĠOAuth": 7732,
      "prepare": 7733,
      "plots": 7734,
      "cuit": 7735,
      "pyvista": 7736,
      "Ġexcluded": 7737,
      "Ġ``--": 7738,
      "âĢįâŀ¡": 7739,
      "Formatter": 7740,
      "flush": 7741,
      "âĢįâŀ¡ï¸ı':": 7742,
      "Ġdays": 7743,
      "ication": 7744,
      "Ġfactors": 7745,
      "BUILD": 7746,
      "rontend": 7747,
      "incipal": 7748,
      "Ġbro": 7749,
      "Ġ'<": 7750,
      "Ġep": 7751,
      "ĠHead": 7752,
      "rb": 7753,
      "erank": 7754,
      "tailed": 7755,
      "ĠER": 7756,
      "oba": 7757,
      "Ġapplies": 7758,
      "Pers": 7759,
      "push": 7760,
      "rigin": 7761,
      "Ġprops": 7762,
      "Exists": 7763,
      "OPEN": 7764,
      "ĠCOVER": 7765,
      "SUB": 7766,
      "background": 7767,
      "sqrt": 7768,
      "IME": 7769,
      "ball": 7770,
      "alette": 7771,
      "Ġbeta": 7772,
      "Ġrpc": 7773,
      "button": 7774,
      "Ġabc": 7775,
      "ied": 7776,
      "trust": 7777,
      "mplements": 7778,
      "ĠMutable": 7779,
      "ĠComponent": 7780,
      "Transaction": 7781,
      "Span": 7782,
      "Trigger": 7783,
      "á¨": 7784,
      "livery": 7785,
      "Ġconsu": 7786,
      "Ġsubset": 7787,
      "primary": 7788,
      "Processor": 7789,
      "Pointer": 7790,
      "pin": 7791,
      "Ġmachine": 7792,
      "Ġshim": 7793,
      "lify": 7794,
      "sae": 7795,
      "Decoder": 7796,
      "Ġwriter": 7797,
      "Am": 7798,
      "Ġ\"(": 7799,
      "Ġ%(": 7800,
      "sock": 7801,
      "Ġinterceptor": 7802,
      "Ġclone": 7803,
      "UG": 7804,
      "VM": 7805,
      "entelemetry": 7806,
      "Ġmis": 7807,
      "Could": 7808,
      "Package": 7809,
      "segments": 7810,
      "(\"%": 7811,
      "AGES": 7812,
      "Ġinstallation": 7813,
      "Generator": 7814,
      "ĠPoint": 7815,
      "()):": 7816,
      "constraint": 7817,
      "figure": 7818,
      "Ġalt": 7819,
      "ĠNotification": 7820,
      "iterator": 7821,
      "objective": 7822,
      "-{": 7823,
      "GO": 7824,
      "Ġfinder": 7825,
      "ĠIs": 7826,
      "Quant": 7827,
      "Ġpersist": 7828,
      "WORD": 7829,
      "sym": 7830,
      "invocation": 7831,
      "orn": 7832,
      "idi": 7833,
      "Ġresulting": 7834,
      "FS": 7835,
      "implicit": 7836,
      "dp": 7837,
      "integration": 7838,
      "ering": 7839,
      "ĠUSE": 7840,
      "Ġtrailing": 7841,
      "forecast": 7842,
      "ailure": 7843,
      "ĠClassVar": 7844,
      "implementation": 7845,
      "Ġreturning": 7846,
      "backup": 7847,
      "training": 7848,
      "ĠKnown": 7849,
      "ropic": 7850,
      "ccord": 7851,
      "setattr": 7852,
      "Ġprepare": 7853,
      "Ġinitialization": 7854,
      "Ġretrie": 7855,
      "Ġrelationship": 7856,
      "ccordoba": 7857,
      "micro": 7858,
      "allen": 7859,
      "timezone": 7860,
      "Ġpyrogram": 7861,
      "Extra": 7862,
      "Ġconfigure": 7863,
      "ĠKe": 7864,
      "Ġprojects": 7865,
      "airflow": 7866,
      "Machine": 7867,
      "repe": 7868,
      "enc": 7869,
      "waiter": 7870,
      "Ġadding": 7871,
      "ĠâĶĤ": 7872,
      "Ġrelevant": 7873,
      "Ġpinder": 7874,
      "ĠParse": 7875,
      "choices": 7876,
      "ĠLoad": 7877,
      "Ġflattened": 7878,
      "MD": 7879,
      "Ver": 7880,
      "Ġlogin": 7881,
      "ĠInstance": 7882,
      "login": 7883,
      "flask": 7884,
      "Ġagents": 7885,
      "NOWN": 7886,
      "Ġbot": 7887,
      "Ġdr": 7888,
      "ATCH": 7889,
      "102": 7890,
      "ND": 7891,
      "Op": 7892,
      "Ġdraw": 7893,
      "Ġ',": 7894,
      "aper": 7895,
      "matches": 7896,
      "ĠKubernetes": 7897,
      "ĠXML": 7898,
      "wn": 7899,
      "ĠSSL": 7900,
      "Ġeas": 7901,
      "Ġprotected": 7902,
      "Ġglob": 7903,
      "DataType": 7904,
      "riendly": 7905,
      "Dimension": 7906,
      "UF": 7907,
      "jo": 7908,
      "Ġunpack": 7909,
      "Ġabs": 7910,
      "ĠDatabase": 7911,
      "']:": 7912,
      "await": 7913,
      "uc": 7914,
      "Ġinference": 7915,
      "converter": 7916,
      "Serializer": 7917,
      "#!": 7918,
      "Ġreview": 7919,
      "strategy": 7920,
      "Ġalignment": 7921,
      "Ġanything": 7922,
      "serialized": 7923,
      "keywords": 7924,
      "Ġreplacement": 7925,
      "literals": 7926,
      "Cancel": 7927,
      "WR": 7928,
      "boolean": 7929,
      "ection": 7930,
      "quee": 7931,
      "reducto": 7932,
      "Ġ\"\\\\": 7933,
      "xf": 7934,
      "LECT": 7935,
      "vided": 7936,
      "Ġvars": 7937,
      "Buffer": 7938,
      "Ġquote": 7939,
      "ĠNeptune": 7940,
      "ĠTensorDict": 7941,
      "ĠMod": 7942,
      "Ġunless": 7943,
      "ĠGraph": 7944,
      "ĠDomain": 7945,
      "opts": 7946,
      "Ge": 7947,
      "router": 7948,
      "Ġdouble": 7949,
      "without": 7950,
      "rouped": 7951,
      "Ġndarray": 7952,
      "Ġwildcard": 7953,
      "miner": 7954,
      "multip": 7955,
      "aliases": 7956,
      "deprecated": 7957,
      "utr": 7958,
      "ĠWARRANTY": 7959,
      "Ġswitch": 7960,
      "Send": 7961,
      "anel": 7962,
      "Ġnan": 7963,
      "ĠEns": 7964,
      "Audio": 7965,
      "DARK": 7966,
      "]])": 7967,
      "mut": 7968,
      "UTE": 7969,
      "EDT": 7970,
      "Ġtransformation": 7971,
      "Ġtuples": 7972,
      "edDict": 7973,
      "ably": 7974,
      "legate": 7975,
      "CD": 7976,
      "Lazy": 7977,
      "Public": 7978,
      "alg": 7979,
      "Remote": 7980,
      "arwin": 7981,
      "vals": 7982,
      "izations": 7983,
      "ĠOptions": 7984,
      "OB": 7985,
      "Root": 7986,
      "uk": 7987,
      "Ġdetail": 7988,
      "ĠAli": 7989,
      "energy": 7990,
      "^^^^^^^^^^^^^^^^": 7991,
      ":\",": 7992,
      "Ġspi": 7993,
      "Ġagate": 7994,
      "Ġframework": 7995,
      ">\",": 7996,
      "Ġdefines": 7997,
      "calcul": 7998,
      "destination": 7999,
      "Ġopts": 8000,
      "ierarchical": 8001,
      "got": 8002,
      "isinstance": 8003,
      "ysical": 8004,
      "scipy": 8005,
      "Ġvariance": 8006,
      "workflows": 8007,
      "\"^": 8008,
      "AIN": 8009,
      "edrock": 8010,
      "exe": 8011,
      "ĠĠĠĠĠĠĠĠĠĠĠĠĠĠĠĠĠĠĠĠĠĠĠĠĠĠĠĠĠ": 8012,
      "Ġprediction": 8013,
      "versal": 8014,
      "ĠTemplate": 8015,
      "ĠSOFTWARE": 8016,
      "AZ": 8017,
      "Ġsq": 8018,
      "Ġstarts": 8019,
      "Ġpast": 8020,
      "MET": 8021,
      "Private": 8022,
      "commendation": 8023,
      "EE": 8024,
      "begin": 8025,
      "Ġsomething": 8026,
      "Ġauthorization": 8027,
      "Ġconflict": 8028,
      "Make": 8029,
      "aff": 8030,
      "Ġfd": 8031,
      "digest": 8032,
      "Ġmemo": 8033,
      "mini": 8034,
      "Ġuv": 8035,
      "lim": 8036,
      "Ġ/)": 8037,
      "2021": 8038,
      "Ġide": 8039,
      "Ġpot": 8040,
      "Ġptr": 8041,
      "Ġcomputed": 8042,
      "polling": 8043,
      "_)": 8044,
      "perform": 8045,
      "Ġsec": 8046,
      "Ġ2020": 8047,
      "geo": 8048,
      "sparse": 8049,
      "Ġseveral": 8050,
      "ABLED": 8051,
      "Ġvarious": 8052,
      "<!": 8053,
      "inker": 8054,
      "Ġoverwrite": 8055,
      "MAP": 8056,
      "CRI": 8057,
      "letes": 8058,
      "Ġsender": 8059,
      "00000000": 8060,
      "statsmodels": 8061,
      "gateway": 8062,
      "utom": 8063,
      "ĠNV": 8064,
      "Ġutil": 8065,
      "ĠCla": 8066,
      "Ġgreater": 8067,
      "Ġsetuptools": 8068,
      "ACHE": 8069,
      "distribute": 8070,
      "irror": 8071,
      "arange": 8072,
      "Ġbits": 8073,
      "Annot": 8074,
      "FORMAT": 8075,
      "Ġomit": 8076,
      "ĠBoolean": 8077,
      "Ġarea": 8078,
      "submit": 8079,
      "Ġsuite": 8080,
      "Ġtherefore": 8081,
      "bitrary": 8082,
      "Abstract": 8083,
      "Quality": 8084,
      "Plan": 8085,
      "black": 8086,
      "wcs": 8087,
      "Ġlayers": 8088,
      "sess": 8089,
      "ingest": 8090,
      "Ġsy": 8091,
      "olute": 8092,
      "Enabled": 8093,
      "selected": 8094,
      "Ġindicates": 8095,
      "agnostic": 8096,
      "pub": 8097,
      "vc": 8098,
      "Ġpublish": 8099,
      "edro": 8100,
      "Ġwin": 8101,
      "Ġwrong": 8102,
      "Ġ(),": 8103,
      "rive": 8104,
      "tegers": 8105,
      "ITOR": 8106,
      "astype": 8107,
      "Ġtensordict": 8108,
      "cedence": 8109,
      "TX": 8110,
      "alchemy": 8111,
      "coped": 8112,
      "ubclass": 8113,
      "127": 8114,
      "DEX": 8115,
      "Encoder": 8116,
      ">`__": 8117,
      "ĠEngine": 8118,
      "HEADER": 8119,
      "amount": 8120,
      "Ġrefer": 8121,
      "viding": 8122,
      "Managed": 8123,
      "LOCK": 8124,
      "Ġexpand": 8125,
      "idxs": 8126,
      "Ġred": 8127,
      "æĹ": 8128,
      "erce": 8129,
      "sequent": 8130,
      "oneof": 8131,
      "Ġangle": 8132,
      "ĠStop": 8133,
      "Ġbecome": 8134,
      "Exp": 8135,
      "phrase": 8136,
      "lability": 8137,
      "tf": 8138,
      "åº": 8139,
      "detail": 8140,
      "Ġden": 8141,
      "chor": 8142,
      "Ġstage": 8143,
      "ledger": 8144,
      "UNK": 8145,
      "allenge": 8146,
      "lish": 8147,
      "START": 8148,
      "specs": 8149,
      "GetDataAttr": 8150,
      "Ġprojection": 8151,
      "ĠDocument": 8152,
      "wheel": 8153,
      "reserved": 8154,
      "stage": 8155,
      "Ġtrun": 8156,
      "ĠNon": 8157,
      "chars": 8158,
      "umba": 8159,
      "Ġoverrides": 8160,
      "bits": 8161,
      "åŃ": 8162,
      "semb": 8163,
      "Ġisn": 8164,
      "ĠMISSING": 8165,
      "Ġdatasets": 8166,
      "Ġpartition": 8167,
      "rtl": 8168,
      "highlight": 8169,
      "*\\": 8170,
      "CEL": 8171,
      "direction": 8172,
      "Ġcompile": 8173,
      "Ġaccording": 8174,
      "scores": 8175,
      "__}": 8176,
      "Ġorganization": 8177,
      "Ġnegative": 8178,
      "sessions": 8179,
      "Ġjobs": 8180,
      "ĠBinary": 8181,
      "LET": 8182,
      "Ġpassing": 8183,
      "Ġassigned": 8184,
      "LIST": 8185,
      "Ġmoved": 8186,
      "Stri": 8187,
      "ĠHangul": 8188,
      "udget": 8189,
      "'}": 8190,
      ")(": 8191
    },
    "merges": [
      [
        "Ġ",
        "Ġ"
      ],
      [
        "ĠĠ",
        "ĠĠ"
      ],
      [
        "ĠĠ",
        "Ġ"
      ],
      [
        "ĠĠĠĠ",
        "ĠĠĠ"
      ],
      [
        "o",
        "n"
      ],
      [
        "i",
        "n"
      ],
      [
        "e",
        "r"
      ],
      [
        "r",
        "e"
      ],
      [
        "a",
        "t"
      ],
      [
        "s",
        "e"
      ],
      [
        "o",
        "r"
      ],
      [
        "s",
        "t"
      ],
      [
        "Ġ",
        "t"
      ],
      [
        "e",
        "n"
      ],
      [
        "ĠĠĠĠ",
        "ĠĠĠĠĠĠĠ"
      ],
      [
        "a",
        "l"
      ],
      [
        "d",
        "e"
      ],
      [
        "i",
        "on"
      ],
      [
        "Ġ",
        "a"
      ],
      [
        "l",
        "e"
      ],
      [
        "h",
        "e"
      ],
      [
        "Ġ",
        "i"
      ],
      [
        "Ġ",
        "="
      ],
      [
        "a",
        "r"
      ],
      [
        "Ġ",
        "\""
      ],
      [
        "m",
        "e"
      ],
      [
        "Ġ",
        "c"
      ],
      [
        "i",
        "t"
      ],
      [
        "Ġ",
        "f"
      ],
      [
        "r",
        "o"
      ],
      [
        "c",
        "t"
      ],
      [
        "a",
        "n"
      ],
      [
        "-",
        "-"
      ],
      [
        "c",
        "e"
      ],
      [
        "l",
        "f"
      ],
      [
        "Ġ",
        "re"
      ],
      [
        "se",
        "lf"
      ],
      [
        "Ġ",
        "p"
      ],
      [
        "u",
        "r"
      ],
      [
        "en",
        "t"
      ],
      [
        "ĠĠĠĠ",
        "ĠĠĠĠ"
      ],
      [
        "p",
        "e"
      ],
      [
        "in",
        "g"
      ],
      [
        "Ġt",
        "he"
      ],
      [
        "u",
        "t"
      ],
      [
        "g",
        "e"
      ],
      [
        "Ġ",
        "s"
      ],
      [
        "s",
        "s"
      ],
      [
        "m",
        "p"
      ],
      [
        "Ġ",
        "in"
      ],
      [
        "l",
        "o"
      ],
      [
        "Ġ",
        "n"
      ],
      [
        "l",
        "i"
      ],
      [
        "u",
        "e"
      ],
      [
        "Ġ",
        "o"
      ],
      [
        "Ġ",
        "b"
      ],
      [
        "e",
        "d"
      ],
      [
        "\"",
        "\""
      ],
      [
        "e",
        "x"
      ],
      [
        "u",
        "n"
      ],
      [
        "a",
        "me"
      ],
      [
        "st",
        "r"
      ],
      [
        "Ġ",
        "self"
      ],
      [
        "c",
        "o"
      ],
      [
        "y",
        "pe"
      ],
      [
        "o",
        "t"
      ],
      [
        "l",
        "a"
      ],
      [
        "ĠĠĠĠ",
        "ĠĠĠĠĠĠĠĠĠĠĠ"
      ],
      [
        "Ġ",
        "w"
      ],
      [
        "\"",
        ","
      ],
      [
        "Ġ",
        "de"
      ],
      [
        "e",
        "s"
      ],
      [
        "on",
        "e"
      ],
      [
        "Ġ",
        "d"
      ],
      [
        "f",
        "i"
      ],
      [
        "Ġ",
        "m"
      ],
      [
        "Ġ",
        "N"
      ],
      [
        "Ġ",
        "("
      ],
      [
        "a",
        "d"
      ],
      [
        "at",
        "ion"
      ],
      [
        "p",
        "t"
      ],
      [
        "Ġt",
        "o"
      ],
      [
        "c",
        "k"
      ],
      [
        ")",
        ":"
      ],
      [
        "or",
        "t"
      ],
      [
        "r",
        "a"
      ],
      [
        "at",
        "e"
      ],
      [
        "Ġi",
        "f"
      ],
      [
        "ur",
        "n"
      ],
      [
        "u",
        "l"
      ],
      [
        "t",
        "urn"
      ],
      [
        "--",
        "--"
      ],
      [
        "Ġ",
        "#"
      ],
      [
        "i",
        "d"
      ],
      [
        "c",
        "h"
      ],
      [
        "Ġi",
        "s"
      ],
      [
        "Ġa",
        "n"
      ],
      [
        "i",
        "l"
      ],
      [
        "e",
        "l"
      ],
      [
        "o",
        "l"
      ],
      [
        "t",
        "h"
      ],
      [
        "_",
        "_"
      ],
      [
        "r",
        "i"
      ],
      [
        "Ġ",
        "-"
      ],
      [
        "Ġ",
        "T"
      ],
      [
        "Ġf",
        "or"
      ],
      [
        "ĠN",
        "one"
      ],
      [
        "i",
        "s"
      ],
      [
        "Ġ",
        "A"
      ],
      [
        "v",
        "al"
      ],
      [
        "t",
        "er"
      ],
      [
        "at",
        "a"
      ],
      [
        "v",
        "er"
      ],
      [
        "Ġre",
        "turn"
      ],
      [
        "Ġde",
        "f"
      ],
      [
        "Ġ",
        "'"
      ],
      [
        "Ġ\"",
        "\"\""
      ],
      [
        "o",
        "de"
      ],
      [
        "`",
        "`"
      ],
      [
        "a",
        "ge"
      ],
      [
        "u",
        "m"
      ],
      [
        "u",
        "p"
      ],
      [
        "ro",
        "m"
      ],
      [
        "=",
        "="
      ],
      [
        "Ġo",
        "f"
      ],
      [
        "pt",
        "ion"
      ],
      [
        "ge",
        "t"
      ],
      [
        "e",
        "ct"
      ],
      [
        "mp",
        "ort"
      ],
      [
        "a",
        "s"
      ],
      [
        ".",
        "_"
      ],
      [
        "ex",
        "t"
      ],
      [
        "e",
        "t"
      ],
      [
        "č",
        "Ċ"
      ],
      [
        "p",
        "y"
      ],
      [
        "(",
        ")"
      ],
      [
        "i",
        "c"
      ],
      [
        "a",
        "p"
      ],
      [
        "Ġ",
        "C"
      ],
      [
        "b",
        "le"
      ],
      [
        "ul",
        "t"
      ],
      [
        "it",
        "h"
      ],
      [
        "n",
        "ame"
      ],
      [
        "h",
        "t"
      ],
      [
        "Ġ",
        "S"
      ],
      [
        "Ġan",
        "d"
      ],
      [
        "c",
        "on"
      ],
      [
        "R",
        "e"
      ],
      [
        "Ġt",
        "h"
      ],
      [
        "Ġc",
        "on"
      ],
      [
        "#",
        "#"
      ],
      [
        "o",
        "d"
      ],
      [
        "Ġ",
        ":"
      ],
      [
        "k",
        "e"
      ],
      [
        "al",
        "l"
      ],
      [
        "t",
        "ype"
      ],
      [
        "a",
        "m"
      ],
      [
        "Ġ",
        "str"
      ],
      [
        "t",
        "o"
      ],
      [
        "Ġn",
        "ot"
      ],
      [
        "v",
        "e"
      ],
      [
        "s",
        "p"
      ],
      [
        "se",
        "t"
      ],
      [
        "en",
        "d"
      ],
      [
        "g",
        "s"
      ],
      [
        "u",
        "s"
      ],
      [
        "val",
        "ue"
      ],
      [
        "r",
        "or"
      ],
      [
        "i",
        "z"
      ],
      [
        "u",
        "b"
      ],
      [
        "v",
        "i"
      ],
      [
        "Ġ",
        "_"
      ],
      [
        "Ġ",
        "e"
      ],
      [
        "Ġ",
        ")"
      ],
      [
        "q",
        "u"
      ],
      [
        "t",
        "e"
      ],
      [
        "la",
        "ss"
      ],
      [
        "ĠĠĠĠĠĠĠĠ",
        "ĠĠĠĠĠĠĠĠĠĠĠ"
      ],
      [
        "d",
        "i"
      ],
      [
        "\"",
        ":"
      ],
      [
        "Ġi",
        "mport"
      ],
      [
        "in",
        "t"
      ],
      [
        "p",
        "er"
      ],
      [
        "Ġ",
        "["
      ],
      [
        "q",
        "ue"
      ],
      [
        "a",
        "ck"
      ],
      [
        "ct",
        "ion"
      ],
      [
        "i",
        "me"
      ],
      [
        "at",
        "h"
      ],
      [
        "Ġ",
        "h"
      ],
      [
        "Ġ",
        "P"
      ],
      [
        "\"",
        ")"
      ],
      [
        "Ġf",
        "i"
      ],
      [
        "0",
        "0"
      ],
      [
        "Ġ",
        "I"
      ],
      [
        "Ġ",
        "ex"
      ],
      [
        "i",
        "g"
      ],
      [
        "Ġ",
        "`"
      ],
      [
        "m",
        "ent"
      ],
      [
        "p",
        "ar"
      ],
      [
        "f",
        "rom"
      ],
      [
        "Ġ-",
        ">"
      ],
      [
        "p",
        "ro"
      ],
      [
        "t",
        "a"
      ],
      [
        "Ġ",
        "{"
      ],
      [
        "a",
        "se"
      ],
      [
        "Ġ",
        "or"
      ],
      [
        "Ġ",
        "L"
      ],
      [
        "t",
        "r"
      ],
      [
        "an",
        "d"
      ],
      [
        "m",
        "a"
      ],
      [
        "que",
        "st"
      ],
      [
        "Ġb",
        "e"
      ],
      [
        "i",
        "st"
      ],
      [
        "----",
        "----"
      ],
      [
        "T",
        "ype"
      ],
      [
        "u",
        "re"
      ],
      [
        "Ġ",
        "1"
      ],
      [
        "c",
        "he"
      ],
      [
        "(",
        "\""
      ],
      [
        "Ġc",
        "o"
      ],
      [
        "Ġ",
        "F"
      ],
      [
        "Ġ",
        "st"
      ],
      [
        "er",
        "s"
      ],
      [
        "Ġ",
        "*"
      ],
      [
        "o",
        "ur"
      ],
      [
        "Ġp",
        "ro"
      ],
      [
        "c",
        "lass"
      ],
      [
        "Ġ",
        "D"
      ],
      [
        "j",
        "ect"
      ],
      [
        "Ġ",
        "O"
      ],
      [
        "Ġa",
        "s"
      ],
      [
        "or",
        "m"
      ],
      [
        "a",
        "ble"
      ],
      [
        ".",
        "."
      ],
      [
        "Ġ",
        "g"
      ],
      [
        "fi",
        "g"
      ],
      [
        "Ġ",
        "me"
      ],
      [
        "t",
        "p"
      ],
      [
        "o",
        "w"
      ],
      [
        "ode",
        "l"
      ],
      [
        "ke",
        "y"
      ],
      [
        "p",
        "o"
      ],
      [
        "s",
        "er"
      ],
      [
        "on",
        "se"
      ],
      [
        "p",
        "ut"
      ],
      [
        "Ġ",
        "0"
      ],
      [
        "l",
        "y"
      ],
      [
        "d",
        "er"
      ],
      [
        "re",
        "d"
      ],
      [
        "o",
        "c"
      ],
      [
        ")",
        ","
      ],
      [
        "Ġ",
        "|"
      ],
      [
        "t",
        "ext"
      ],
      [
        "i",
        "al"
      ],
      [
        "an",
        "ce"
      ],
      [
        "ht",
        "tp"
      ],
      [
        "li",
        "st"
      ],
      [
        "0",
        "1"
      ],
      [
        "==",
        "=="
      ],
      [
        "li",
        "ent"
      ],
      [
        "Ġ",
        "l"
      ],
      [
        "u",
        "se"
      ],
      [
        "mp",
        "le"
      ],
      [
        "Ġw",
        "ith"
      ],
      [
        "r",
        "ror"
      ],
      [
        "o",
        "ut"
      ],
      [
        "Ġ",
        "se"
      ],
      [
        "our",
        "ce"
      ],
      [
        "E",
        "rror"
      ],
      [
        "s",
        "ion"
      ],
      [
        "Ġ",
        "lo"
      ],
      [
        "\"\"",
        "\""
      ],
      [
        "Ġd",
        "i"
      ],
      [
        "'",
        ","
      ],
      [
        "a",
        "g"
      ],
      [
        "co",
        "m"
      ],
      [
        "'",
        ":"
      ],
      [
        "/",
        "/"
      ],
      [
        "f",
        "a"
      ],
      [
        "Ġ",
        "M"
      ],
      [
        "Ġ",
        "r"
      ],
      [
        "in",
        "e"
      ],
      [
        "ar",
        "gs"
      ],
      [
        "re",
        "s"
      ],
      [
        "ĠĠĠĠĠĠĠĠ",
        "ĠĠĠĠĠĠĠĠ"
      ],
      [
        "Ġ",
        "``"
      ],
      [
        "n",
        "t"
      ],
      [
        "Ġ",
        "value"
      ],
      [
        "iz",
        "e"
      ],
      [
        ":",
        "//"
      ],
      [
        "d",
        "ata"
      ],
      [
        "R",
        "es"
      ],
      [
        "Ġfi",
        "le"
      ],
      [
        "Ġ",
        "E"
      ],
      [
        "t",
        "ri"
      ],
      [
        ")",
        ")"
      ],
      [
        "Ġf",
        "rom"
      ],
      [
        "c",
        "i"
      ],
      [
        "Ġn",
        "ame"
      ],
      [
        "Ġ",
        "on"
      ],
      [
        "f",
        "orm"
      ],
      [
        "i",
        "se"
      ],
      [
        "\"",
        "]"
      ],
      [
        "ption",
        "al"
      ],
      [
        "Ġ",
        "U"
      ],
      [
        "Ġw",
        "h"
      ],
      [
        "r",
        "ue"
      ],
      [
        "li",
        "c"
      ],
      [
        "ĠT",
        "he"
      ],
      [
        "http",
        "s"
      ],
      [
        "th",
        "on"
      ],
      [
        "el",
        "d"
      ],
      [
        "Ġp",
        "ar"
      ],
      [
        "f",
        "o"
      ],
      [
        "t",
        "ime"
      ],
      [
        "t",
        "y"
      ],
      [
        "it",
        "y"
      ],
      [
        "i",
        "m"
      ],
      [
        "C",
        "on"
      ],
      [
        "Ġt",
        "ype"
      ],
      [
        "y",
        "n"
      ],
      [
        "I",
        "N"
      ],
      [
        "p",
        "ath"
      ],
      [
        "Ġre",
        "s"
      ],
      [
        "o",
        "ol"
      ],
      [
        "f",
        "f"
      ],
      [
        "Ġ",
        "use"
      ],
      [
        "ap",
        "p"
      ],
      [
        "en",
        "ce"
      ],
      [
        "I",
        "n"
      ],
      [
        "um",
        "ent"
      ],
      [
        "el",
        "se"
      ],
      [
        "Ġ",
        "2"
      ],
      [
        "ver",
        "sion"
      ],
      [
        "Ġb",
        "y"
      ],
      [
        "u",
        "st"
      ],
      [
        "al",
        "se"
      ],
      [
        "D",
        "e"
      ],
      [
        "Ġ",
        "ra"
      ],
      [
        "s",
        "h"
      ],
      [
        "p",
        "re"
      ],
      [
        "lo",
        "w"
      ],
      [
        "Ġd",
        "ata"
      ],
      [
        "e",
        "m"
      ],
      [
        "s",
        "c"
      ],
      [
        "b",
        "ject"
      ],
      [
        "at",
        "ed"
      ],
      [
        "u",
        "le"
      ],
      [
        "]",
        ","
      ],
      [
        "E",
        "R"
      ],
      [
        "Ġ",
        "else"
      ],
      [
        "co",
        "de"
      ],
      [
        "O",
        "N"
      ],
      [
        "##",
        "##"
      ],
      [
        "th",
        "od"
      ],
      [
        "ss",
        "ion"
      ],
      [
        "qu",
        "i"
      ],
      [
        "i",
        "ve"
      ],
      [
        "Ġm",
        "a"
      ],
      [
        "st",
        "ance"
      ],
      [
        "ss",
        "age"
      ],
      [
        "g",
        "g"
      ],
      [
        "Ġ",
        "y"
      ],
      [
        "de",
        "f"
      ],
      [
        "vi",
        "ce"
      ],
      [
        "o",
        "m"
      ],
      [
        "Ġ",
        "+"
      ],
      [
        "Ġth",
        "at"
      ],
      [
        "=",
        "\""
      ],
      [
        "p",
        "ort"
      ],
      [
        "par",
        "am"
      ],
      [
        "o",
        "o"
      ],
      [
        "Ġ",
        "un"
      ],
      [
        "e",
        "w"
      ],
      [
        "Ġa",
        "r"
      ],
      [
        "Ġ",
        "B"
      ],
      [
        "fi",
        "le"
      ],
      [
        "[",
        "\""
      ],
      [
        "Ġth",
        "is"
      ],
      [
        "l",
        "s"
      ],
      [
        "at",
        "or"
      ],
      [
        ">",
        ">"
      ],
      [
        "sp",
        "onse"
      ],
      [
        "b",
        "ut"
      ],
      [
        "i",
        "p"
      ],
      [
        "Ġ",
        "v"
      ],
      [
        "Ġ",
        "Re"
      ],
      [
        "Ġ",
        "G"
      ],
      [
        "t",
        "s"
      ],
      [
        "Ġ",
        "list"
      ],
      [
        ")",
        "."
      ],
      [
        "er",
        "ror"
      ],
      [
        "or",
        "k"
      ],
      [
        "k",
        "w"
      ],
      [
        "at",
        "ch"
      ],
      [
        "r",
        "y"
      ],
      [
        "b",
        "u"
      ],
      [
        "de",
        "d"
      ],
      [
        "ig",
        "n"
      ],
      [
        "Ġin",
        "t"
      ],
      [
        "o",
        "f"
      ],
      [
        "in",
        "it"
      ],
      [
        "Ġ",
        "__"
      ],
      [
        "Ġ",
        "@"
      ],
      [
        "ation",
        "s"
      ],
      [
        "Ġc",
        "h"
      ],
      [
        "ce",
        "ss"
      ],
      [
        "Ġra",
        "ise"
      ],
      [
        "Ġ",
        "en"
      ],
      [
        "il",
        "l"
      ],
      [
        "ar",
        "y"
      ],
      [
        "un",
        "ction"
      ],
      [
        "*",
        "*"
      ],
      [
        "o",
        "re"
      ],
      [
        "or",
        "d"
      ],
      [
        "Ġ=",
        "="
      ],
      [
        "Ġ",
        "al"
      ],
      [
        "w",
        "a"
      ],
      [
        "Ġ",
        "at"
      ],
      [
        "Ġ",
        "V"
      ],
      [
        "i",
        "es"
      ],
      [
        "kw",
        "args"
      ],
      [
        "a",
        "i"
      ],
      [
        "r",
        "an"
      ],
      [
        "o",
        "p"
      ],
      [
        "l",
        "u"
      ],
      [
        "Ġs",
        "h"
      ],
      [
        "Ġ",
        "W"
      ],
      [
        "lo",
        "ad"
      ],
      [
        "Ġa",
        "re"
      ],
      [
        "Ġ",
        "set"
      ],
      [
        "k",
        "en"
      ],
      [
        "or",
        "y"
      ],
      [
        "d",
        "ate"
      ],
      [
        "Ġ",
        "R"
      ],
      [
        "Ġ",
        "3"
      ],
      [
        "Ġ*",
        "*"
      ],
      [
        "ar",
        "t"
      ],
      [
        "ĠA",
        "n"
      ],
      [
        "ĠĠĠĠĠĠĠĠ",
        "ĠĠĠĠĠĠĠĠĠĠĠĠĠĠĠ"
      ],
      [
        "un",
        "d"
      ],
      [
        "in",
        "d"
      ],
      [
        "d",
        "d"
      ],
      [
        "m",
        "odel"
      ],
      [
        "i",
        "fi"
      ],
      [
        "p",
        "p"
      ],
      [
        "i",
        "v"
      ],
      [
        "ĠO",
        "ptional"
      ],
      [
        "de",
        "x"
      ],
      [
        ".",
        "\"\"\""
      ],
      [
        "ack",
        "age"
      ],
      [
        "]",
        "("
      ],
      [
        "e",
        "st"
      ],
      [
        "Ġ",
        "get"
      ],
      [
        "a",
        "mple"
      ],
      [
        "yn",
        "c"
      ],
      [
        ":",
        "`"
      ],
      [
        "o",
        "b"
      ],
      [
        "ð",
        "Ł"
      ],
      [
        "(",
        "'"
      ],
      [
        "en",
        "se"
      ],
      [
        "re",
        "ate"
      ],
      [
        "n",
        "ect"
      ],
      [
        "v",
        "ent"
      ],
      [
        "a",
        "b"
      ],
      [
        "c",
        "lient"
      ],
      [
        "i",
        "ct"
      ],
      [
        "t",
        "ent"
      ],
      [
        "en",
        "er"
      ],
      [
        "__",
        "("
      ],
      [
        "Ġ",
        "<"
      ],
      [
        "Ġi",
        "t"
      ],
      [
        "N",
        "one"
      ],
      [
        "Ġre",
        "quest"
      ],
      [
        "o",
        "u"
      ],
      [
        "i",
        "mport"
      ],
      [
        "--------",
        "--------"
      ],
      [
        "E",
        "N"
      ],
      [
        "he",
        "ad"
      ],
      [
        "ur",
        "l"
      ],
      [
        "con",
        "fig"
      ],
      [
        "p",
        "i"
      ],
      [
        "Ġ",
        "us"
      ],
      [
        "a",
        "che"
      ],
      [
        "re",
        "ad"
      ],
      [
        "m",
        "l"
      ],
      [
        "ing",
        "s"
      ],
      [
        "====",
        "===="
      ],
      [
        "ro",
        "up"
      ],
      [
        "Ġ",
        "key"
      ],
      [
        "ce",
        "pt"
      ],
      [
        "ĠĠĠĠ",
        "Ġ"
      ],
      [
        "an",
        "t"
      ],
      [
        "a",
        "ult"
      ],
      [
        "tri",
        "but"
      ],
      [
        "ut",
        "h"
      ],
      [
        "ad",
        "ata"
      ],
      [
        "re",
        "nt"
      ],
      [
        "ption",
        "s"
      ],
      [
        "an",
        "ge"
      ],
      [
        "r",
        "it"
      ],
      [
        "E",
        "S"
      ],
      [
        "ra",
        "y"
      ],
      [
        "il",
        "d"
      ],
      [
        "d",
        "oc"
      ],
      [
        "Res",
        "p"
      ],
      [
        "e",
        "c"
      ],
      [
        "m",
        "it"
      ],
      [
        "ith",
        "ub"
      ],
      [
        "Resp",
        "onse"
      ],
      [
        "co",
        "l"
      ],
      [
        "A",
        "T"
      ],
      [
        "P",
        "ro"
      ],
      [
        "m",
        "b"
      ],
      [
        "qui",
        "red"
      ],
      [
        "Ġdef",
        "ault"
      ],
      [
        "De",
        "f"
      ],
      [
        "Ġt",
        "ime"
      ],
      [
        "ap",
        "i"
      ],
      [
        "od",
        "ule"
      ],
      [
        "fa",
        "ult"
      ],
      [
        "n",
        "ot"
      ],
      [
        "g",
        "ithub"
      ],
      [
        "th",
        "er"
      ],
      [
        "as",
        "k"
      ],
      [
        "i",
        "f"
      ],
      [
        "a",
        "ct"
      ],
      [
        "in",
        "stance"
      ],
      [
        "val",
        "id"
      ],
      [
        "er",
        "y"
      ],
      [
        "ame",
        "ter"
      ],
      [
        "it",
        "ion"
      ],
      [
        "Ġp",
        "y"
      ],
      [
        "Ġc",
        "an"
      ],
      [
        "ra",
        "p"
      ],
      [
        "lo",
        "ck"
      ],
      [
        "Ġ",
        "H"
      ],
      [
        "un",
        "t"
      ],
      [
        "E",
        "x"
      ],
      [
        "j",
        "s"
      ],
      [
        "Ġo",
        "ut"
      ],
      [
        "Ġp",
        "a"
      ],
      [
        "ta",
        "in"
      ],
      [
        "py",
        "thon"
      ],
      [
        "l",
        "ine"
      ],
      [
        "i",
        "le"
      ],
      [
        "sc",
        "ri"
      ],
      [
        "ĠN",
        "ot"
      ],
      [
        "te",
        "st"
      ],
      [
        "ĠAn",
        "y"
      ],
      [
        "Ġ",
        ".."
      ],
      [
        "S",
        "t"
      ],
      [
        "o",
        "s"
      ],
      [
        "Ġw",
        "ill"
      ],
      [
        "Type",
        "Def"
      ],
      [
        "la",
        "ble"
      ],
      [
        "Ġs",
        "er"
      ],
      [
        "ad",
        "d"
      ],
      [
        "li",
        "b"
      ],
      [
        "um",
        "b"
      ],
      [
        "Ġres",
        "ult"
      ],
      [
        "re",
        "am"
      ],
      [
        "Re",
        "quest"
      ],
      [
        "Ġo",
        "bject"
      ],
      [
        "0",
        "2"
      ],
      [
        "u",
        "ct"
      ],
      [
        "at",
        "us"
      ],
      [
        "P",
        "I"
      ],
      [
        "c",
        "al"
      ],
      [
        "m",
        "s"
      ],
      [
        "f",
        "er"
      ],
      [
        "en",
        "s"
      ],
      [
        "lo",
        "at"
      ],
      [
        "l",
        "l"
      ],
      [
        "ĠF",
        "alse"
      ],
      [
        "re",
        "ct"
      ],
      [
        "Ġp",
        "re"
      ],
      [
        "p",
        "ackage"
      ],
      [
        "h",
        "is"
      ],
      [
        "a",
        "c"
      ],
      [
        "ow",
        "n"
      ],
      [
        "Ġm",
        "odel"
      ],
      [
        "di",
        "ct"
      ],
      [
        "ter",
        "n"
      ],
      [
        "ar",
        "k"
      ],
      [
        "Ġ",
        "x"
      ],
      [
        "per",
        "ty"
      ],
      [
        "b",
        "ack"
      ],
      [
        "s",
        "ize"
      ],
      [
        "Ġs",
        "pe"
      ],
      [
        "a",
        "ce"
      ],
      [
        "A",
        "R"
      ],
      [
        "in",
        "fo"
      ],
      [
        "Ġb",
        "ool"
      ],
      [
        "p",
        "ing"
      ],
      [
        "al",
        "ue"
      ],
      [
        "Ġn",
        "o"
      ],
      [
        "ĠI",
        "n"
      ],
      [
        "'",
        ")"
      ],
      [
        "an",
        "g"
      ],
      [
        "u",
        "d"
      ],
      [
        "y",
        "s"
      ],
      [
        "Ġre",
        "sponse"
      ],
      [
        "O",
        "R"
      ],
      [
        "il",
        "s"
      ],
      [
        "Ġ",
        "la"
      ],
      [
        "gg",
        "er"
      ],
      [
        "ĠT",
        "rue"
      ],
      [
        "p",
        "r"
      ],
      [
        "T",
        "rue"
      ],
      [
        "m",
        "o"
      ],
      [
        "m",
        "in"
      ],
      [
        "â",
        "Ģ"
      ],
      [
        "ar",
        "ch"
      ],
      [
        "b",
        "o"
      ],
      [
        "Ġs",
        "up"
      ],
      [
        "po",
        "int"
      ],
      [
        "Ġco",
        "mp"
      ],
      [
        "]",
        ":"
      ],
      [
        "er",
        "e"
      ],
      [
        "Ġis",
        "instance"
      ],
      [
        "Ġb",
        "u"
      ],
      [
        "I",
        "T"
      ],
      [
        "b",
[...]
