{
  "version": "1.0",
  "truncation": null,
  "padding": null,
  "added_tokens": [
    {
      "id": 0,
      "content": "[UNK]",
      "single_word": false,
      "lstrip": false,
      "rstrip": false,
      "normalized": false,
      "special": true
    },
    {
      "id": 1,
      "content": "[PAD]",
      "single_word": false,
      "lstrip": false,
      "rstrip": false,
      "normalized": false,
      "special": true
    },
    {
      "id": 2,
      "content": "[BOS]",
      "single_word": false,
      "lstrip": false,
      "rstrip": false,
      "normalized": false,
      "special": true
    },
    {
      "id": 3,
      "content": "[EOS]",
      "single_word": false,
      "lstrip": false,
      "rstrip": false,
      "normalized": false,
      "special": true
    }
  ],
  "normalizer": null,
  "pre_tokenizer": {
    "type": "ByteLevel",
    "add_prefix_space": true,
    "trim_offsets": true,
    "use_regex": true
  },
  "post_processor": null,
  "decoder": {
    "type": "ByteLevel",
    "add_prefix_space": true,
    "trim_offsets": true,
    "use_regex": true
  },
  "model": {
    "type": "BPE",
    "dropout": null,
    "unk_token": "[UNK]",
    "continuing_subword_prefix": null,
    "end_of_word_suffix": null,
    "fuse_unk": false,
    "byte_fallback": false,
    "ignore_merges": false,
    "vocab": {
      "[UNK]": 0,
      "[PAD]": 1,
      "[BOS]": 2,
      "[EOS]": 3,
      "!": 4,
      "\"": 5,
      "#": 6,
      "%": 7,
      "'": 8,
      "(": 9,
      ")": 10,
      "*": 11,
      "+": 12,
      ",": 13,
      "-": 14,
      ".": 15,
      "0": 16,
      "1": 17,
      "2": 18,
      "3": 19,
      "4": 20,
      "5": 21,
      "6": 22,
      "7": 23,
      "8": 24,
      "9": 25,
      ":": 26,
      "=": 27,
      "?": 28,
      "A": 29,
      "B": 30,
      "C": 31,
      "D": 32,
      "E": 33,
      "F": 34,
      "G": 35,
      "H": 36,
      "I": 37,
      "J": 38,
      "L": 39,
      "M": 40,
      "N": 41,
      "O": 42,
      "P": 43,
      "Q": 44,
      "R": 45,
      "S": 46,
      "T": 47,
      "W": 48,
      "Y": 49,
      "Z": 50,
      "[": 51,
      "]": 52,
      "_": 53,
      "a": 54,
      "b": 55,
      "c": 56,
      "d": 57,
      "e": 58,
      "f": 59,
      "g": 60,
      "h": 61,
      "i": 62,
      "j": 63,
      "k": 64,
      "l": 65,
      "m": 66,
      "n": 67,
      "o": 68,
      "p": 69,
      "q": 70,
      "r": 71,
      "s": 72,
      "t": 73,
      "u": 74,
      "v": 75,
      "w": 76,
      "x": 77,
      "y": 78,
      "z": 79,
      "{": 80,
      "}": 81,
      "Ċ": 82,
      "Ġ": 83,
      "Ġt": 84,
      "he": 85,
      "Ġa": 86,
      "Ġthe": 87,
      "Ġs": 88,
      "Ġw": 89,
      "Ġb": 90,
      "ar": 91,
      "ed": 92,
      "Ġl": 93,
      "ve": 94,
      "en": 95,
      "as": 96,
      "Ġc": 97,
      "Ġm": 98,
      "Ġto": 99,
      "in": 100,
      "Ġf": 101,
      "re": 102,
      "Ġd": 103,
      "an": 104,
      "ou": 105,
      "ri": 106,
      "ĠT": 107,
      "it": 108,
      "or": 109,
      "ĠThe": 110,
      "Ġan": 111,
      "on": 112,
      "at": 113,
      "is": 114,
      "Ġp": 115,
      "Ġg": 116,
      "le": 117,
      "Ġwas": 118,
      "il": 119,
      "un": 120,
      "Ġn": 121,
      "al": 122,
      "ol": 123,
      "Ġand": 124,
      "er": 125,
      "ver": 126,
      "et": 127,
      "ay": 128,
      "Ġh": 129,
      "ĠI": 130,
      "ow": 131,
      "id": 132,
      "ce": 133,
      "Ġr": 134,
      "Ġli": 135,
      "el": 136,
      "ad": 137,
      "ok": 138,
      "ave": 139,
      "gh": 140,
      "ght": 141,
      "ot": 142,
      "ut": 143,
      "es": 144,
      "ĠL": 145,
      "ag": 146,
      "ent": 147,
      "ur": 148,
      "Ġit": 149,
      "ĠO": 150,
      "Ġis": 151,
      "Ġo": 152,
      "im": 153,
      "oun": 154,
      "ĠS": 155,
      "ĠM": 156,
      "ear": 157,
      "ĠE": 158,
      "Ġsh": 159,
      "Ġsa": 160,
      "ĠA": 161,
      "ul": 162,
      "os": 163,
      "ĠĊ": 164,
      "ic": 165,
      "ke": 166,
      "ly": 167,
      "Ġx": 168,
      "Ġv": 169,
      "end": 170,
      "Ġfri": 171,
      "Ġfriend": 172,
      "tle": 173,
      "Ġz": 174,
      "li": 175,
      "ing": 176,
      "Ġmo": 177,
      "ir": 178,
      "th": 179,
      "am": 180,
      "Ġday": 181,
      "up": 182,
      "ĠOn": 183,
      "Ġy": 184,
      "ook": 185,
      "us": 186,
      "om": 187,
      "ac": 188,
      "Ġat": 189,
      "Ġsaid": 190,
      "very": 191,
      "Ġin": 192,
      "la": 193,
      "Ġhave": 194,
      "ug": 195,
      "Ġro": 196,
      "ho": 197,
      "Ġe": 198,
      "ĠThey": 199,
      "ĠIt": 200,
      "ĠB": 201,
      "Ġare": 202,
      "uc": 203,
      "Ġbe": 204,
      "ig": 205,
      "Ġhe": 206,
      "old": 207,
      "Ġsun": 208,
      "og": 209,
      "ous": 210,
      "Ġcl": 211,
      "tar": 212,
      "Ġbri": 213,
      "lo": 214,
      "Ġre": 215,
      "ox": 216,
      "Ġyou": 217,
      "ap": 218,
      "if": 219,
      "Ġpl": 220,
      "ant": 221,
      "Ġ\"": 222,
      "ound": 223,
      "ved": 224,
      "Ġplay": 225,
      "Ġni": 226,
      "Ġup": 227,
      "Ġwho": 228,
      "Ġlear": 229,
      "ĠOne": 230,
      "Ġsol": 231,
      "Ġlearn": 232,
      "ake": 233,
      "Ġth": 234,
      "Ġwant": 235,
      "Ġcan": 236,
      "um": 237,
      "ĠH": 238,
      "ud": 239,
      "ion": 240,
      "Ġtal": 241,
      "Ġmag": 242,
      "ep": 243,
      "va": 244,
      "Ġwanted": 245,
      "Ġtook": 246,
      "ked": 247,
      "Ġwent": 248,
      "Ġvery": 249,
      "Ġwit": 250,
      "Ġwith": 251,
      "ora": 252,
      "Ġmagic": 253,
      "ilo": 254,
      "ub": 255,
      "ĠF": 256,
      "ĠC": 257,
      "op": 258,
      "Ġar": 259,
      "ax": 260,
      "Ġbr": 261,
      "Ġas": 262,
      "ft": 263,
      "qu": 264,
      "Ġne": 265,
      "ain": 266,
      "anc": 267,
      "ĠJ": 268,
      "oud": 269,
      "ĠMilo": 270,
      "ĠLuc": 271,
      "lp": 272,
      "ci": 273,
      "ĠR": 274,
      "ĠN": 275,
      "ater": 276,
      "Ġbig": 277,
      "Ġri": 278,
      "Ġhelp": 279,
      "Ġnight": 280,
      "ooks": 281,
      "arth": 282,
      "ĠEarth": 283,
      "Ġsolid": 284,
      "Ġshin": 285,
      "Ġfriendly": 286,
      "Ġsil": 287,
      "Ġbright": 288,
      "Ġlit": 289,
      "Ġlittle": 290,
      "ix": 291,
      "Ġcar": 292,
      "unn": 293,
      "ie": 294,
      "Ġfis": 295,
      "Ġdre": 296,
      "Ġon": 297,
      "Ġmoon": 298,
      "Ġstar": 299,
      "Ġlight": 300,
      "Ġfish": 301,
      "Ġk": 302,
      "low": 303,
      "unny": 304,
      "Ġor": 305,
      "Ġlo": 306,
      "ouse": 307,
      "co": 308,
      "Ġmet": 309,
      "Ġle": 310,
      "ro": 311,
      "Ġdo": 312,
      "ount": 313,
      "ab": 314,
      "ma": 315,
      "ĠW": 316,
      "Ġj": 317,
      "ang": 318,
      "Ġgi": 319,
      "Ġfar": 320,
      "Ġtim": 321,
      "Ġbu": 322,
      "Ġwe": 323,
      "ead": 324,
      "od": 325,
      "ark": 326,
      "bed": 327,
      "ountain": 328,
      "iz": 329,
      "Ġcu": 330,
      "gen": 331,
      "xp": 332,
      "Ġexp": 333,
      "lu": 334,
      "Ġop": 335,
      "Ġtog": 336,
      "Ġgo": 337,
      "ĠY": 338,
      "Ġso": 339,
      "ge": 340,
      "Ġ=": 341,
      "her": 342,
      "ether": 343,
      "Ġtogether": 344,
      "ra": 345,
      "Ġla": 346,
      "Ġcas": 347,
      "ris": 348,
      "urp": 349,
      "les": 350,
      "orn": 351,
      "Ġ1": 352,
      "ello": 353,
      "Ġbut": 354,
      "Ġriver": 355,
      "Hello": 356,
      "Ġbes": 357,
      "Ġtre": 358,
      "Ġtree": 359,
      "Ġcastle": 360,
      "ach": 361,
      "Ġman": 362,
      "ĠYou": 363,
      "Ġbo": 364,
      "Ġtime": 365,
      "ote": 366,
      "Ġloud": 367,
      "ĠThere": 368,
      "ĠOnce": 369,
      "Ġupon": 370,
      "Ġloudly": 371,
      "Ġnear": 372,
      "Ġthere": 373,
      "Ġtoo": 374,
      "ĠIn": 375,
      "!\"": 376,
      "?\"": 377,
      "How": 378,
      "Ġsurp": 379,
      "Ġtalk": 380,
      "Ġasked": 381,
      "rised": 382,
      "Ġsurprised": 383,
      "Ġloved": 384,
      "ze": 385,
      "Ġhad": 386,
      "Ġshow": 387,
      "Ġthat": 388,
      "Ġthey": 389,
      "Ġfriends": 390,
      "Ġevery": 391,
      "Ġwere": 392,
      "Ġbest": 393,
      "Ġwok": 394,
      "Ġmorn": 395,
      "Ġwoke": 396,
      "Ġmorning": 397,
      "ude": 398,
      "Ġlived": 399,
      "una": 400,
      "Ġad": 401,
      "vu": 402,
      "ves": 403,
      "ade": 404,
      "als": 405,
      "iet": 406,
      "ugo": 407,
      "vo": 408,
      "ome": 409,
      "Ġmany": 410,
      "zo": 411,
      "fe": 412,
      "aut": 413,
      "Ġmake": 414,
      "tu": 415,
      "ĠD": 416,
      "Ġgives": 417,
      "ky": 418,
      "Ġsky": 419,
      "Ġal": 420,
      "ux": 421,
      "ilt": 422,
      "els": 423,
      "arp": 424,
      "Ġran": 425,
      "ild": 426,
      "ots": 427,
      "car": 428,
      "ĠĠ": 429,
      "Ġped": 430,
      "hes": 431,
      "Ġtop": 432,
      "Ġdis": 433,
      "ord": 434,
      "Ġde": 435,
      "Ġpag": 436,
      "Ġhas": 437,
      "inn": 438,
      "Ġgas": 439,
      "rlo": 440,
      "Ġmade": 441,
      "ĠArlo": 442,
      "eo": 443,
      "ĠJude": 444,
      "ĠTom": 445,
      "lor": 446,
      "uby": 447,
      "ared": 448,
      "ĠRuby": 449,
      "oe": 450,
      "ĠMax": 451,
      "rote": 452,
      "Ġwrote": 453,
      "ack": 454,
      "osed": 455,
      "ĠJack": 456,
      "Gra": 457,
      "Grace": 458,
      "ayla": 459,
      "Ġfound": 460,
      "har": 461,
      "lie": 462,
      "harlie": 463,
      "Ġbuilt": 464,
      "ia": 465,
      "zu": 466,
      "ried": 467,
      "Ġcarried": 468,
      "mma": 469,
      "elix": 470,
      "ĠGrace": 471,
      "ĠLayla": 472,
      "Ġgave": 473,
      "ĠCharlie": 474,
      "arper": 475,
      "ped": 476,
      "ĠMia": 477,
      "ĠEmma": 478,
      "ĠFelix": 479,
      "ĠSam": 480,
      "hie": 481,
      "ophie": 482,
      "lla": 483,
      "ĠLuna": 484,
      "za": 485,
      "Ġblu": 486,
      "ĠHarper": 487,
      "Ġblue": 488,
      "Ġclosed": 489,
      "ĠElla": 490,
      "ĠLeo": 491,
      "ĠSophie": 492,
      "ĠLucy": 493,
      "Ġdrew": 494,
      "ĠLucas": 495,
      "vy": 496,
      "Ġshared": 497,
      "ĠFinn": 498,
      "ĠIvy": 499,
      "sla": 500,
      "age": 501,
      "Zoe": 502,
      "Ġliked": 503,
      "ah": 504,
      "oah": 505,
      "ĠHugo": 506,
      "Ġsang": 507,
      "scar": 508,
      "ily": 509,
      "ĠNoah": 510,
      "ĠZoe": 511,
      "ĠBen": 512,
      "ĠOscar": 513,
      "ĠCora": 514,
      "Ġexplor": 515,
      "Ġexplored": 516,
      "Ġold": 517,
      "ĠLily": 518,
      "than": 519,
      "ought": 520,
      "Ġthought": 521,
      "Ġfas": 522,
      "Ġdanc": 523,
      "Ġdanced": 524,
      "ened": 525,
      "Ġopened": 526,
      "ĠEthan": 527,
      "Ġread": 528,
      "Ġmove": 529,
      "Ġplayed": 530,
      "ĠTheo": 531,
      "ĠAva": 532,
      "ria": 533,
      "umped": 534,
      "Ġjumped": 535,
      "ĠIsla": 536,
      "lice": 537,
      "Ġsaw": 538,
      "Ġtin": 539,
      "ĠAria": 540,
      "ĠAlice": 541,
      "liver": 542,
      "hed": 543,
      "ughed": 544,
      "Ġlaughed": 545,
      "Ġlearned": 546,
      "imbed": 547,
      "Ġclimbed": 548,
      "vered": 549,
      "covered": 550,
      "Ġdiscovered": 551,
      "ĠOliver": 552,
      "ĠNora": 553,
      "fo": 554,
      "Ġhelped": 555,
      "cles": 556,
      "wo": 557,
      "ycles": 558,
      "Ġtwo": 559,
      "heels": 560,
      "Ġwheels": 561,
      "icycles": 562,
      "ĠBicycles": 563,
      "Ġpedal": 564,
      "ite": 565,
      "way": 566,
      "Ġaway": 567,
      "ĠStar": 568,
      "ĠSome": 569,
      "Ġsuns": 570,
      "Ġshine": 571,
      "ĠStars": 572,
      "Ġroc": 573,
      "Ġbark": 574,
      "Ġanim": 575,
      "Ġlike": 576,
      "ogs": 577,
      "ĠDogs": 578,
      "Ġanimals": 579,
      "aves": 580,
      "Ġword": 581,
      "ĠBooks": 582,
      "ĠRead": 583,
      "Ġhelps": 584,
      "Ġpages": 585,
      "Ġwords": 586,
      "ĠReading": 587,
      "Ġheat": 588,
      "xy": 589,
      "rees": 590,
      "ĠTrees": 591,
      "Ġoxy": 592,
      "Ġroots": 593,
      "Ġbranc": 594,
      "Ġleaves": 595,
      "Ġoxygen": 596,
      "Ġbranches": 597,
      "Ġred": 598,
      "vi": 599,
      "ven": 600,
      "cean": 601,
      "Ġwater": 602,
      "ĠIce": 603,
      "Ġliqu": 604,
      "ĠWater": 605,
      "Ġliquid": 606,
      "Ġlooks": 607,
      "Ġaround": 608,
      "Ġgoes": 609,
      "Ġocean": 610,
      "ks": 611,
      "now": 612,
      "Ġoft": 613,
      "ĠSnow": 614,
      "ĠMountain": 615,
      "Ġtall": 616,
      "Ġrocks": 617,
      "Ġoften": 618,
      "ĠMountains": 619,
      "arm": 620,
      "Ġcuri": 621,
      "fi": 622,
      "Ġcurious": 623,
      "Ġwild": 624,
      "Ġcold": 625,
      "zi": 626,
      "Ġbrave": 627,
      "Ġfast": 628,
      "Ġtiny": 629,
      "ind": 630,
      "Ġsoft": 631,
      "Ġgent": 632,
      "Ġgentle": 633,
      "py": 634,
      "Ġhap": 635,
      "Ġhappy": 636,
      "Ġslow": 637,
      "Ġshiny": 638,
      "Ġsilly": 639,
      "Ġkind": 640,
      "Ġsle": 641,
      "epy": 642,
      "Ġsleepy": 643,
      "Ġsilver": 644,
      "oung": 645,
      "Ġyoung": 646,
      "Ġanci": 647,
      "Ġqu": 648,
      "Ġquiet": 649,
      "Ġcle": 650,
      "Ġclever": 651,
      "Ġnew": 652,
      "Ġwarm": 653,
      "Ġfunny": 654,
      "Ġancient": 655,
      "Ġgold": 656,
      "Ġgolden": 657,
      "Ġbeaut": 658,
      "iful": 659,
      "Ġbeautiful": 660,
      "fu": 661,
      "Ġdog": 662,
      "be": 663,
      "lem": 664,
      "fa": 665,
      "em": 666,
      "ird": 667,
      "bo": 668,
      "st": 669,
      "go": 670,
      "Ġcat": 671,
      "Ġson": 672,
      "ec": 673,
      "Ġfo": 674,
      "rar": 675,
      "Ġbal": 676,
      "Ġlib": 677,
      "Ġrob": 678,
      "Ġbox": 679,
      "Ġtur": 680,
      "ip": 681,
      "Ġus": 682,
      "rary": 683,
      "Ġlibrary": 684,
      "rag": 685,
      "Ġfox": 686,
      "Ġboat": 687,
      "Ġbear": 688,
      "Ġres": 689,
      "adow": 690,
      "Ġshadow": 691,
      "Ġdoor": 692,
      "Ġbook": 693,
      "tor": 694,
      "Ġcloud": 695,
      "Ġturtle": 696,
      "Ġrobot": 697,
      "Ġkite": 698,
      "Ġcook": 699,
      "Ġcookie": 700,
      "Ġdrag": 701,
      "Ġdragon": 702,
      "Ġadven": 703,
      "ture": 704,
      "Ġadventure": 705,
      "Ġcake": 706,
      "Ġdat": 707,
      "Ġsong": 708,
      "Ġow": 709,
      "Ġowl": 710,
      "Ġflow": 711,
      "Ġflower": 712,
      "Ġmouse": 713,
      "Ġbird": 714,
      "Ġdream": 715,
      "Ġball": 716,
      "Ġke": 717,
      "Ġkey": 718,
      "dge": 719,
      "Ġbridge": 720,
      "Ġul": 721,
      "Ġbunny": 722,
      "Ġhat": 723,
      "Ġut": 724,
      "Ġstor": 725,
      "Ġstory": 726,
      "bu": 727,
      "ation": 728,
      "wor": 729,
      "work": 730,
      "Ġpro": 731,
      "Ġtr": 732,
      "Ġun": 733,
      "ba": 734,
      "Ġos": 735,
      "Ġet": 736,
      "Ġer": 737,
      "Ġir": 738,
      "Ġen": 739,
      "Ġel": 740,
      "bi": 741,
      "Ġur": 742,
      "Ġol": 743,
      "ex": 744,
      "ame": 745,
      "Ġve": 746,
      "Ġot": 747,
      "ding": 748,
      "pp": 749,
      "Ġapp": 750,
      "Ġil": 751,
      "av": 752,
      "ari": 753,
      "adi": 754,
      "ine": 755,
      "ode": 756,
      "ial": 757,
      "Ġcom": 758,
      "ca": 759,
      "gu": 760,
      "eri": 761,
      "cu": 762,
      "ution": 763,
      "blem": 764,
      "Ġ2": 765,
      "ard": 766,
      "and": 767,
      "hat": 768,
      "Ġdes": 769,
      "Ġvil": 770,
      "Ġcit": 771,
      "ert": 772,
      "Ġ5": 773,
      "Ġ9": 774,
      "ĠQ": 775,
      "ga": 776,
      "Ġ+": 777,
      "xo": 778,
      "Ġ8": 779,
      "Ġ7": 780,
      "Ġ4": 781,
      "Ġme": 782,
      "Ġfore": 783,
      "Ġisl": 784,
      "Ġ6": 785,
      "Ġbeach": 786,
      "Ġ3": 787,
      "Ġpar": 788,
      "cho": 789,
      "Ġscho": 790,
      "Ġschool": 791,
      "Ġlake": 792,
      "gr": 793,
      "Ġplaygr": 794,
      "Ġplayground": 795,
      "Ġgard": 796,
      "Ġgarden": 797,
      "Ġnet": 798,
      "Ġforest": 799,
      "Ġmountain": 800,
      "Ġfarm": 801,
      "Ġcave": 802,
      "Ġmead": 803,
      "Ġmeadow": 804,
      "Ġisland": 805,
      "lage": 806,
      "Ġvillage": 807,
      "Ġart": 808,
      "Ġcity": 809,
      "house": 810,
      "Ġtreehouse": 811,
      "Ġpark": 812,
      "Ġlos": 813,
      "Ġdesert": 814,
      "Ġint": 815,
      "Ġze": 816,
      "Ġhouse": 817,
      "xu": 818,
      "pe": 819,
      "Ġpe": 820,
      "xi": 821,
      "Ġce": 822,
      "ans": 823,
      "Ġatt": 824,
      "Ġpap": 825,
      "xe": 826,
      "Ġse": 827,
      "ult": 828,
      "rip": 829,
      "Ġfun": 830,
      "Ġfe": 831,
      "cien": 832,
      "ural": 833,
      "orm": 834,
      "Ġmod": 835,
      "imiz": 836,
      "Ġnu": 837,
      "Ġcode": 838,
      "eter": 839,
      "Ġvari": 840,
      "erim": 841,
      "gi": 842,
      "aset": 843,
      "put": 844,
      "angu": 845,
      "Ġanal": 846,
      "Ġalgo": 847,
      "cur": 848,
      "yst": 849,
      "Ġsyst": 850,
      "asc": 851,
      "Ġsystem": 852,
      "elli": 853,
      "mbed": 854,
      "Ġembed": 855,
      "Ġembedding": 856,
      "me": 857,
      "Ġxe": 858,
      "Ġnetwork": 859,
      "Ġdata": 860,
      "yth": 861,
      "Ġpyth": 862,
      "Ġpython": 863,
      "Ġexperim": 864,
      "Ġexperiment": 865,
      "Ġloss": 866,
      "gence": 867,
      "Ġintelli": 868,
      "Ġintelligence": 869,
      "ccur": 870,
      "Ġaccur": 871,
      "acy": 872,
      "Ġaccuracy": 873,
      "icial": 874,
      "ificial": 875,
      "Ġartificial": 876,
      "Ġneural": 877,
      "Ġcomput": 878,
      "Ġcomputer": 879,
      "sis": 880,
      "plem": 881,
      "Ġim": 882,
      "entation": 883,
      "plementation": 884,
      "Ġimplementation": 885,
      "rith": 886,
      "Ġalgorith": 887,
      "Ġalgorithm": 888,
      "Ġlearning": 889,
      "Ġsolution": 890,
      "Ġmach": 891,
      "Ġmachine": 892,
      "ct": 893,
      "Ġfunct": 894,
      "Ġfunction": 895,
      "ru": 896,
      "Ġresult": 897,
      "ken": 898,
      "Ġtoken": 899,
      "timiz": 900,
      "Ġoptimiz": 901,
      "Ġoptimization": 902,
      "hod": 903,
      "Ġmethod": 904,
      "Ġjav": 905,
      "ript": 906,
      "ascript": 907,
      "Ġjavascript": 908,
      "ch": 909,
      "earch": 910,
      "Ġresearch": 911,
      "Ġvu": 912,
      "ention": 913,
      "Ġattention": 914,
      "rame": 915,
      "Ġframe": 916,
      "Ġframework": 917,
      "ameter": 918,
      "Ġparameter": 919,
      "Ġlangu": 920,
      "Ġlanguage": 921,
      "aining": 922,
      "Ġtraining": 923,
      "radi": 924,
      "Ġgradi": 925,
      "Ġgradient": 926,
      "Ġdataset": 927,
      "able": 928,
      "Ġvariable": 929,
      "jec": 930,
      "Ġprojec": 931,
      "Ġpaper": 932,
      "Ġproject": 933,
      "Ġproblem": 934,
      "Ġdeep": 935,
      "form": 936,
      "Ġtrans": 937,
      "former": 938,
      "Ġtransformer": 939,
      "roach": 940,
      "Ġapproach": 941,
      "Ġscien": 942,
      "Ġscience": 943,
      "ysis": 944,
      "Ġanalysis": 945,
      "pi": 946,
      "Ġmodel": 947,
      "Ġge": 948,
      "po": 949,
      "Ġfu": 950,
      "Ġru": 951,
      "Ġzo": 952,
      "Ġpo": 953,
      "mo": 954,
      "Ġdu": 955,
      "ĠWhat": 956,
      "xa": 957,
      "Ġvo": 958,
      "Ġmu": 959,
      "Ġxu": 960,
      "Ġra": 961,
      "Ġga": 962,
      "Ġte": 963,
      "Ġno": 964,
      "Ġxo": 965,
      "Ġco": 966,
      "Ġlu": 967,
      "mu": 968,
      "Ġna": 969,
      "Ġma": 970,
      "mi": 971,
      "Ġfa": 972,
      "ĠĠĠ": 973,
      "use": 974,
      "so": 975,
      "Ġfi": 976,
      "Ġtu": 977,
      "Ġpa": 978,
      "Ġdi": 979,
      "our": 980,
      "Ġxa": 981,
      "Ġzu": 982,
      "Ġgu": 983,
      "Ġpu": 984,
      "sa": 985,
      "Ġsi": 986,
      "Ġpi": 987,
      "Ġsu": 988,
      "Ġ*": 989,
      "pa": 990,
      "Ġca": 991,
      "se": 992,
      "Ġbi": 993,
      "out": 994,
      "Ġda": 995,
      "pu": 996,
      "Ġva": 997,
      "Ġza": 998,
      "Ġzi": 999,
      "Ġba": 1000,
      "Ġci": 1001,
      "su": 1002,
      "ne": 1003,
      "Ġxi": 1004,
      "Ġmi": 1005,
      "Ġget": 1006,
      "no": 1007,
      "du": 1008,
      "na": 1009,
      "de": 1010,
      "nu": 1011,
      "te": 1012,
      "Ġta": 1013,
      "int": 1014,
      "Ġti": 1015,
      "Ġvi": 1016,
      "oso": 1017,
      "ala": 1018,
      "Ġapples": 1019,
      "):": 1020,
      "Ġtimes": 1021,
      "rint": 1022,
      "Ġprint": 1023,
      "Ġadding": 1024,
      "ni": 1025,
      "'s": 1026,
      "..": 1027,
      "da": 1028,
      "di": 1029,
      "upe": 1030,
      "ti": 1031,
      "axe": 1032,
      "to": 1033,
      "ta": 1034,
      "uge": 1035,
      "ĠP": 1036,
      "Ġof": 1037,
      "ucu": 1038,
      "elf": 1039,
      "uga": 1040,
      "do": 1041,
      "ona": 1042,
      "ope": 1043,
      "ono": 1044,
      "ogi": 1045,
      "udo": 1046,
      "enu": 1047,
      "udu": 1048,
      "olu": 1049,
      "apo": 1050,
      "ati": 1051,
      "ugu": 1052,
      "one": 1053,
      "opo": 1054,
      "Ġdef": 1055,
      "eca": 1056,
      "oul": 1057,
      "umu": 1058,
      "acu": 1059,
      "onu": 1060,
      "ugi": 1061,
      "si": 1062,
      "are": 1063,
      "abe": 1064,
      "ota": 1065,
      "ede": 1066,
      "idu": 1067,
      "ulu": 1068,
      "Ġ-": 1069,
      "ado": 1070,
      "umi": 1071,
      "utu": 1072,
      "ape": 1073,
      "oxe": 1074,
      "aca": 1075,
      "oto": 1076,
      "apa": 1077,
      "uta": 1078,
      "ene": 1079,
      "usu": 1080,
      "upu": 1081,
      "une": 1082,
      "uco": 1083,
      "inu": 1084,
      "ada": 1085,
      "upo": 1086,
      "osi": 1087,
      "ime": 1088,
      "ago": 1089,
      "oru": 1090,
      "abu": 1091,
      "oti": 1092,
      "ato": 1093,
      "ula": 1094,
      "ina": 1095,
      "ose": 1096,
      "adu": 1097,
      "abo": 1098,
      "ama": 1099,
      "ixo": 1100,
      "edo": 1101,
      "uli": 1102,
      "alu": 1103,
      "ido": 1104,
      "ulo": 1105,
      "osa": 1106,
      "uci": 1107,
      "iza": 1108,
      "ube": 1109,
      "Ġ10": 1110,
      "aro": 1111,
      "ane": 1112,
      "omo": 1113,
      "eso": 1114,
      "oda": 1115,
      "ese": 1116,
      "agi": 1117,
      "asi": 1118,
      "ano": 1119,
      "uxe": 1120,
      "aci": 1121,
      "axu": 1122,
      "ate": 1123,
      "olo": 1124,
      "oma": 1125,
      "alo": 1126,
      "ute": 1127,
      "aba": 1128,
      "upa": 1129,
      "ubi": 1130,
      "ige": 1131,
      "epa": 1132,
      "ipo": 1133,
      "iti": 1134,
      "ase": 1135,
      "agu": 1136,
      "upi": 1137,
      "umo": 1138,
      "ino": 1139,
      "oge": 1140,
      "ifi": 1141,
      "Ġret": 1142,
      "eda": 1143,
      "aso": 1144,
      "ĠHow": 1145,
      "eru": 1146,
      "osu": 1147,
      "aga": 1148,
      "uda": 1149,
      "axo": 1150,
      "igu": 1151,
      "icu": 1152,
      "Ġadd": 1153,
      "uma": 1154,
      "ubo": 1155,
      "atu": 1156,
      "oni": 1157,
      "uca": 1158,
      "imo": 1159,
      "uro": 1160,
      "ici": 1161,
      "iru": 1162,
      "udi": 1163,
      "ola": 1164,
      "uxo": 1165,
      "edu": 1166,
      "asu": 1167,
      "api": 1168,
      "oxo": 1169,
      "uru": 1170,
      "ubu": 1171,
      "iro": 1172,
      "amo": 1173,
      "uxu": 1174,
      "izu": 1175,
      "urn": 1176,
      "ixa": 1177,
      "apu": 1178,
      "ela": 1179,
      "opu": 1180,
      "ipu": 1181,
      "ali": 1182,
      "eni": 1183,
      "ila": 1184,
      "ifo": 1185,
      "idi": 1186,
      "edi": 1187,
      "aru": 1188,
      "ide": 1189,
      "ilu": 1190,
      "eno": 1191,
      "ica": 1192,
      "ira": 1193,
      "odu": 1194,
      "igo": 1195,
      "esi": 1196,
      "oxi": 1197,
      "oli": 1198,
      "isu": 1199,
      "ifu": 1200,
      "iso": 1201,
      "ami": 1202,
      "Ġ11": 1203,
      "ise": 1204,
      "izo": 1205,
      "self": 1206,
      "ogo": 1207,
      "odo": 1208,
      "itu": 1209,
      "abi": 1210,
      "}\"": 1211,
      "Ġ{": 1212,
      "ifa": 1213,
      "uba": 1214,
      "uxa": 1215,
      "omi": 1216,
      "Ġ12": 1217,
      "ito": 1218,
      "ini": 1219,
      "uto": 1220,
      "ize": 1221,
      "Ġreturn": 1222,
      "opi": 1223,
      "izi": 1224,
      "ata": 1225,
      "usi": 1226,
      "imu": 1227,
      "etu": 1228,
      "uxi": 1229,
      "opa": 1230,
      "era": 1231,
      "uti": 1232,
      "ogu": 1233,
      "ita": 1234,
      "uni": 1235,
      "esu": 1236,
      "aco": 1237,
      "ena": 1238,
      "uso": 1239,
      "iga": 1240,
      "ura": 1241,
      "isi": 1242,
      "elu": 1243,
      "oxu": 1244,
      "uno": 1245,
      "ico": 1246,
      "asa": 1247,
      "elo": 1248,
      "ixe": 1249,
      "epu": 1250,
      "esa": 1251,
      "ara": 1252,
      "otu": 1253,
      "Ġmore": 1254,
      "epo": 1255,
      "usa": 1256,
      "axi": 1257,
      "Ġ13": 1258,
      "axa": 1259,
      "ume": 1260,
      "ife": 1261,
      "omu": 1262,
      "Ġnex": 1263,
      "Ġi": 1264,
      "Ġ14": 1265,
      "ipi": 1266,
      "Ġleg": 1267,
      "ani": 1268,
      "ixu": 1269,
      "amu": 1270,
      "oro": 1271,
      "anu": 1272,
      "eta": 1273,
      "ida": 1274,
      "ero": 1275,
      "isa": 1276,
      "Ġlove": 1277,
      "Ġhow": 1278,
      "ĠIf": 1279,
      "ana": 1280,
      "odi": 1281,
      "Ġ15": 1282,
      "Ġ?": 1283,
      "ink": 1284,
      "olution": 1285,
      "ĠSolution": 1286,
      "Ġequ": 1287,
      "Ġthink": 1288,
      "roblem": 1289,
      "ĠProblem": 1290,
      "Ġequals": 1291,
      "'m": 1292,
      "ĠThat": 1293,
      "ust": 1294,
      "ĠHi": 1295,
      "ĠWow": 1296,
      "Ġjust": 1297,
      "unu": 1298,
      "Ġif": 1299,
      "Ġ..": 1300,
      "ĠAft": 1301,
      "ĠCount": 1302,
      "Ġcomes": 1303,
      "Ġnext": 1304,
      "Ġ...": 1305,
      "ĠAfter": 1306,
      "exe": 1307,
      "ima": 1308,
      "Ġthem": 1309,
      "ĠBeca": 1310,
      "ĠBecause": 1311,
      "ĠLet": 1312,
      "Ġbring": 1313,
      "ĠYes": 1314,
      "ĠDo": 1315,
      "otal": 1316,
      "igi": 1317,
      "epi": 1318,
      "epe": 1319,
      "Ġcap": 1320,
      "ecu": 1321,
      "Ġ16": 1322,
      "ber": 1323,
      "oxa": 1324,
      "eti": 1325,
      "imi": 1326,
      "ipa": 1327,
      "ete": 1328,
      "ixi": 1329,
      "ran": 1330,
      "Ġ17": 1331,
      "name": 1332,
      "lel": 1333,
      "eto": 1334,
      "ler": 1335,
      "eli": 1336,
      "emi": 1337,
      "Ġ18": 1338,
      "exa": 1339,
      "ili": 1340,
      "__": 1341,
      "ĠĠĠĠ": 1342,
      "ĠĠĠĠĠĠĠ": 1343,
      "light": 1344,
      "Ġsunlight": 1345,
      "ants": 1346,
      "Ġneed": 1347,
      "ital": 1348,
      "ĠFran": 1349,
      "Ġcapital": 1350,
      "ĠFrance": 1351,
      "exu": 1352,
      "umber": 1353,
      "umbers": 1354,
      "}\")": 1355,
      "exo": 1356,
      "Ġlegs": 1357,
      "))": 1358,
      "Ġ#": 1359,
      "even": 1360,
      "Ġ19": 1361,
      "oga": 1362,
      "emo": 1363,
      "let": 1364,
      "ret": 1365,
      "rit": 1366,
      "Ġu": 1367,
      "Ġunn": 1368,
      "ipe": 1369,
      "Ġsum": 1370,
      "olor": 1371,
      "init": 1372,
      "10": 1373,
      "emu": 1374,
      "rer": 1375,
      "eme": 1376,
      "exi": 1377,
      "12": 1378,
      "reet": 1379,
      "rel": 1380,
      "Ġild": 1381,
      "rir": 1382,
      "otos": 1383,
      "aris": 1384,
      "Ġtot": 1385,
      "13": 1386,
      "Ġfor": 1387,
      "15": 1388,
      "Ġdur": 1389,
      "ass": 1390,
      "14": 1391,
      "18": 1392,
      "16": 1393,
      "17": 1394,
      "ril": 1395,
      "ange": 1396,
      "Ġfour": 1397,
      "Ġven": 1398,
      "19": 1399,
      "Ġcolor": 1400,
      "Ġduring": 1401,
      "Hi": 1402,
      "Ġ__": 1403,
      "Ġam": 1404,
      "Ġself": 1405,
      "Ġgreet": 1406,
      "Ġclass": 1407,
      "__(": 1408,
      "hy": 1409,
      "hotos": 1410,
      "lants": 1411,
      "nt": 1412,
      "rou": 1413,
      "ynt": 1414,
      "Ġphotos": 1415,
      "Ġplants": 1416,
      "Ġthrou": 1417,
      "ĠWhy": 1418,
      "hesis": 1419,
      "Ġfood": 1420,
      "ĠPlants": 1421,
      "ynthesis": 1422,
      "Ġphotosynthesis": 1423,
      "Ġthrough": 1424,
      "ĠParis": 1425,
      "Ġ20": 1426,
      "20": 1427,
      "Total": 1428,
      "numbers": 1429,
      "total": 1430,
      "Ġ[": 1431,
      "Ġnumbers": 1432,
      "Ġtotal": 1433,
      "Ġrange": 1434,
      "Ġ98": 1435,
      "Ġdoes": 1436,
      "add": 1437,
      "Ġprints": 1438,
      "Ġ%": 1439,
      "Ġ0": 1440,
      "Ġ==": 1441,
      "Ġves": 1442,
      "Ġvus": 1443,
      "Ġ88": 1444,
      "Ġ93": 1445,
      "Ġ94": 1446,
      "ees": 1447,
      "Ġhone": 1448,
      "ĠBees": 1449,
      "Ġbees": 1450,
      "Ġhoney": 1451,
      "Ġ96": 1452,
      "Ġ58": 1453,
      "inge": 1454,
      "Ġ73": 1455,
      "Ġ99": 1456,
      "Ġros": 1457,
      "Ġ79": 1458,
      "Ġ87": 1459,
      "Ġ74": 1460,
      "Ġ90": 1461,
      "Ġ69": 1462,
      "Ġ83": 1463,
      "Ġ77": 1464,
      "Ġ78": 1465,
      "Ġ80": 1466,
      "Ġ53": 1467,
      "Ġ89": 1468,
      "Ġ44": 1469,
      "Ġ68": 1470,
      "Ġ76": 1471,
      "Ġ67": 1472,
      "Ġ92": 1473,
      "Ġ75": 1474,
      "Ġ59": 1475,
      "Ġ85": 1476,
      "Ġ49": 1477,
      "Ġ43": 1478,
      "Ġ60": 1479,
      "Ġ29": 1480,
      "Ġ64": 1481,
      "Ġ84": 1482,
      "Ġ35": 1483,
      "Ġ86": 1484,
      "Ġ24": 1485,
      "Ġ65": 1486,
      "Ġ55": 1487,
      "Ġ95": 1488,
      "Ġ97": 1489,
      "Ġzid": 1490,
      "Ġnub": 1491,
      "Ġ70": 1492,
      "Ġ63": 1493,
      "Ġ40": 1494,
      "Ġ54": 1495,
      "Ġ34": 1496,
      "Ġ33": 1497,
      "Ġ38": 1498,
      "Ġ66": 1499,
      "Ġ57": 1500,
      "Ġ50": 1501,
      "Ġrid": 1502,
      "Ġ28": 1503,
      "Ġ62": 1504,
      "Ġird": 1505,
      "Ġpeg": 1506,
      "Ġ56": 1507,
      "Ġ72": 1508,
      "Ġ30": 1509,
      "Ġ47": 1510,
      "Ġ82": 1511,
      "Ġ39": 1512,
      "Ġ36": 1513,
      "Ġ26": 1514,
      "Ġnig": 1515,
      "Ġ48": 1516,
      "Ġ37": 1517,
      "Ġurp": 1518,
      "Ġ52": 1519,
      "Ġ23": 1520,
      "Ġ27": 1521,
      "Ġ46": 1522,
      "Ġ45": 1523,
      "Ġnin": 1524,
      "Ġ42": 1525,
      "Ġ22": 1526,
      "Ġrez": 1527,
      "Ġ25": 1528,
      "Ġenn": 1529,
      "Ġ32": 1530,
      "Ġetf": 1531,
      "Ġfid": 1532,
      "Ġanb": 1533,
      "Ġonp": 1534,
      "Ġatg": 1535,
      "Ġzal": 1536,
      "11": 1537,
      "Ġels": 1538,
      "Ġorm": 1539,
      "Ġfip": 1540,
      "Ġbol": 1541,
      "Ġxud": 1542,
      "Ġgif": 1543,
      "Ġcid": 1544,
      "Ġdiz": 1545,
      "Ġmux": 1546,
      "Ġxar": 1547,
      "Ġlop": 1548,
      "Ġzip": 1549,
      "Ġpad": 1550,
      "Ġgaz": 1551,
      "Ġxap": 1552,
      "Ġots": 1553,
      "Ġbeg": 1554,
      "Ġfiil": 1555,
      "Ġvab": 1556,
      "Ġsev": 1557,
      "Ġtet": 1558,
      "Ġald": 1559,
      "Ġver": 1560,
      "Ġdic": 1561,
      "Ġnem": 1562,
      "orde": 1563,
      "isli": 1564,
      "Ġgup": 1565,
      "Ġmid": 1566,
      "Ġfog": 1567,
      "Ġxox": 1568,
      "Ġtut": 1569,
      "Ġlas": 1570,
      "Ġxot": 1571,
      "Ġmit": 1572,
      "Ġend": 1573,
      "Ġtam": 1574,
      "Ġmof": 1575,
      "Ġ100": 1576,
      "Ġfes": 1577,
      "Ġoss": 1578,
      "Ġtux": 1579,
      "Ġmaos": 1580,
      "Ġost": 1581,
      "Ġbus": 1582,
      "Ġsiz": 1583,
      "Ġmad": 1584,
      "Ġotut": 1585,
      "Ġdoz": 1586,
      "anro": 1587,
      "Ġpen": 1588,
      "Ġpux": 1589,
      "Ġarn": 1590,
      "Ġfupe": 1591,
      "Ġzeot": 1592,
      "Ġvug": 1593,
      "Ġnoz": 1594,
      "Ġzod": 1595,
      "Ġsus": 1596,
      "fudo": 1597,
      "Ġdug": 1598,
      "Ġfos": 1599,
      "Ġonc": 1600,
      "Ġurg": 1601,
      "leor": 1602,
      "Ġriz": 1603,
      "Ġmig": 1604,
      "Ġotp": 1605,
      "olca": 1606,
      "Ġxic": 1607,
      "Ġxum": 1608,
      "Ġdan": 1609,
      "zaun": 1610,
      "Ġzuc": 1611,
      "Ġdir": 1612,
      "Ġgive": 1613,
      "Ġzup": 1614,
      "Ġzael": 1615,
      "Ġirp": 1616,
      "Ġdif": 1617,
      "Ġrin": 1618,
      "Ġetel": 1619,
      "Ġlom": 1620,
      "Ġasg": 1621,
      "Ġmab": 1622,
      "unvo": 1623,
      "Ġtag": 1624,
      "usit": 1625,
      "Ġlem": 1626,
      "Ġdet": 1627,
      "Ġitg": 1628,
      "Ġfax": 1629,
      "Ġpes": 1630,
      "Ġosz": 1631,
      "Ġleil": 1632,
      "Ġxeg": 1633,
      "Ġenge": 1634,
      "leir": 1635,
      "Ġuls": 1636,
      "Ġdam": 1637,
      "Ġpir": 1638,
      "Ġnido": 1639,
      "Ġzin": 1640,
      "Ġzot": 1641,
      "Ġilt": 1642,
      "Ġgum": 1643,
      "Ġfev": 1644,
      "Ġzis": 1645,
      "Ġgat": 1646,
      "Ġbuar": 1647,
      "Ġcos": 1648,
      "Ġzux": 1649,
      "Ġned": 1650,
      "94": 1651,
      "Ġzam": 1652,
      "rial": 1653,
      "Ġmoc": 1654,
      "96": 1655,
      "42": 1656,
      "85": 1657,
      "86": 1658,
      "70": 1659,
      "Ġutb": 1660,
      "cef": 1661,
      "Ġetd": 1662,
      "ardi": 1663,
      "itse": 1664,
      "Ġlap": 1665,
      "Ġrane": 1666,
      "Ġtir": 1667,
      "Ġpep": 1668,
      "Ġurt": 1669,
      "74": 1670,
      "zuf": 1671,
      "72": 1672,
      "33": 1673,
      "Ġonna": 1674,
      "92": 1675,
      "anbi": 1676,
      "Ġ81": 1677,
      "Ġpoc": 1678,
      "Ġ91": 1679,
      "Ġteos": 1680,
      "Ġrun": 1681,
      "onfo": 1682,
      "Ġcot": 1683,
      "Ġdos": 1684,
      "orin": 1685,
      "Ġvaus": 1686,
      "Ġpub": 1687,
      "Ġ61": 1688,
      "Ġliul": 1689,
      "Ġmano": 1690,
      "Ġxuz": 1691,
      "Ġboma": 1692,
      "Ġmov": 1693,
      "Ġraf": 1694,
      "84": 1695,
      "anf": 1696,
      "95": 1697,
      "Ġutm": 1698,
      "Ġtex": 1699,
      "80": 1700,
      "Ġatin": 1701,
      "Ġirm": 1702,
      "Ġmut": 1703,
      "Ġnap": 1704,
      "73": 1705,
      "Ġpet": 1706,
      "Ġulg": 1707,
      "90": 1708,
      "Ġinlo": 1709,
      "Ġvon": 1710,
      "Ġnavi": 1711,
      "Ġlour": 1712,
      "Ġvize": 1713,
      "Ġdoc": 1714,
      "Ġdum": 1715,
      "Ġdar": 1716,
      "Ġgil": 1717,
      "Ġvita": 1718,
      "83": 1719,
      "Ġbos": 1720,
      "Ġtul": 1721,
      "Ġcax": 1722,
      "Ġorg": 1723,
      "Ġolm": 1724,
      "Ġvov": 1725,
      "Ġmat": 1726,
      "Ġtoc": 1727,
      "elat": 1728,
      "Ġraz": 1729,
      "Ġles": 1730,
      "Ġdin": 1731,
      "Ġxes": 1732,
      "Ġolp": 1733,
      "Ġzap": 1734,
      "Ġzar": 1735,
      "Ġosil": 1736,
      "Ġfaf": 1737,
      "Ġmeb": 1738,
      "Ġciot": 1739,
      "Ġanlo": 1740,
      "Ġxid": 1741,
      "66": 1742,
      "Ġmaun": 1743,
      "ont": 1744,
      "Ġzul": 1745,
      "Ġsix": 1746,
      "Ġfux": 1747,
      "Ġanp": 1748,
      "Ġrus": 1749,
      "Ġort": 1750,
      "Ġbofi": 1751,
      "93": 1752,
      "Ġbar": 1753,
      "osdu": 1754,
      "54": 1755,
      "Ġpox": 1756,
      "Ġsaut": 1757,
      "Ġvosa": 1758,
      "Ġeron": 1759,
      "Ġbim": 1760,
      "Ġzun": 1761,
      "Ġvom": 1762,
      "Ġfuz": 1763,
      "Ġrub": 1764,
      "zoal": 1765,
      "Ġusf": 1766,
      "Ġxat": 1767,
      "Ġvez": 1768,
      "Ġmup": 1769,
      "Ġpat": 1770,
      "Ġsef": 1771,
      "Ġcem": 1772,
      "Ġuner": 1773,
      "baas": 1774,
      "Ġgeg": 1775,
      "Ġsib": 1776,
      "atxu": 1777,
      "Ġdit": 1778,
      "Ġurb": 1779,
      "Ġpef": 1780,
      "82": 1781,
      "Ġalx": 1782,
      "Ġsud": 1783,
      "Ġalb": 1784,
      "Ġerme": 1785,
      "Ġunm": 1786,
      "faer": 1787,
      "Ġunne": 1788,
      "Ġbun": 1789,
      "inpi": 1790,
      "Ġpuc": 1791,
      "Ġuln": 1792,
      "Ġutt": 1793,
      "zude": 1794,
      "feon": 1795,
      "Ġunil": 1796,
      "Ġbub": 1797,
      "Ġorfo": 1798,
      "Ġsed": 1799,
      "Ġbuf": 1800,
      "Ġgof": 1801,
      "Ġung": 1802,
      "Ġmoz": 1803,
      "Ġmon": 1804,
      "Ġbec": 1805,
      "anul": 1806,
      "Ġ71": 1807,
      "Ġdiot": 1808,
      "60": 1809,
      "Ġrulo": 1810,
      "Ġass": 1811,
      "Ġutp": 1812,
      "Ġtan": 1813,
      "50": 1814,
      "52": 1815,
      "Ġoln": 1816,
      "Ġlole": 1817,
      "Ġdox": 1818,
      "uron": 1819,
      "62": 1820,
      "Ġgux": 1821,
      "Ġzud": 1822,
      "Ġleus": 1823,
      "Ġerv": 1824,
      "Ġduf": 1825,
      "Ġbivi": 1826,
      "zebo": 1827,
      "Ġsem": 1828,
      "Ġfuv": 1829,
      "Ġeln": 1830,
      "Ġvum": 1831,
      "Ġzosu": 1832,
      "Ġnos": 1833,
      "Ġrala": 1834,
      "Ġorn": 1835,
      "Ġgob": 1836,
      "Ġmud": 1837,
      "alta": 1838,
      "Ġusat": 1839,
      "Ġtuc": 1840,
      "Ġgub": 1841,
      "ĠFals": 1842,
      "ĠFalse": 1843,
      "Ġnad": 1844,
      "ĠTru": 1845,
      "alon": 1846,
      "ĠTrue": 1847,
      "Ġ41": 1848,
      "Ġnuut": 1849,
      "Ġnog": 1850,
      "Ġ51": 1851,
      "Ġvog": 1852,
      "Ġpup": 1853,
      "Ġbafo": 1854,
      "87": 1855,
      "Ġetot": 1856,
      "Ġlalu": 1857,
      "97": 1858,
      "Ġtif": 1859,
      "Ġgap": 1860,
      "Ġonb": 1861,
      "Ġirc": 1862,
      "23": 1863,
      "Ġboc": 1864,
      "40": 1865,
      "63": 1866,
      "88": 1867,
      "Ġxaat": 1868,
      "lece": 1869,
      "Ġduz": 1870,
      "91": 1871,
      "uran": 1872,
      "56": 1873,
      "77": 1874,
      "Ġgun": 1875,
      "98": 1876,
      "Ġ21": 1877,
      "53": 1878,
      "43": 1879,
      "Ġasbe": 1880,
      "Ġfav": 1881,
      "Ġzool": 1882,
      "Ġbel": 1883,
      "algo": 1884,
      "Ġenf": 1885,
      "Ġnag": 1886,
      "Ġmeus": 1887,
      "58": 1888,
      "etni": 1889,
      "risa": 1890,
      "utor": 1891,
      "Ġsif": 1892,
      "Ġdoce": 1893,
      "26": 1894,
      "Ġgeot": 1895,
      "57": 1896,
      "Ġfier": 1897,
      "Ġbug": 1898,
      "Ġruc": 1899,
      "Ġneun": 1900,
      "Ġgiz": 1901,
      "five": 1902,
      "Ġerz": 1903,
      "Ġtar": 1904,
      "Ġinfi": 1905,
      "Ġbot": 1906,
      "Ġlan": 1907,
      "Ġvig": 1908,
      "44": 1909,
      "iret": 1910,
      "Ġasp": 1911,
      "Ġ31": 1912,
      "lebo": 1913,
      "Ġisd": 1914,
      "Ġulp": 1915,
      "Ġruan": 1916,
      "Ġerg": 1917,
      "asre": 1918,
      "Ġdep": 1919,
      "Ġinv": 1920,
      "99": 1921,
      "ilel": 1922,
      "Ġbaba": 1923,
      "Ġvec": 1924,
      "Ġsuis": 1925,
      "30": 1926,
      "fear": 1927,
      "itno": 1928,
      "Ġxuel": 1929,
      "Ġlis": 1930,
      "Ġfiz": 1931,
      "Ġnail": 1932,
      "76": 1933,
      "Ġinge": 1934,
      "Ġfin": 1935,
      "Ġanc": 1936,
      "Ġpit": 1937,
      "Ġgig": 1938,
      "Ġvean": 1939,
      "Ġtit": 1940,
      "Ġtun": 1941,
      "Ġcuel": 1942,
      "reur": 1943,
      "Ġdim": 1944,
      "Ġulz": 1945,
      "Ġosr": 1946,
      "Ġbiis": 1947,
      "Ġpig": 1948,
      "Ġrag": 1949,
      "Ġsad": 1950,
      "Ġcune": 1951,
      "Ġrube": 1952,
      "alsi": 1953,
      "Ġzez": 1954,
      "Ġmuas": 1955,
      "Ġnux": 1956,
      "Ġusn": 1957,
      "Ġpaf": 1958,
      "Ġmed": 1959,
      "Ġdel": 1960,
      "Ġitr": 1961,
      "Ġgaol": 1962,
      "46": 1963,
      "Ġsam": 1964,
      "Ġleat": 1965,
      "Ġalce": 1966,
      "faza": 1967,
      "Ġmiv": 1968,
      "atve": 1969,
      "Ġpisu": 1970,
      "Ġxun": 1971,
      "Ġzer": 1972,
      "Ġveas": 1973,
      "Ġdid": 1974,
      "Ġpeco": 1975,
      "Ġvuze": 1976,
      "Ġxuus": 1977,
      "Ġdol": 1978,
      "etgu": 1979,
      "elmo": 1980,
      "Ġzoil": 1981,
      "22": 1982,
      "Ġolel": 1983,
      "Ġatb": 1984,
      "Ġlefu": 1985,
      "Ġcux": 1986,
      "Ġosso": 1987,
      "Ġfeer": 1988,
      "Ġarol": 1989,
      "Ġsovo": 1990,
      "78": 1991,
      "Ġtab": 1992,
      "Ġbit": 1993,
      "Ġcoso": 1994,
      "Ġgod": 1995,
      "Ġrul": 1996,
      "fef": 1997,
      "Ġotz": 1998,
      "Ġbib": 1999,
      "Ġguc": 2000,
      "Ġnut": 2001,
      "Ġsaat": 2002,
      "Ġvot": 2003,
      "Ġguis": 2004,
      "Ġpib": 2005,
      "Ġlut": 2006,
      "Ġfuc": 2007,
      "Ġdax": 2008,
      "Ġpal": 2009,
      "Ġren": 2010,
      "Ġvas": 2011,
      "Ġulor": 2012,
      "Ġirar": 2013,
      "vulo": 2014,
      "Ġutn": 2015,
      "Ġraer": 2016,
      "Ġbuc": 2017,
      "enun": 2018,
      "Ġlais": 2019,
      "Ġerd": 2020,
      "Ġirin": 2021,
      "Ġmeel": 2022,
      "isga": 2023,
      "Ġvid": 2024,
      "Ġenis": 2025,
      "Ġilpe": 2026,
      "Ġful": 2027,
      "olvi": 2028,
      "Ġvag": 2029,
      "Ġinur": 2030,
      "Ġent": 2031,
      "Ġmes": 2032,
      "vail": 2033,
      "Ġing": 2034,
      "Ġreb": 2035,
      "Ġreis": 2036,
      "Ġbuen": 2037,
      "Ġderi": 2038,
      "Ġmex": 2039,
      "Ġasun": 2040,
      "Ġutl": 2041,
      "Ġparo": 2042,
      "Ġruun": 2043,
      "Ġloun": 2044,
      "Ġtod": 2045,
      "Ġfet": 2046,
      "Ġzic": 2047,
      "Ġgip": 2048,
      "Ġbuut": 2049,
      "Ġpaas": 2050,
      "Ġtas": 2051,
      "Ġsour": 2052,
      "Ġpizu": 2053,
      "Ġanve": 2054,
      "Ġzogi": 2055,
      "zuot": 2056,
      "Ġzem": 2057,
      "Ġenvo": 2058,
      "Ġbelo": 2059,
      "Ġcaet": 2060,
      "Ġbag": 2061,
      "alol": 2062,
      "Ġatxi": 2063,
      "Ġelet": 2064,
      "Ġasit": 2065,
      "Ġxez": 2066,
      "Ġlun": 2067,
      "asel": 2068,
      "onxo": 2069,
      "Ġxiet": 2070,
      "Ġinz": 2071,
      "Ġaln": 2072,
      "cepu": 2073,
      "Ġvix": 2074,
      "voat": 2075,
      "Ġalm": 2076,
      "Ġolv": 2077,
      "Ġluar": 2078,
      "Ġnim": 2079,
      "ulp": 2080,
      "Ġzon": 2081,
      "Ġuld": 2082,
      "Ġenut": 2083,
      "Ġilnu": 2084,
      "Ġnuul": 2085,
      "Ġvobe": 2086,
      "Ġteg": 2087,
      "45": 2088,
      "Ġlar": 2089,
      "Ġdut": 2090,
      "ulvo": 2091,
      "Ġont": 2092,
      "Ġenp": 2093,
      "Ġduor": 2094,
      "Ġnaz": 2095,
      "Ġilel": 2096,
      "arma": 2097,
      "ulit": 2098,
      "Ġulm": 2099,
      "Ġilf": 2100,
      "Ġseen": 2101,
      "Ġmaf": 2102,
      "Ġtesi": 2103,
      "Ġcut": 2104,
      "Ġnon": 2105,
      "Ġnus": 2106,
      "Ġmog": 2107,
      "Ġcus": 2108,
      "Ġnip": 2109,
      "Ġarpe": 2110,
      "Ġnoat": 2111,
      "Ġbog": 2112,
      "Ġfic": 2113,
      "orva": 2114,
      "Ġvam": 2115,
      "Ġriru": 2116,
      "Ġorx": 2117,
      "Ġxuin": 2118,
      "Ġnoos": 2119,
      "otno": 2120,
      "Ġrep": 2121,
      "Ġlav": 2122,
      "Ġgeze": 2123,
      "81": 2124,
      "Ġvif": 2125,
      "Ġxib": 2126,
      "Ġlacu": 2127,
      "vebo": 2128,
      "Ġcig": 2129,
      "eran": 2130,
      "fuun": 2131,
      "Ġusz": 2132,
      "Ġluot": 2133,
      "Ġzufu": 2134,
      "Ġcalu": 2135,
      "ilos": 2136,
      "fevo": 2137,
      "foor": 2138,
      "Ġenb": 2139,
      "Ġmug": 2140,
      "Ġgapu": 2141,
      "Ġcuf": 2142,
      "Ġpoan": 2143,
      "Ġten": 2144,
      "Ġusl": 2145,
      "Ġxuis": 2146,
      "Ġmaas": 2147,
      "Ġbedo": 2148,
      "anot": 2149,
      "Ġnar": 2150,
      "Ġvade": 2151,
      "Ġniol": 2152,
      "Ġdaal": 2153,
      "Ġlon": 2154,
      "Ġfesa": 2155,
      "Ġgiro": 2156,
      "Ġfavu": 2157,
      "55": 2158,
      "Ġter": 2159,
      "Ġgivu": 2160,
      "Ġuser": 2161,
      "Ġbif": 2162,
      "Ġriut": 2163,
      "Ġalt": 2164,
      "Ġirfe": 2165,
      "Ġteir": 2166,
      "Ġlag": 2167,
      "Ġfol": 2168,
      "Ġitz": 2169,
      "Ġxop": 2170,
      "viba": 2171,
      "47": 2172,
      "Ġcub": 2173,
      "osus": 2174,
      "Ġmos": 2175,
      "uspi": 2176,
      "Ġmaol": 2177,
      "Ġzile": 2178,
      "inur": 2179,
      "Ġsox": 2180,
      "Ġbefe": 2181,
      "zale": 2182,
      "Ġxuut": 2183,
      "Ġcic": 2184,
      "Ġdul": 2185,
      "Ġzav": 2186,
      "Ġalp": 2187,
      "Ġmuc": 2188,
      "Ġater": 2189,
      "Ġrof": 2190,
      "Ġcate": 2191,
      "Ġils": 2192,
      "onpo": 2193,
      "Ġusx": 2194,
      "Ġunis": 2195,
      "Ġxaon": 2196,
      "36": 2197,
      "Ġgid": 2198,
      "Ġnote": 2199,
      "Ġnef": 2200,
      "Ġelin": 2201,
      "onvu": 2202,
      "Ġxad": 2203,
      "Ġnix": 2204,
      "Ġmin": 2205,
      "Ġbeil": 2206,
      "Ġsut": 2207,
      "48": 2208,
      "Ġatus": 2209,
      "Ġrior": 2210,
      "Ġuts": 2211,
      "Ġseut": 2212,
      "Ġist": 2213,
      "Ġreun": 2214,
      "orno": 2215,
      "Ġdeg": 2216,
      "Ġers": 2217,
      "Ġgoso": 2218,
      "otru": 2219,
      "Ġgazi": 2220,
      "Ġlid": 2221,
      "Ġnite": 2222,
      "25": 2223,
      "Ġrafe": 2224,
      "Ġgec": 2225,
      "Ġsab": 2226,
      "Ġsudu": 2227,
      "Ġarb": 2228,
      "Ġnaf": 2229,
      "Ġlolu": 2230,
      "Ġdil": 2231,
      "Ġetpi": 2232,
      "Ġruvu": 2233,
      "Ġins": 2234,
      "anto": 2235,
      "ilut": 2236,
      "Ġotor": 2237,
      "uus": 2238,
      "Ġbeat": 2239,
      "Ġgobe": 2240,
      "Ġbebe": 2241,
      "Ġmalu": 2242,
      "Ġbez": 2243,
      "Ġetc": 2244,
      "Ġvex": 2245,
      "Ġgib": 2246,
      "75": 2247,
      "Ġlox": 2248,
      "Ġtova": 2249,
      "Ġerni": 2250,
      "ulat": 2251,
      "Ġzir": 2252,
      "71": 2253,
      "79": 2254,
      "Ġsel": 2255,
      "Ġsop": 2256,
      "Ġruz": 2257,
      "Ġzen": 2258,
      "Ġniba": 2259,
      "49": 2260,
      "Ġfoas": 2261,
      "Ġetun": 2262,
      "41": 2263,
      "Ġzif": 2264,
      "Ġirt": 2265,
      "68": 2266,
      "inlo": 2267,
      "valu": 2268,
      "59": 2269,
      "51": 2270,
      "Ġfaal": 2271,
      "61": 2272,
      "Ġvos": 2273,
      "39": 2274,
      "27": 2275,
      "Ġgidu": 2276,
      "Ġuldo": 2277,
      "29": 2278,
      "anma": 2279,
      "24": 2280,
      "37": 2281,
      "Ġbuin": 2282,
      "Ġitnu": 2283,
      "Ġull": 2284,
      "21": 2285,
      "00": 2286,
      "Ġatp": 2287,
      "65": 2288,
      "31": 2289,
      "guin": 2290,
      "Ġpivu": 2291,
      "ilmu": 2292,
      "fob": 2293,
      "Ġtace": 2294,
      "69": 2295,
      "ulda": 2296,
      "89": 2297,
      "Ġdopa": 2298,
      "Ġfeul": 2299,
      "Ġnir": 2300,
      "Ġvore": 2301,
      "Ġmuv": 2302,
      "Ġzuot": 2303,
      "Ġvair": 2304,
      "35": 2305,
      "Ġfici": 2306,
      "Ġzeze": 2307,
      "Ġbaos": 2308,
      "Ġcipa": 2309,
      "Ġenc": 2310,
      "Ġilme": 2311,
      "Ġsubi": 2312,
      "Ġmien": 2313,
      "Ġces": 2314,
      "Ġpof": 2315,
      "Ġvoc": 2316,
      "Ġvivu": 2317,
      "Ġduma": 2318,
      "Ġrupa": 2319,
      "Ġpide": 2320,
      "vael": 2321,
      "Ġgav": 2322,
      "erce": 2323,
      "Ġrux": 2324,
      "Ġruca": 2325,
      "Ġitre": 2326,
      "Ġonil": 2327,
      "Ġorc": 2328,
      "Ġcef": 2329,
      "Ġnuun": 2330,
      "Ġgion": 2331,
      "Ġpoat": 2332,
      "Ġpait": 2333,
      "uris": 2334,
      "Ġdun": 2335,
      "Ġisg": 2336,
      "Ġetv": 2337,
      "Ġbica": 2338,
      "inis": 2339,
      "Ġlife": 2340,
      "Ġarvo": 2341,
      "Ġsebi": 2342,
      "Ġlave": 2343,
      "Ġatar": 2344,
      "Ġmanu": 2345,
      "Ġdogo": 2346,
      "Ġosve": 2347,
      "Ġilvu": 2348,
      "Ġund": 2349,
      "Ġfuos": 2350,
      "Ġxof": 2351,
      "Ġmiir": 2352,
      "Ġbop": 2353,
      "Ġtola": 2354,
      "ilus": 2355,
      "Ġxonu": 2356,
      "goci": 2357,
      "Ġpaos": 2358,
      "Ġpod": 2359,
      "olb": 2360,
      "asz": 2361,
      "Ġgel": 2362,
      "Ġisf": 2363,
      "Ġinil": 2364,
      "Ġaras": 2365,
      "Ġirr": 2366,
      "Ġpile": 2367,
      "Ġgab": 2368,
      "Ġgedu": 2369,
      "lege": 2370,
      "Ġmox": 2371,
      "vudi": 2372,
      "Ġtel": 2373,
      "Ġlus": 2374,
      "ceb": 2375,
      "Ġvipi": 2376,
      "Ġxeal": 2377,
      "Ġfafu": 2378,
      "34": 2379,
      "67": 2380,
      "Ġrur": 2381,
      "Ġpuis": 2382,
      "64": 2383,
      "Ġtud": 2384,
      "Ġmuta": 2385,
      "Ġpop": 2386,
      "albi": 2387,
      "Ġitm": 2388,
      "Ġxog": 2389,
      "vedo": 2390,
      "Ġarg": 2391,
      "Ġaror": 2392,
      "Ġsof": 2393,
      "Ġpevi": 2394,
      "furu": 2395,
      "Ġsalo": 2396,
      "Ġbout": 2397,
      "Ġdap": 2398,
      "erdo": 2399,
      "Ġzex": 2400,
      "Ġarp": 2401,
      "Ġgoc": 2402,
      "Ġbat": 2403,
      "Ġbago": 2404,
      "enzo": 2405,
      "Ġtoxo": 2406,
      "otli": 2407,
      "Ġonxa": 2408,
      "Ġleos": 2409,
      "Ġusbe": 2410,
      "Ġgeon": 2411,
      "Ġvoce": 2412,
      "Ġpiv": 2413,
      "Ġxiur": 2414,
      "38": 2415,
      "Ġtemi": 2416,
      "Ġmis": 2417,
      "Ġitzi": 2418,
      "Ġxem": 2419,
      "feve": 2420,
      "guis": 2421,
      "Ġnule": 2422,
      "izoos": 2423,
      "buru": 2424,
      "orit": 2425,
      "Ġdoru": 2426,
      "rica": 2427,
      "onot": 2428,
      "atet": 2429,
      "Ġvagu": 2430,
      "Ġarel": 2431,
      "Ġunp": 2432,
      "Ġetn": 2433,
      "Ġetp": 2434,
      "Ġelir": 2435,
      "Ġpeut": 2436,
      "Ġzoz": 2437,
      "Ġziri": 2438,
      "Ġciv": 2439,
      "leri": 2440,
      "osmi": 2441,
      "Ġxabu": 2442,
      "Ġmop": 2443,
      "Ġinc": 2444,
      "vaer": 2445,
      "Ġorr": 2446,
      "Ġbuun": 2447,
      "Ġetas": 2448,
      "Ġiln": 2449,
      "fono": 2450,
      "Ġfous": 2451,
      "Ġpel": 2452,
      "otas": 2453,
      "Ġvan": 2454,
      "Ġrem": 2455,
      "Ġbuv": 2456,
      "Ġfob": 2457,
      "Ġusc": 2458,
      "Ġtuas": 2459,
      "28": 2460,
      "Ġpout": 2461,
      "olze": 2462,
      "Ġvip": 2463,
      "irat": 2464,
      "Ġinel": 2465,
      "Ġorne": 2466,
      "Ġospe": 2467,
      "gufi": 2468,
      "Ġveno": 2469,
      "Ġtifa": 2470,
      "Ġsig": 2471,
      "Ġmati": 2472,
      "ilmo": 2473,
      "fegu": 2474,
      "Ġurse": 2475,
      "Ġxev": 2476,
      "ozo": 2477,
      "zina": 2478,
      "Ġgos": 2479,
      "Ġgagi": 2480,
      "etpo": 2481,
      "Ġxino": 2482,
      "Ġbev": 2483,
      "Ġrero": 2484,
      "Ġdof": 2485,
      "faos": 2486,
      "Ġurn": 2487,
      "Ġbaf": 2488,
      "isun": 2489,
      "olvo": 2490,
      "Ġxor": 2491,
      "Ġeril": 2492,
      "Ġtogi": 2493,
      "Ġunma": 2494,
      "Ġirb": 2495,
      "Ġruv": 2496,
      "Ġruet": 2497,
      "azu": 2498,
      "vaco": 2499,
      "Ġfir": 2500,
      "Ġnepu": 2501,
      "olm": 2502,
      "Ġrer": 2503,
      "Ġong": 2504,
      "Ġelmo": 2505,
      "Ġduat": 2506,
      "Ġcais": 2507,
      "Ġmib": 2508,
      "atir": 2509,
      "Ġusal": 2510,
      "Ġusmu": 2511,
      "Ġseg": 2512,
      "Ġben": 2513,
      "Ġboda": 2514,
      "itdu": 2515,
      "oror": 2516,
      "atma": 2517,
      "Ġved": 2518,
      "Ġrezu": 2519,
      "ciot": 2520,
      "Ġosc": 2521,
      "Ġpez": 2522,
      "Ġsezi": 2523,
      "af": 2524,
      "Ġtat": 2525,
      "Ġbod": 2526,
      "atga": 2527,
      "utl": 2528,
      "osb": 2529,
      "Ġxuc": 2530,
      "Ġcuet": 2531,
      "Ġutz": 2532,
      "Ġmuit": 2533,
      "Ġzien": 2534,
      "asgu": 2535,
      "Ġmun": 2536,
      "Ġann": 2537,
      "olir": 2538,
      "urul": 2539,
      "Ġrool": 2540,
      "vive": 2541,
      "vene": 2542,
      "zian": 2543,
      "Ġtis": 2544,
      "asva": 2545,
      "Ġmuda": 2546,
      "anva": 2547,
      "rim": 2548,
      "otti": 2549,
      "Ġxag": 2550,
      "Ġxim": 2551,
      "Ġxec": 2552,
      "zoz": 2553,
      "miit": 2554,
      "Ġcaos": 2555,
      "Ġpog": 2556,
      "Ġutat": 2557,
      "Ġenlu": 2558,
      "Ġmive": 2559,
      "Ġmier": 2560,
      "Ġfaca": 2561,
      "Ġger": 2562,
      "Ġvaxe": 2563,
      "Ġrexa": 2564,
      "Ġmago": 2565,
      "Ġboz": 2566,
      "Ġbole": 2567,
      "Ġusd": 2568,
      "Ġirxo": 2569,
      "Ġenx": 2570,
      "Ġxuri": 2571,
      "Ġfaat": 2572,
      "Ġsive": 2573,
      "Ġzaf": 2574,
      "Ġaler": 2575,
      "Ġbiz": 2576,
      "Ġfel": 2577,
      "lep": 2578,
      "Ġram": 2579,
      "Ġrug": 2580,
      "otxu": 2581,
      "Ġxutu": 2582,
      "Ġniri": 2583,
      "Ġtalu": 2584,
      "Ġarce": 2585,
      "Ġneb": 2586,
      "Ġriit": 2587,
      "Ġonx": 2588,
      "zoas": 2589,
      "zuzu": 2590,
      "Ġmebu": 2591,
      "Ġzeal": 2592,
      "Ġsous": 2593,
      "Ġbad": 2594,
      "Ġdoul": 2595,
      "orge": 2596,
      "Ġzax": 2597,
      "iron": 2598,
      "Ġinm": 2599,
      "Ġrear": 2600,
      "Ġonz": 2601,
      "Ġutg": 2602,
      "Ġxais": 2603,
      "Ġsid": 2604,
      "rec": 2605,
      "Ġgog": 2606,
      "Ġisce": 2607,
      "geet": 2608,
      "Ġilge": 2609,
      "Ġmuz": 2610,
      "Ġbom": 2611,
      "Ġgop": 2612,
      "Ġatl": 2613,
      "Ġinro": 2614,
      "Ġasn": 2615,
      "Ġonn": 2616,
      "Ġlool": 2617,
      "Ġalzi": 2618,
      "Ġluf": 2619,
      "Ġsusa": 2620,
      "Ġdite": 2621,
      "atxe": 2622,
      "Ġrar": 2623,
      "Ġlig": 2624,
      "Ġxub": 2625,
      "Ġsoan": 2626,
      "Ġolg": 2627,
      "Ġmema": 2628,
      "Ġvaze": 2629,
      "Ġziir": 2630,
      "Ġsear": 2631,
      "Ġsoxe": 2632,
      "Ġlotu": 2633,
      "onta": 2634,
      "Ġpom": 2635,
      "Ġalen": 2636,
      "fiva": 2637,
      "Ġurce": 2638,
      "Ġmuan": 2639,
      "Ġgaot": 2640,
      "Ġtaxa": 2641,
      "Ġcelu": 2642,
      "Ġgulu": 2643,
      "Ġnira": 2644,
      "irlu": 2645,
      "Ġrobo": 2646,
      "Ġxoin": 2647,
      "Ġtait": 2648,
      "Ġtasa": 2649,
      "Ġfala": 2650,
      "uros": 2651,
      "Ġors": 2652,
      "Ġcuza": 2653,
      "Ġerzi": 2654,
      "Ġceul": 2655,
      "Ġvuz": 2656,
      "Ġtuz": 2657,
      "Ġtane": 2658,
      "onan": 2659,
      "Ġpid": 2660,
      "Ġnis": 2661,
      "erat": 2662,
      "Ġvun": 2663,
      "bob": 2664,
      "Ġfovi": 2665,
      "Ġvemo": 2666,
      "Ġotl": 2667,
      "Ġotvo": 2668,
      "Ġseus": 2669,
      "Ġduan": 2670,
      "Ġlaxe": 2671,
      "Ġnaxe": 2672,
      "olno": 2673,
      "olto": 2674,
      "Ġxep": 2675,
      "Ġxix": 2676,
      "Ġvubi": 2677,
      "irgu": 2678,
      "Ġnile": 2679,
      "Ġcuen": 2680,
      "lese": 2681,
      "Ġulut": 2682,
      "Ġvelu": 2683,
      "Ġmece": 2684,
      "Ġfeus": 2685,
      "Ġvuan": 2686,
      "Ġfufi": 2687,
      "Ġsugi": 2688,
      "enci": 2689,
      "Ġcagi": 2690,
      "rion": 2691,
      "ilul": 2692,
      "Ġrud": 2693,
      "Ġrate": 2694,
      "elon": 2695,
      "Ġzera": 2696,
      "Ġatme": 2697,
      "Ġrov": 2698,
      "Ġlois": 2699,
      "Ġlair": 2700,
      "zuit": 2701,
      "Ġunas": 2702,
      "Ġelfa": 2703,
      "Ġtiur": 2704,
      "Ġfod": 2705,
      "Ġxul": 2706,
      "Ġviz": 2707,
      "Ġatos": 2708,
      "Ġcuos": 2709,
      "beer": 2710,
      "Ġvuza": 2711,
      "Ġsit": 2712,
      "Ġsomo": 2713,
      "Ġbeda": 2714,
      "Ġdear": 2715,
      "Ġgupu": 2716,
      "uner": 2717,
      "Ġnug": 2718,
      "Ġretu": 2719,
      "Ġorz": 2720,
      "Ġunet": 2721,
      "Ġirz": 2722,
      "Ġmeul": 2723,
      "Ġvoon": 2724,
      "Ġpius": 2725,
      "Ġziur": 2726,
      "Ġtem": 2727,
      "Ġdalo": 2728,
      "Ġpip": 2729,
      "Ġarus": 2730,
      "cier": 2731,
      "Ġonm": 2732,
      "Ġmete": 2733,
      "Ġcuce": 2734,
      "Ġzeba": 2735,
      "Ġluv": 2736,
      "Ġtugu": 2737,
      "Ġnol": 2738,
      "Ġsain": 2739,
      "Ġxav": 2740,
      "Ġrix": 2741,
      "Ġlaar": 2742,
      "boce": 2743,
      "Ġelzi": 2744,
      "boun": 2745,
      "Ġtoon": 2746,
      "Ġtono": 2747,
      "Ġpum": 2748,
      "Ġpex": 2749,
      "Ġgic": 2750,
      "Ġgud": 2751,
      "elxo": 2752,
      "Ġitdi": 2753,
      "Ġziz": 2754,
      "vaut": 2755,
      "Ġrim": 2756,
      "Ġrici": 2757,
      "Ġgocu": 2758,
      "Ġlazo": 2759,
      "zuut": 2760,
      "Ġelg": 2761,
      "Ġelgi": 2762,
      "Ġzoer": 2763,
      "Ġguz": 2764,
      "zogi": 2765,
      "Ġteso": 2766,
      "enar": 2767,
      "lexu": 2768,
      "unxi": 2769,
      "otge": 2770,
      "Ġitde": 2771,
      "Ġniel": 2772,
      "vuxi": 2773,
      "Ġdele": 2774,
      "Ġluos": 2775,
      "Ġilto": 2776,
      "Ġbugu": 2777,
      "Ġpas": 2778,
      "Ġgame": 2779,
      "Ġxup": 2780,
      "Ġbeso": 2781,
      "Ġsec": 2782,
      "Ġsodo": 2783,
      "asbo": 2784,
      "Ġfug": 2785,
      "alve": 2786,
      "Ġsaxu": 2787,
      "Ġnec": 2788,
      "Ġloat": 2789,
      "Ġloos": 2790,
      "buar": 2791,
      "Ġospu": 2792,
      "Ġrazu": 2793,
      "32": 2794,
      "Ġtoel": 2795,
      "reza": 2796,
      "Ġgaut": 2797,
      "ilit": 2798,
      "Ġvol": 2799,
      "Ġneza": 2800,
      "Ġcare": 2801,
      "Ġusxi": 2802,
      "Ġcez": 2803,
      "ius": 2804,
      "enul": 2805,
      "Ġfado": 2806,
      "Ġpomu": 2807,
      "Ġvora": 2808,
      "Ġgice": 2809,
      "Ġsoit": 2810,
      "Ġunc": 2811,
      "Ġenlo": 2812,
      "Ġcoos": 2813,
      "Ġdivu": 2814,
      "Ġpiir": 2815,
      "Ġsan": 2816,
      "Ġcud": 2817,
      "Ġanco": 2818,
      "Ġpac": 2819,
      "alra": 2820,
      "erna": 2821,
      "Ġiss": 2822,
      "zein": 2823,
      "Ġdeb": 2824,
      "vibu": 2825,
      "Ġutx": 2826,
      "Ġetlu": 2827,
      "Ġzoon": 2828,
      "Ġpov": 2829,
      "Ġgafa": 2830,
      "Ġnore": 2831,
      "boso": 2832,
      "ontu": 2833,
      "Ġvox": 2834,
      "Ġvopo": 2835,
      "bede": 2836,
      "ruul": 2837,
      "iler": 2838,
      "Ġsex": 2839,
      "Ġlot": 2840,
      "Ġvul": 2841,
      "Ġvout": 2842,
      "Ġzoun": 2843,
      "Ġatf": 2844,
      "Ġonit": 2845,
      "Ġilx": 2846,
      "Ġsic": 2847,
      "Ġluc": 2848,
      "Ġcip": 2849,
      "Ġninu": 2850,
      "Ġxug": 2851,
      "Ġvis": 2852,
      "Ġtage": 2853,
      "Ġmot": 2854,
      "Ġmep": 2855,
      "Ġfum": 2856,
      "onre": 2857,
      "Ġporo": 2858,
      "otce": 2859,
      "utpe": 2860,
      "Ġetat": 2861,
      "Ġdiva": 2862,
      "Ġcac": 2863,
      "Ġgis": 2864,
      "Ġnuse": 2865,
      "Ġiser": 2866,
      "Ġord": 2867,
      "Ġvef": 2868,
      "Ġzuar": 2869,
      "Ġbapi": 2870,
      "Ġlax": 2871,
      "Ġtovu": 2872,
      "inbo": 2873,
      "Ġfedi": 2874,
      "isan": 2875,
      "Ġpodi": 2876,
      "Ġnas": 2877,
      "Ġrour": 2878,
      "Ġxol": 2879,
      "Ġinmo": 2880,
      "Ġrize": 2881,
      "Ġxofe": 2882,
      "Ġted": 2883,
      "Ġsipo": 2884,
      "Ġella": 2885,
      "Ġtug": 2886,
      "Ġrex": 2887,
      "Ġusm": 2888,
      "Ġutv": 2889,
      "Ġpous": 2890,
      "Ġzix": 2891,
      "Ġonnu": 2892,
      "Ġutis": 2893,
      "Ġelp": 2894,
      "Ġcofe": 2895,
      "Ġbair": 2896,
      "Ġbimo": 2897,
      "itbu": 2898,
      "orun": 2899,
      "Ġnuga": 2900,
      "ento": 2901,
      "Ġisp": 2902,
      "Ġdode": 2903,
      "Ġsoat": 2904,
      "vobo": 2905,
      "Ġruos": 2906,
      "Ġnof": 2907,
      "Ġtufe": 2908,
      "Ġbifi": 2909,
      "enet": 2910,
      "Ġliz": 2911,
      "oser": 2912,
      "Ġvub": 2913,
      "Ġbuel": 2914,
      "Ġcov": 2915,
      "Ġzaus": 2916,
      "enl": 2917,
      "enit": 2918,
      "orat": 2919,
      "Ġgus": 2920,
      "otfi": 2921,
      "Ġgiut": 2922,
      "Ġxuv": 2923,
      "Ġmabe": 2924,
      "Ġrat": 2925,
      "Ġasc": 2926,
      "mafe": 2927,
      "Ġunul": 2928,
      "Ġunfa": 2929,
      "Ġilz": 2930,
      "Ġgava": 2931,
      "Ġvaos": 2932,
      "Ġmape": 2933,
      "Ġdig": 2934,
      "olve": 2935,
      "usno": 2936,
      "Ġonzo": 2937,
      "fumo": 2938,
      "vepa": 2939,
      "recu": 2940,
      "Ġtura": 2941,
      "Ġelc": 2942,
      "Ġveg": 2943,
      "Ġpiit": 2944,
      "Ġcum": 2945,
      "Ġmec": 2946,
      "Ġmacu": 2947,
      "reso": 2948,
      "elen": 2949,
      "Ġvula": 2950,
      "Ġzout": 2951,
      "Ġnez": 2952,
      "fozi": 2953,
      "Ġxiir": 2954,
      "enlu": 2955,
      "Ġmene": 2956,
      "itis": 2957,
      "ilpa": 2958,
      "Ġrap": 2959,
      "Ġxate": 2960,
      "usb": 2961,
      "Ġatet": 2962,
      "Ġrore": 2963,
      "Ġarcu": 2964,
      "Ġusg": 2965,
      "Ġell": 2966,
      "Ġxef": 2967,
      "Ġcop": 2968,
      "orli": 2969,
      "Ġgad": 2970,
      "Ġgix": 2971,
      "Ġirir": 2972,
      "Ġtoce": 2973,
      "Ġgume": 2974,
      "Ġvat": 2975,
      "Ġarx": 2976,
      "fuer": 2977,
      "Ġrual": 2978,
      "Ġpuon": 2979,
      "Ġmiat": 2980,
      "argo": 2981,
      "Ġmave": 2982,
      "alvu": 2983,
      "Ġinot": 2984,
      "Ġniut": 2985,
      "Ġdofu": 2986,
      "atpo": 2987,
      "Ġtezu": 2988,
      "olil": 2989,
      "Ġxira": 2990,
      "zuen": 2991,
      "Ġelb": 2992,
      "Ġzeel": 2993,
      "ingu": 2994,
      "Ġgom": 2995,
      "elle": 2996,
      "Ġzepo": 2997,
      "ilil": 2998,
      "Ġunpa": 2999,
      "Ġpiot": 3000,
      "Ġtid": 3001,
      "Ġmam": 3002,
      "Ġsaar": 3003,
      "cari": 3004,
      "vuul": 3005,
      "Ġmaal": 3006,
      "Ġdux": 3007,
      "Ġliro": 3008,
      "usbe": 3009,
      "atla": 3010,
      "Ġgul": 3011,
      "Ġras": 3012,
      "Ġulme": 3013,
      "Ġerol": 3014,
      "Ġurfo": 3015,
      "Ġsiil": 3016,
      "Ġtil": 3017,
      "Ġgar": 3018,
      "Ġrop": 3019,
      "Ġutf": 3020,
      "Ġviot": 3021,
      "Ġcumi": 3022,
      "Ġded": 3023,
      "elmu": 3024,
      "Ġbis": 3025,
      "Ġisv": 3026,
      "Ġpax": 3027,
      "Ġgemi": 3028,
      "Ġxer": 3029,
      "Ġasl": 3030,
      "Ġoll": 3031,
      "Ġtiir": 3032,
      "Ġfop": 3033,
      "Ġmuvu": 3034,
      "Ġdain": 3035,
      "urus": 3036,
      "Ġgoor": 3037,
      "Ġnuvu": 3038,
      "vuza": 3039,
      "Ġmob": 3040,
      "Ġzobo": 3041,
      "Ġxupa": 3042,
      "Ġface": 3043,
      "erus": 3044,
      "Ġlux": 3045,
      "Ġgep": 3046,
      "Ġbeus": 3047,
      "Ġxuga": 3048,
      "Ġvaf": 3049,
      "Ġpeci": 3050,
      "Ġsuf": 3051,
      "Ġdeno": 3052,
      "Ġroru": 3053,
      "Ġisve": 3054,
      "Ġlet": 3055,
      "Ġolvu": 3056,
      "Ġceg": 3057,
      "Ġsup": 3058,
      "01": 3059,
      "Ġxel": 3060,
      "09": 3061,
      "Ġfaet": 3062,
      "02": 3063,
      "Ġeral": 3064,
      "03": 3065,
      "05": 3066,
      "Ġraxo": 3067,
      "Ġasx": 3068,
      "Ġbigo": 3069,
      "Ġdaus": 3070,
      "ollo": 3071,
      "asze": 3072,
      "Ġric": 3073,
      "Ġerre": 3074,
      "Ġtaat": 3075,
      "Ġzepa": 3076,
      "zati": 3077,
      "Ġgial": 3078,
      "Ġilxu": 3079,
      "Ġpuge": 3080,
      "Ġgupe": 3081,
      "Ġraga": 3082,
      "04": 3083,
      "Ġotn": 3084,
      "Ġreur": 3085,
      "Ġfeb": 3086,
      "06": 3087,
      "Ġpope": 3088,
      "Ġpimi": 3089,
      "Ġseis": 3090,
      "07": 3091,
      "Ġmum": 3092,
      "anga": 3093,
      "Ġgiv": 3094,
      "begu": 3095,
      "Ġmari": 3096,
      "Ġmage": 3097,
      "Ġduvo": 3098,
      "08": 3099,
      "Ġdefi": 3100,
      "Ġvuar": 3101,
      "Ġladi": 3102,
      "Ġfode": 3103,
      "vice": 3104,
      "Ġutil": 3105,
      "Ġurl": 3106,
      "Ġfuzu": 3107,
      "Ġlulu": 3108,
      "veru": 3109,
      "firo": 3110,
      "Ġsare": 3111,
      "orri": 3112,
      "Ġitx": 3113,
      "Ġetbi": 3114,
      "Ġnuer": 3115,
      "Ġsot": 3116,
      "Ġsod": 3117,
      "Ġanle": 3118,
      "vure": 3119,
      "Ġerlu": 3120,
      "Ġseb": 3121,
      "Ġxeas": 3122,
      "Ġlual": 3123,
      "Ġzog": 3124,
      "Ġotbo": 3125,
      "Ġbare": 3126,
      "Ġlep": 3127,
      "alr": 3128,
      "Ġromu": 3129,
      "otfu": 3130,
      "foot": 3131,
      "Ġzace": 3132,
      "Ġviri": 3133,
      "Ġdad": 3134,
      "Ġalin": 3135,
      "Ġerso": 3136,
      "Ġluxe": 3137,
      "Ġorvo": 3138,
      "Ġnufo": 3139,
      "Ġfuat": 3140,
      "arfi": 3141,
      "asta": 3142,
      "Ġgula": 3143,
      "ulde": 3144,
      "Ġatur": 3145,
      "armi": 3146,
      "Ġelf": 3147,
      "Ġdufa": 3148,
      "Ġdior": 3149,
      "Ġmota": 3150,
      "Ġdopo": 3151,
      "Ġanun": 3152,
      "Ġzaut": 3153,
      "beza": 3154,
      "Ġzeas": 3155,
      "Ġmaza": 3156,
      "Ġdiv": 3157,
      "Ġiret": 3158,
      "Ġirer": 3159,
      "Ġtosa": 3160,
      "Ġpepa": 3161,
      "Ġdob": 3162,
      "Ġenz": 3163,
      "Ġurlo": 3164,
      "Ġolr": 3165,
      "Ġpofe": 3166,
      "Ġdib": 3167,
      "Ġlama": 3168,
      "enus": 3169,
      "Ġmur": 3170,
      "Ġpone": 3171,
      "usza": 3172,
      "Ġirun": 3173,
      "Ġenru": 3174,
      "Ġolur": 3175,
      "Ġgevi": 3176,
      "Ġzoor": 3177,
      "gige": 3178,
      "Ġfam": 3179,
      "atso": 3180,
      "Ġpalo": 3181,
      "lepe": 3182,
      "Ġsaen": 3183,
      "Ġzare": 3184,
      "Ġorxu": 3185,
      "Ġgoca": 3186,
      "Ġcaot": 3187,
      "oler": 3188,
      "Ġnum": 3189,
      "vaot": 3190,
      "feol": 3191,
      "Ġetru": 3192,
      "Ġfeut": 3193,
      "useun": 3194,
      "Ġcial": 3195,
      "Ġmer": 3196,
      "its": 3197,
      "ilpe": 3198,
      "Ġrota": 3199,
      "elor": 3200,
      "endi": 3201,
      "Ġnibu": 3202,
      "Ġirl": 3203,
      "Ġelme": 3204,
      "Ġvem": 3205,
      "Ġsice": 3206,
      "Ġxior": 3207,
      "aal": 3208,
      "Ġcir": 3209,
      "Ġdura": 3210,
      "olnu": 3211,
      "ceve": 3212,
      "Ġrura": 3213,
      "Ġxogi": 3214,
      "Ġxaca": 3215,
      "Ġzipo": 3216,
      "Ġinp": 3217,
      "Ġneg": 3218,
      "Ġutlo": 3219,
      "Ġfeco": 3220,
      "Ġxazi": 3221,
      "Ġpuat": 3222,
      "Ġfus": 3223,
      "Ġfuco": 3224,
      "leza": 3225,
      "otxo": 3226,
      "irx": 3227,
      "Ġreze": 3228,
      "febe": 3229,
      "Ġetgo": 3230,
      "Ġolno": 3231,
      "Ġnuri": 3232,
      "Ġdiri": 3233,
      "Ġbaat": 3234,
      "Ġsadu": 3235,
      "Ġbime": 3236,
      "Ġcal": 3237,
      "atlo": 3238,
      "Ġpela": 3239,
      "Ġpifo": 3240,
      "ilon": 3241,
      "etut": 3242,
      "uln": 3243,
      "osar": 3244,
      "Ġxexu": 3245,
      "irot": 3246,
      "Ġonle": 3247,
      "Ġalse": 3248,
      "Ġusot": 3249,
      "Ġmele": 3250,
      "Ġfeun": 3251,
      "Ġtuve": 3252,
      "Ġpuir": 3253,
      "raxi": 3254,
      "uit": 3255,
      "zopo": 3256,
      "Ġteri": 3257,
      "Ġcuna": 3258,
      "Ġmuxa": 3259,
      "Ġduxi": 3260,
      "Ġgucu": 3261,
      "etn": 3262,
      "Ġrut": 3263,
      "Ġisol": 3264,
      "Ġxif": 3265,
      "Ġzomo": 3266,
      "Ġaton": 3267,
      "Ġinbe": 3268,
      "Ġsova": 3269,
      "Ġsona": 3270,
      "Ġerxa": 3271,
      "Ġenfu": 3272,
      "Ġeldu": 3273,
      "Ġmivu": 3274,
      "Ġtap": 3275,
      "Ġsumi": 3276,
      "Ġsuxo": 3277,
      "Ġlano": 3278,
      "olbu": 3279,
      "otpo": 3280,
      "Ġsaot": 3281,
      "Ġneme": 3282,
      "zivo": 3283,
      "Ġutol": 3284,
      "Ġxefe": 3285,
      "Ġnaar": 3286,
      "Ġvafa": 3287,
      "Ġvibu": 3288,
      "Ġdapu": 3289,
      "Ġpemo": 3290,
      "unli": 3291,
      "Ġitb": 3292,
      "Ġitza": 3293,
      "Ġsax": 3294,
      "Ġzeri": 3295,
      "Ġreit": 3296,
      "Ġorar": 3297,
      "Ġusp": 3298,
      "Ġulsu": 3299,
      "Ġurzu": 3300,
      "Ġilur": 3301,
      "Ġvuir": 3302,
      "Ġrair": 3303,
      "Ġildu": 3304,
      "Ġpoxe": 3305,
      "leal": 3306,
      "Ġnine": 3307,
      "alne": 3308,
      "Ġxumi": 3309,
      "Ġsob": 3310,
      "Ġulpa": 3311,
      "Ġutli": 3312,
      "Ġutmu": 3313,
      "Ġosba": 3314,
      "Ġfean": 3315,
      "Ġraos": 3316,
      "Ġxaos": 3317,
      "faut": 3318,
      "fimu": 3319,
      "ziet": 3320,
      "Ġsome": 3321,
      "Ġsepu": 3322,
      "Ġtoza": 3323,
      "Ġtoxu": 3324,
      "anut": 3325,
      "Ġgex": 3326,
      "Ġgenu": 3327,
      "Ġrabu": 3328,
      "Ġradu": 3329,
      "Ġxos": 3330,
      "Ġxab": 3331,
      "Ġzoge": 3332,
      "Ġroza": 3333,
      "uduni": 3334,
      "luza": 3335,
      "Ġlace": 3336,
      "Ġbuto": 3337,
      "vove": 3338,
      "Ġnois": 3339,
      "sesi": 3340,
      "vimo": 3341,
      "Ġbipo": 3342,
      "Ġlug": 3343,
      "atbi": 3344,
      "utbi": 3345,
      "Ġisit": 3346,
      "Ġxoru": 3347,
      "Ġzit": 3348,
      "Ġerr": 3349,
      "Ġtupe": 3350,
      "Ġfoun": 3351,
      "orzo": 3352,
      "orula": 3353,
      "Ġpelu": 3354,
      "etla": 3355,
      "Ġrol": 3356,
      "Ġruse": 3357,
      "Ġrabe": 3358,
      "Ġzami": 3359,
      "Ġroit": 3360,
      "anci": 3361,
      "Ġloc": 3362,
      "Ġcuat": 3363,
      "Ġsoz": 3364,
      "geat": 3365,
      "Ġmane": 3366,
      "otse": 3367,
      "faur": 3368,
      "Ġetcu": 3369,
      "Ġilbu": 3370,
      "Ġparu": 3371,
      "Ġzeul": 3372,
      "Ġluan": 3373,
      "Ġfait": 3374,
      "Ġfaul": 3375,
      "vode": 3376,
      "Ġtubo": 3377,
      "Ġbetu": 3378,
      "Ġmifo": 3379,
      "Ġrame": 3380,
      "Ġrav": 3381,
      "urgi": 3382,
      "Ġxain": 3383,
      "Ġatx": 3384,
      "Ġergi": 3385,
      "Ġenul": 3386,
      "Ġurf": 3387,
      "Ġxios": 3388,
      "Ġsite": 3389,
      "Ġsicu": 3390,
      "orc": 3391,
      "Ġang": 3392,
      "Ġguco": 3393,
      "Ġliv": 3394,
      "Ġisn": 3395,
      "Ġxopo": 3396,
      "Ġzoxe": 3397,
      "ciis": 3398,
      "fezo": 3399,
      "Ġilis": 3400,
      "Ġmeva": 3401,
      "Ġpeen": 3402,
      "Ġvuos": 3403,
      "Ġtegu": 3404,
      "Ġcoel": 3405,
      "Ġdibe": 3406,
      "Ġpuan": 3407,
      "arin": 3408,
      "aron": 3409,
      "Ġlune": 3410,
      "Ġmadu": 3411,
      "Ġtoco": 3412,
      "Ġfal": 3413,
      "Ġdana": 3414,
      "Ġlic": 3415,
      "Ġlip": 3416,
      "Ġzain": 3417,
      "Ġzuti": 3418,
      "Ġatv": 3419,
      "Ġroat": 3420,
      "Ġroxi": 3421,
      "Ġdeer": 3422,
      "Ġusma": 3423,
      "Ġulga": 3424,
      "gaor": 3425,
      "Ġceen": 3426,
      "Ġnufe": 3427,
      "Ġfios": 3428,
      "otiri": 3429,
      "gupa": 3430,
      "Ġbax": 3431,
      "itde": 3432,
      "Ġpepu": 3433,
      "Ġnito": 3434,
      "Ġxave": 3435,
      "Ġxeli": 3436,
      "Ġvugo": 3437,
      "Ġzuxe": 3438,
      "Ġbuit": 3439,
      "zeos": 3440,
      "Ġtaz": 3441,
      "fux": 3442,
      "vatu": 3443,
      "Ġsoul": 3444,
      "Ġbum": 3445,
      "Ġbota": 3446,
      "veir": 3447,
      "vela": 3448,
      "Ġmaxo": 3449,
      "riin": 3450,
      "rido": 3451,
      "Ġgugi": 3452,
      "Ġgosa": 3453,
      "Ġnif": 3454,
      "Ġxidu": 3455,
      "Ġzim": 3456,
      "Ġreus": 3457,
      "Ġarc": 3458,
      "Ġbuvo": 3459,
      "Ġbori": 3460,
      "Ġbobu": 3461,
      "vuel": 3462,
      "bevo": 3463,
      "Ġurun": 3464,
      "Ġurli": 3465,
      "Ġceco": 3466,
      "Ġnuel": 3467,
      "Ġzaar": 3468,
      "Ġcias": 3469,
      "veor": 3470,
      "Ġfeno": 3471,
      "Ġfife": 3472,
      "Ġdope": 3473,
      "Ġpem": 3474,
      "Ġnup": 3475,
      "Ġxas": 3476,
      "Ġvome": 3477,
      "Ġvose": 3478,
      "Ġzono": 3479,
      "Ġatzi": 3480,
      "Ġatnu": 3481,
      "Ġasb": 3482,
      "Ġonfu": 3483,
      "fexe": 3484,
      "fibe": 3485,
      "fuvo": 3486,
      "Ġirtu": 3487,
      "Ġsema": 3488,
      "Ġxean": 3489,
      "Ġcole": 3490,
      "Ġbiir": 3491,
      "Ġpab": 3492,
      "Ġpicu": 3493,
      "lexo": 3494,
      "elgo": 3495,
      "usvu": 3496,
      "Ġlod": 3497,
      "Ġlaf": 3498,
      "zofi": 3499,
      "Ġalxi": 3500,
      "Ġtine": 3501,
      "Ġfoc": 3502,
      "Ġulli": 3503,
      "Ġulne": 3504,
      "buit": 3505,
      "Ġerde": 3506,
      "Ġirfi": 3507,
      "Ġvexe": 3508,
      "Ġzeon": 3509,
      "ripu": 3510,
      "Ġfuf": 3511,
      "Ġpoce": 3512,
      "Ġbucu": 3513,
      "enbi": 3514,
      "Ġtoli": 3515,
      "inat": 3516,
      "Ġfad": 3517,
      "Ġfim": 3518,
      "Ġfusi": 3519,
      "Ġdari": 3520,
      "Ġgite": 3521,
      "ilor": 3522,
      "Ġnour": 3523,
      "Ġnosi": 3524,
      "Ġruli": 3525,
      "otul": 3526,
      "utfa": 3527,
      "uras": 3528,
      "Ġsac": 3529,
      "Ġxex": 3530,
      "Ġvapa": 3531,
      "Ġbeur": 3532,
      "Ġreas": 3533,
      "Ġrias": 3534,
      "Ġorl": 3535,
      "Ġbuz": 3536,
      "Ġaldi": 3537,
      "bale": 3538,
      "Ġerb": 3539,
      "Ġveen": 3540,
      "Ġvoal": 3541,
      "Ġxova": 3542,
      "Ġguat": 3543,
      "Ġmiot": 3544,
      "ubeal": 3545,
      "ier": 3546,
      "Ġside": 3547,
      "Ġbanu": 3548,
      "Ġcipu": 3549,
      "Ġmelo": 3550,
      "Ġfuse": 3551,
      "anan": 3552,
      "Ġgon": 3553,
      "osit": 3554,
      "osor": 3555,
      "Ġzet": 3556,
      "Ġzop": 3557,
      "Ġbeze": 3558,
      "Ġdoel": 3559,
      "Ġbof": 3560,
      "zeis": 3561,
      "zeet": 3562,
      "Ġfoot": 3563,
      "Ġirsa": 3564,
      "Ġolca": 3565,
      "Ġveet": 3566,
      "Ġilar": 3567,
      "Ġmeer": 3568,
      "Ġzeb": 3569,
      "Ġnoor": 3570,
      "Ġxovo": 3571,
      "Ġsixi": 3572,
      "Ġbor": 3573,
      "enga": 3574,
      "Ġmir": 3575,
      "Ġdoun": 3576,
      "lev": 3577,
      "ilis": 3578,
      "Ġlima": 3579,
      "Ġisul": 3580,
      "Ġxabe": 3581,
      "Ġxabo": 3582,
      "Ġvabo": 3583,
      "Ġzas": 3584,
      "Ġmozi": 3585,
      "vaf": 3586,
      "Ġarri": 3587,
      "Ġcuer": 3588,
      "gebe": 3589,
      "vozu": 3590,
      "fial": 3591,
      "Ġutfe": 3592,
      "erir": 3593,
      "Ġfuas": 3594,
      "Ġrace": 3595,
      "Ġfiir": 3596,
      "Ġvaal": 3597,
      "alel": 3598,
      "fala": 3599,
      "figu": 3600,
      "lami": 3601,
      "Ġtela": 3602,
      "Ġlude": 3603,
      "Ġlubu": 3604,
      "Ġcol": 3605,
      "inxo": 3606,
      "Ġfida": 3607,
      "rexi": 3608,
      "Ġdama": 3609,
      "itri": 3610,
      "Ġpixo": 3611,
      "Ġgatu": 3612,
      "alnu": 3613,
      "alti": 3614,
      "Ġroti": 3615,
      "ullu": 3616,
      "Ġroot": 3617,
      "Ġasde": 3618,
      "Ġneon": 3619,
      "Ġcuze": 3620,
      "Ġsole": 3621,
      "Ġrobu": 3622,
      "Ġens": 3623,
      "Ġence": 3624,
      "Ġarti": 3625,
      "Ġruil": 3626,
      "Ġgaf": 3627,
      "Ġfaen": 3628,
      "Ġpaol": 3629,
      "Ġcogu": 3630,
      "Ġfave": 3631,
      "Ġfati": 3632,
      "atpe": 3633,
      "Ġpear": 3634,
      "Ġgox": 3635,
      "Ġginu": 3636,
      "Ġgico": 3637,
      "olar": 3638,
      "Ġitd": 3639,
      "Ġxod": 3640,
      "Ġxoxa": 3641,
      "Ġzug": 3642,
      "Ġmoet": 3643,
      "uspu": 3644,
      "Ġnize": 3645,
      "Ġcuor": 3646,
      "Ġsore": 3647,
      "feur": 3648,
      "Ġusri": 3649,
      "Ġunus": 3650,
      "Ġelit": 3651,
      "Ġotd": 3652,
      "Ġzefu": 3653,
      "Ġseva": 3654,
      "Ġdual": 3655,
      "Ġmael": 3656,
      "Ġdiun": 3657,
      "Ġcib": 3658,
      "Ġsug": 3659,
      "Ġlen": 3660,
      "Ġcun": 3661,
      "Ġmude": 3662,
      "Ġmalo": 3663,
      "orfo": 3664,
      "Ġpura": 3665,
      "olso": 3666,
      "etma": 3667,
      "Ġliat": 3668,
      "otde": 3669,
      "utel": 3670,
      "oset": 3671,
      "Ġvope": 3672,
      "Ġrodu": 3673,
      "Ġerer": 3674,
      "vedi": 3675,
      "Ġornu": 3676,
      "Ġorni": 3677,
      "Ġunce": 3678,
      "Ġolc": 3679,
      "Ġilfo": 3680,
      "Ġzeun": 3681,
      "Ġpeos": 3682,
      "Ġvuot": 3683,
      "Ġzuv": 3684,
      "Ġbaz": 3685,
      "Ġcien": 3686,
      "osozu": 3687,
      "Ġsatu": 3688,
      "Ġlupo": 3689,
      "Ġcada": 3690,
      "Ġfape": 3691,
      "Ġdona": 3692,
      "rilu": 3693,
      "onen": 3694,
      "atpi": 3695,
      "Ġpial": 3696,
      "Ġpada": 3697,
      "undu": 3698,
      "unde": 3699,
      "Ġvanu": 3700,
      "Ġzag": 3701,
      "Ġzotu": 3702,
      "Ġarre": 3703,
      "Ġarxi": 3704,
      "Ġasat": 3705,
      "Ġdoca": 3706,
      "Ġalve": 3707,
      "Ġusan": 3708,
      "Ġulte": 3709,
      "Ġutan": 3710,
      "Ġutit": 3711,
      "Ġirpi": 3712,
      "Ġelti": 3713,
      "Ġill": 3714,
      "Ġpeon": 3715,
      "Ġrufu": 3716,
      "Ġtuzi": 3717,
      "Ġpule": 3718,
      "Ġsuot": 3719,
      "Ġbael": 3720,
      "Ġciin": 3721,
      "Ġciit": 3722,
      "Ġxien": 3723,
      "Ġtiit": 3724,
      "ixuin": 3725,
      "Ġtave": 3726,
      "Ġtixi": 3727,
      "Ġlapo": 3728,
      "asd": 3729,
      "Ġtode": 3730,
      "rimi": 3731,
      "lela": 3732,
      "ilal": 3733,
      "Ġnene": 3734,
      "erbu": 3735,
      "urla": 3736,
      "urru": 3737,
      "Ġxugi": 3738,
      "Ġatfe": 3739,
      "Ġinat": 3740,
      "Ġsune": 3741,
      "Ġrif": 3742,
      "Ġrizi": 3743,
      "Ġloz": 3744,
      "Ġdod": 3745,
      "Ġdori": 3746,
      "Ġsofe": 3747,
      "vuen": 3748,
      "foin": 3749,
      "vib": 3750,
      "Ġulol": 3751,
      "Ġutte": 3752,
      "Ġuns": 3753,
      "Ġetit": 3754,
      "erte": 3755,
      "Ġruva": 3756,
      "Ġzova": 3757,
      "Ġnob": 3758,
      "Ġdiin": 3759,
      "Ġcavo": 3760,
      "baso": 3761,
      "vout": 3762,
      "vota": 3763,
      "Ġtipu": 3764,
      "Ġbic": 3765,
      "Ġlaxi": 3766,
      "veil": 3767,
      "Ġmout": 3768,
      "Ġfial": 3769,
      "Ġdixa": 3770,
      "riti": 3771,
      "onun": 3772,
      "Ġgixa": 3773,
      "ilcu": 3774,
      "ersu": 3775,
      "ente": 3776,
      "Ġxon": 3777,
      "Ġzil": 3778,
      "Ġatce": 3779,
      "Ġlofe": 3780,
      "Ġbufu": 3781,
      "Ġdem": 3782,
      "Ġdeul": 3783,
      "Ġusur": 3784,
      "Ġerpe": 3785,
      "Ġcebu": 3786,
      "Ġgeco": 3787,
      "Ġruer": 3788,
      "Ġsile": 3789,
      "Ġcaun": 3790,
      "uloin": 3791,
      "fapa": 3792,
      "Ġludu": 3793,
      "Ġcug": 3794,
      "Ġdabu": 3795,
      "Ġanf": 3796,
      "Ġpos": 3797,
      "Ġpola": 3798,
      "Ġgour": 3799,
      "Ġnit": 3800,
      "Ġname": 3801,
      "etsa": 3802,
      "urri": 3803,
      "Ġisos": 3804,
      "Ġisro": 3805,
      "Ġxopu": 3806,
      "irfi": 3807,
      "Ġbeb": 3808,
      "cios": 3809,
      "Ġonlu": 3810,
      "Ġgozo": 3811,
      "Ġrani": 3812,
      "Ġosg": 3813,
      "Ġerp": 3814,
      "Ġerar": 3815,
      "Ġenro": 3816,
      "Ġurv": 3817,
      "Ġolan": 3818,
      "Ġzefe": 3819,
      "Ġseas": 3820,
      "Ġfeet": 3821,
      "orme": 3822,
      "Ġzoen": 3823,
      "Ġxuve": 3824,
      "Ġxoz": 3825,
      "Ġpuin": 3826,
      "Ġdaun": 3827,
      "Ġtiat": 3828,
      "olet": 3829,
      "Ġsuse": 3830,
      "Ġled": 3831,
      "Ġfumu": 3832,
      "rete": 3833,
      "onse": 3834,
      "Ġpusa": 3835,
      "Ġgaxu": 3836,
      "leer": 3837,
      "Ġnud": 3838,
      "olsa": 3839,
      "Ġatn": 3840,
      "Ġnizu": 3841,
      "ancu": 3842,
      "Ġrido": 3843,
      "zaot": 3844,
      "Ġusr": 3845,
      "Ġosdi": 3846,
      "Ġirxa": 3847,
      "Ġelr": 3848,
      "cuir": 3849,
      "Ġzof": 3850,
      "Ġgaer": 3851,
      "Ġnaon": 3852,
      "Ġnaul": 3853,
      "Ġpuil": 3854,
      "Ġvios": 3855,
      "Ġtus": 3856,
      "Ġtero": 3857,
      "Ġmala": 3858,
      "Ġtori": 3859,
      "Ġfac": 3860,
      "Ġfico": 3861,
      "Ġfixe": 3862,
      "Ġdon": 3863,
      "atti": 3864,
      "Ġpot": 3865,
      "Ġvote": 3866,
      "Ġzac": 3867,
      "usul": 3868,
      "Ġatat": 3869,
      "Ġargi": 3870,
      "Ġboco": 3871,
      "Ġenpi": 3872,
      "Ġolul": 3873,
      "Ġxeis": 3874,
      "Ġzoc": 3875,
      "Ġluul": 3876,
      "Ġtaer": 3877,
      "Ġtase": 3878,
      "Ġtena": 3879,
      "Ġsenu": 3880,
      "Ġbade": 3881,
      "Ġludo": 3882,
      "Ġcuc": 3883,
      "inle": 3884,
      "Ġfif": 3885,
      "isd": 3886,
      "Ġpida": 3887,
      "Ġgous": 3888,
      "Ġnax": 3889,
      "otgo": 3890,
      "Ġxis": 3891,
      "Ġxipi": 3892,
      "Ġniza": 3893,
      "Ġdobi": 3894,
      "zere": 3895,
      "bovu": 3896,
      "Ġolbu": 3897,
      "Ġveti": 3898,
      "Ġmeen": 3899,
      "ansa": 3900,
      "Ġpoot": 3901,
      "Ġtev": 3902,
      "Ġfive": 3903,
      "oduot": 3904,
      "Ġsube": 3905,
      "Ġbodu": 3906,
      "Ġlal": 3907,
      "vezo": 3908,
      "asen": 3909,
      "Ġcodo": 3910,
      "Ġfede": 3911,
      "Ġansa": 3912,
      "Ġguxi": 3913,
      "Ġnedo": 3914,
      "alru": 3915,
      "Ġitzu": 3916,
      "Ġxear": 3917,
      "Ġzage": 3918,
      "vaza": 3919,
      "Ġarro": 3920,
      "Ġbule": 3921,
      "Ġbuxe": 3922,
      "unavi": 3923,
      "fiar": 3924,
      "Ġmuce": 3925,
      "Ġxole": 3926,
      "Ġfire": 3927,
      "Ġpure": 3928,
      "Ġziv": 3929,
      "Ġziba": 3930,
      "Ġsog": 3931,
      "Ġsage": 3932,
      "Ġsout": 3933,
      "Ġbela": 3934,
      "Ġmor": 3935,
      "Ġtofi": 3936,
      "Ġdima": 3937,
      "Ġgoge": 3938,
      "Ġrot": 3939,
      "Ġatno": 3940,
      "Ġrexu": 3941,
      "vafu": 3942,
      "Ġasel": 3943,
      "Ġrig": 3944,
      "Ġsobo": 3945,
      "zuzi": 3946,
      "Ġdoge": 3947,
      "bove": 3948,
      "Ġulpu": 3949,
      "Ġutva": 3950,
      "Ġenr": 3951,
      "bive": 3952,
      "Ġolfo": 3953,
      "Ġotel": 3954,
      "erit": 3955,
      "Ġmein": 3956,
      "Ġceal": 3957,
      "Ġfega": 3958,
      "Ġnuvo": 3959,
      "Ġzier": 3960,
      "Ġvero": 3961,
      "Ġosti": 3962,
      "Ġbede": 3963,
      "Ġmubu": 3964,
      "Ġfolu": 3965,
      "rixe": 3966,
      "alxo": 3967,
      "Ġrali": 3968,
      "Ġraco": 3969,
      "Ġlile": 3970,
      "utda": 3971,
      "Ġisri": 3972,
      "Ġxaxe": 3973,
      "Ġzizu": 3974,
      "Ġroos": 3975,
      "Ġloil": 3976,
      "Ġbobi": 3977,
      "zoel": 3978,
      "tufi": 3979,
      "arpi": 3980,
      "Ġust": 3981,
      "raga": 3982,
      "Ġutur": 3983,
      "Ġurzo": 3984,
      "Ġruza": 3985,
      "Ġluet": 3986,
      "Ġpair": 3987,
      "Ġxaer": 3988,
      "Ġbiut": 3989,
      "vaga": 3990,
      "zoma": 3991,
      "zela": 3992,
      "Ġcin": 3993,
      "Ġcite": 3994,
      "Ġcado": 3995,
      "Ġcedo": 3996,
      "Ġcaxo": 3997,
      "Ġmidu": 3998,
      "Ġmilu": 3999,
      "Ġtob": 4000,
      "Ġtoso": 4001,
      "Ġdion": 4002,
      "iton": 4003,
      "orxu": 4004,
      "Ġrumu": 4005,
      "Ġlixe": 4006,
      "Ġitfe": 4007,
      "Ġoret": 4008,
      "Ġvapo": 4009,
      "Ġinna": 4010,
      "Ġriil": 4011,
      "zele": 4012,
      "Ġalan": 4013,
      "Ġdisa": 4014,
      "zaan": 4015,
      "Ġutbo": 4016,
      "Ġett": 4017,
      "Ġilbo": 4018,
      "Ġpeus": 4019,
      "Ġgaul": 4020,
      "Ġzuir": 4021,
      "Ġguv": 4022,
      "Ġtep": 4023,
      "enat": 4024,
      "Ġtodu": 4025,
      "Ġfexo": 4026,
      "Ġpugu": 4027,
      "Ġpiti": 4028,
      "Ġpoge": 4029,
      "ilga": 4030,
      "unit": 4031,
      "Ġrax": 4032,
      "Ġxen": 4033,
      "Ġxupo": 4034,
      "Ġorf": 4035,
      "Ġlaer": 4036,
      "lemo": 4037,
      "Ġulv": 4038,
      "Ġunga": 4039,
      "Ġosda": 4040,
      "Ġelbe": 4041,
      "Ġurza": 4042,
      "Ġveel": 4043,
      "Ġotus": 4044,
      "Ġnazo": 4045,
      "Ġfias": 4046,
      "Ġsiir": 4047,
      "Ġmiin": 4048,
      "orel": 4049,
      "Ġsati": 4050,
      "Ġsixo": 4051,
      "Ġbix": 4052,
      "Ġbeni": 4053,
      "Ġfuda": 4054,
      "Ġfesi": 4055,
      "orzi": 4056,
      "Ġpav": 4057,
      "Ġgose": 4058,
      "Ġgaci": 4059,
      "Ġnaxa": 4060,
      "Ġisas": 4061,
      "Ġvod": 4062,
      "irzu": 4063,
      "Ġinn": 4064,
      "Ġbeos": 4065,
      "axime": 4066,
      "Ġdeit": 4067,
      "zuel": 4068,
      "Ġolde": 4069,
      "Ġbala": 4070,
      "Ġossu": 4071,
      "Ġirf": 4072,
      "Ġelce": 4073,
      "Ġurd": 4074,
      "Ġotpe": 4075,
      "Ġmef": 4076,
      "Ġgeur": 4077,
      "Ġtufa": 4078,
      "Ġziis": 4079,
      "Ġtais": 4080,
      "zope": 4081,
      "Ġsadi": 4082,
      "Ġbab": 4083,
      "Ġbicu": 4084,
      "Ġmaru": 4085,
      "Ġtoen": 4086,
      "Ġforo": 4087,
      "Ġpun": 4088,
      "Ġgeso": 4089,
      "alza": 4090,
      "olxi": 4091,
      "Ġroso": 4092,
      "utde": 4093,
      "Ġxuci": 4094,
      "Ġmom": 4095
    },
    "merges": [
      [
        "Ġ",
        "t"
      ],
      [
        "h",
        "e"
      ],
      [
        "Ġ",
        "a"
      ],
      [
        "Ġt",
        "he"
      ],
      [
        "Ġ",
        "s"
      ],
      [
        "Ġ",
        "w"
      ],
      [
        "Ġ",
        "b"
      ],
      [
        "a",
        "r"
      ],
      [
        "e",
        "d"
      ],
      [
        "Ġ",
        "l"
      ],
      [
        "v",
        "e"
      ],
      [
        "e",
        "n"
      ],
      [
        "a",
        "s"
      ],
      [
        "Ġ",
        "c"
      ],
      [
        "Ġ",
        "m"
      ],
      [
        "Ġt",
        "o"
      ],
      [
        "i",
        "n"
      ],
      [
        "Ġ",
        "f"
      ],
      [
        "r",
        "e"
      ],
      [
        "Ġ",
        "d"
      ],
      [
        "a",
        "n"
      ],
      [
        "o",
        "u"
      ],
      [
        "r",
        "i"
      ],
      [
        "Ġ",
        "T"
      ],
      [
        "i",
        "t"
      ],
      [
        "o",
        "r"
      ],
      [
        "ĠT",
        "he"
      ],
      [
        "Ġa",
        "n"
      ],
      [
        "o",
        "n"
      ],
      [
        "a",
        "t"
      ],
      [
        "i",
        "s"
      ],
      [
        "Ġ",
        "p"
      ],
      [
        "Ġ",
        "g"
      ],
      [
        "l",
        "e"
      ],
      [
        "Ġw",
        "as"
      ],
      [
        "i",
        "l"
      ],
      [
        "u",
        "n"
      ],
      [
        "Ġ",
        "n"
      ],
      [
        "a",
        "l"
      ],
      [
        "o",
        "l"
      ],
      [
        "Ġan",
        "d"
      ],
      [
        "e",
        "r"
      ],
      [
        "ve",
        "r"
      ],
      [
        "e",
        "t"
      ],
      [
        "a",
        "y"
      ],
      [
        "Ġ",
        "h"
      ],
      [
        "Ġ",
        "I"
      ],
      [
        "o",
        "w"
      ],
      [
        "i",
        "d"
      ],
      [
        "c",
        "e"
      ],
      [
        "Ġ",
        "r"
      ],
      [
        "Ġl",
        "i"
      ],
      [
        "e",
        "l"
      ],
      [
        "a",
        "d"
      ],
      [
        "o",
        "k"
      ],
      [
        "a",
        "ve"
      ],
      [
        "g",
        "h"
      ],
      [
        "gh",
        "t"
      ],
      [
        "o",
        "t"
      ],
      [
        "u",
        "t"
      ],
      [
        "e",
        "s"
      ],
      [
        "Ġ",
        "L"
      ],
      [
        "a",
        "g"
      ],
      [
        "en",
        "t"
      ],
      [
        "u",
        "r"
      ],
      [
        "Ġ",
        "it"
      ],
      [
        "Ġ",
        "O"
      ],
      [
        "Ġ",
        "is"
      ],
      [
        "Ġ",
        "o"
      ],
      [
        "i",
        "m"
      ],
      [
        "ou",
        "n"
      ],
      [
        "Ġ",
        "S"
      ],
      [
        "Ġ",
        "M"
      ],
      [
        "e",
        "ar"
      ],
      [
        "Ġ",
        "E"
      ],
      [
        "Ġs",
        "h"
      ],
      [
        "Ġs",
        "a"
      ],
      [
        "Ġ",
        "A"
      ],
      [
        "u",
        "l"
      ],
      [
        "o",
        "s"
      ],
      [
        "Ġ",
        "Ċ"
      ],
      [
        "i",
        "c"
      ],
      [
        "k",
        "e"
      ],
      [
        "l",
        "y"
      ],
      [
        "Ġ",
        "x"
      ],
      [
        "Ġ",
        "v"
      ],
      [
        "en",
        "d"
      ],
      [
        "Ġf",
        "ri"
      ],
      [
        "Ġfri",
        "end"
      ],
      [
        "t",
        "le"
      ],
      [
        "Ġ",
        "z"
      ],
      [
        "l",
        "i"
      ],
      [
        "in",
        "g"
      ],
      [
        "Ġm",
        "o"
      ],
      [
        "i",
        "r"
      ],
      [
        "t",
        "h"
      ],
      [
        "a",
        "m"
      ],
      [
        "Ġd",
        "ay"
      ],
      [
        "u",
        "p"
      ],
      [
        "ĠO",
        "n"
      ],
      [
        "Ġ",
        "y"
      ],
      [
        "o",
        "ok"
      ],
      [
        "u",
        "s"
      ],
      [
        "o",
        "m"
      ],
      [
        "a",
        "c"
      ],
      [
        "Ġa",
        "t"
      ],
      [
        "Ġsa",
        "id"
      ],
      [
        "ver",
        "y"
      ],
      [
        "Ġ",
        "in"
      ],
      [
        "l",
        "a"
      ],
      [
        "Ġh",
        "ave"
      ],
      [
        "u",
        "g"
      ],
      [
        "Ġr",
        "o"
      ],
      [
        "h",
        "o"
      ],
      [
        "Ġ",
        "e"
      ],
      [
        "ĠThe",
        "y"
      ],
      [
        "ĠI",
        "t"
      ],
      [
        "Ġ",
        "B"
      ],
      [
        "Ġa",
        "re"
      ],
      [
        "u",
        "c"
      ],
      [
        "Ġb",
        "e"
      ],
      [
        "i",
        "g"
      ],
      [
        "Ġ",
        "he"
      ],
      [
        "ol",
        "d"
      ],
      [
        "Ġs",
        "un"
      ],
      [
        "o",
        "g"
      ],
      [
        "ou",
        "s"
      ],
      [
        "Ġc",
        "l"
      ],
      [
        "t",
        "ar"
      ],
      [
        "Ġb",
        "ri"
      ],
      [
        "l",
        "o"
      ],
      [
        "Ġ",
        "re"
      ],
      [
        "o",
        "x"
      ],
      [
        "Ġy",
        "ou"
      ],
      [
        "a",
        "p"
      ],
      [
        "i",
        "f"
      ],
      [
        "Ġp",
        "l"
      ],
      [
        "an",
        "t"
      ],
      [
        "Ġ",
        "\""
      ],
      [
        "oun",
        "d"
      ],
      [
        "v",
        "ed"
      ],
      [
        "Ġpl",
        "ay"
      ],
      [
        "Ġn",
        "i"
      ],
      [
        "Ġ",
        "up"
      ],
      [
        "Ġw",
        "ho"
      ],
      [
        "Ġl",
        "ear"
      ],
      [
        "ĠOn",
        "e"
      ],
      [
        "Ġs",
        "ol"
      ],
      [
        "Ġlear",
        "n"
      ],
      [
        "a",
        "ke"
      ],
      [
        "Ġt",
        "h"
      ],
      [
        "Ġw",
        "ant"
      ],
      [
        "Ġc",
        "an"
      ],
      [
        "u",
        "m"
      ],
      [
        "Ġ",
        "H"
      ],
      [
        "u",
        "d"
      ],
      [
        "i",
        "on"
      ],
      [
        "Ġt",
        "al"
      ],
      [
        "Ġm",
        "ag"
      ],
      [
        "e",
        "p"
      ],
      [
        "v",
        "a"
      ],
      [
        "Ġwant",
        "ed"
      ],
      [
        "Ġto",
        "ok"
      ],
      [
        "k",
        "ed"
      ],
      [
        "Ġw",
        "ent"
      ],
      [
        "Ġ",
        "very"
      ],
      [
        "Ġw",
        "it"
      ],
      [
        "Ġwit",
        "h"
      ],
      [
        "or",
        "a"
      ],
      [
        "Ġmag",
        "ic"
      ],
      [
        "il",
        "o"
      ],
      [
        "u",
        "b"
      ],
      [
        "Ġ",
        "F"
      ],
      [
        "Ġ",
        "C"
      ],
      [
        "o",
        "p"
      ],
      [
        "Ġa",
        "r"
      ],
      [
        "a",
        "x"
      ],
      [
        "Ġb",
        "r"
      ],
      [
        "Ġa",
        "s"
      ],
      [
        "f",
        "t"
      ],
      [
        "q",
        "u"
      ],
      [
        "Ġn",
        "e"
      ],
      [
        "a",
        "in"
      ],
      [
        "an",
        "c"
      ],
      [
        "Ġ",
        "J"
      ],
      [
        "ou",
        "d"
      ],
      [
        "ĠM",
        "ilo"
      ],
      [
        "ĠL",
        "uc"
      ],
      [
        "l",
        "p"
      ],
      [
        "c",
        "i"
      ],
      [
        "Ġ",
        "R"
      ],
      [
        "Ġ",
        "N"
      ],
      [
        "at",
        "er"
      ],
      [
        "Ġb",
        "ig"
      ],
      [
        "Ġ",
        "ri"
      ],
      [
        "Ġhe",
        "lp"
      ],
      [
        "Ġni",
        "ght"
      ],
      [
        "ook",
        "s"
      ],
      [
        "ar",
        "th"
      ],
      [
        "ĠE",
        "arth"
      ],
      [
        "Ġsol",
        "id"
      ],
      [
        "Ġsh",
        "in"
      ],
      [
        "Ġfriend",
        "ly"
      ],
      [
        "Ġs",
        "il"
      ],
      [
        "Ġbri",
        "ght"
      ],
      [
        "Ġl",
        "it"
      ],
      [
        "Ġlit",
        "tle"
      ],
      [
        "i",
        "x"
      ],
      [
        "Ġc",
        "ar"
      ],
      [
        "un",
        "n"
      ],
      [
        "i",
        "e"
      ],
      [
        "Ġf",
        "is"
      ],
      [
        "Ġd",
        "re"
      ],
      [
        "Ġ",
        "on"
      ],
      [
        "Ġmo",
        "on"
      ],
      [
        "Ġs",
        "tar"
      ],
      [
        "Ġli",
        "ght"
      ],
      [
        "Ġfis",
        "h"
      ],
      [
        "Ġ",
        "k"
      ],
      [
        "l",
        "ow"
      ],
      [
        "unn",
        "y"
      ],
      [
        "Ġ",
        "or"
      ],
      [
        "Ġl",
        "o"
      ],
      [
        "ous",
        "e"
      ],
      [
        "c",
        "o"
      ],
      [
        "Ġm",
        "et"
      ],
      [
        "Ġl",
        "e"
      ],
      [
        "r",
        "o"
      ],
      [
        "Ġd",
        "o"
      ],
      [
        "oun",
        "t"
      ],
      [
        "a",
        "b"
      ],
      [
        "m",
        "a"
      ],
      [
        "Ġ",
        "W"
      ],
      [
        "Ġ",
        "j"
      ],
      [
        "an",
        "g"
      ],
      [
        "Ġg",
        "i"
      ],
      [
        "Ġf",
        "ar"
      ],
      [
        "Ġt",
        "im"
      ],
      [
        "Ġb",
        "u"
      ],
      [
        "Ġw",
        "e"
      ],
      [
        "e",
        "ad"
      ],
      [
        "o",
        "d"
      ],
      [
        "ar",
        "k"
      ],
      [
        "b",
        "ed"
      ],
      [
        "ount",
        "ain"
      ],
      [
        "i",
        "z"
      ],
      [
        "Ġc",
        "u"
      ],
      [
        "g",
        "en"
      ],
      [
        "x",
        "p"
      ],
      [
        "Ġe",
        "xp"
      ],
      [
        "l",
        "u"
      ],
      [
        "Ġo",
        "p"
      ],
      [
        "Ġto",
        "g"
      ],
      [
        "Ġg",
        "o"
      ],
      [
        "Ġ",
        "Y"
      ],
      [
        "Ġs",
        "o"
      ],
      [
        "g",
        "e"
      ],
      [
        "Ġ",
        "="
      ],
      [
        "he",
        "r"
      ],
      [
        "et",
        "her"
      ],
      [
        "Ġtog",
        "ether"
      ],
      [
        "r",
        "a"
      ],
      [
        "Ġl",
        "a"
      ],
      [
        "Ġc",
        "as"
      ],
      [
        "ri",
        "s"
      ],
      [
        "ur",
        "p"
      ],
      [
        "le",
        "s"
      ],
      [
        "or",
        "n"
      ],
      [
        "Ġ",
        "1"
      ],
      [
        "el",
        "lo"
      ],
      [
        "Ġb",
        "ut"
      ],
      [
        "Ġri",
        "ver"
      ],
      [
        "H",
        "ello"
      ],
      [
        "Ġb",
        "es"
      ],
      [
        "Ġt",
        "re"
      ],
      [
        "Ġtre",
        "e"
      ],
      [
        "Ġcas",
        "tle"
      ],
      [
        "ac",
        "h"
      ],
      [
        "Ġm",
        "an"
      ],
      [
        "ĠY",
        "ou"
      ],
      [
        "Ġb",
        "o"
      ],
      [
        "Ġtim",
        "e"
      ],
      [
        "ot",
        "e"
      ],
      [
        "Ġl",
        "oud"
      ],
      [
        "ĠThe",
        "re"
      ],
      [
        "ĠOn",
        "ce"
      ],
      [
        "Ġup",
        "on"
      ],
      [
        "Ġloud",
        "ly"
      ],
      [
        "Ġn",
        "ear"
      ],
      [
        "Ġthe",
        "re"
      ],
      [
        "Ġto",
        "o"
      ],
      [
        "ĠI",
        "n"
      ],
      [
        "!",
        "\""
      ],
      [
        "?",
        "\""
      ],
      [
        "H",
        "ow"
      ],
      [
        "Ġs",
        "urp"
      ],
      [
        "Ġtal",
        "k"
      ],
      [
        "Ġas",
        "ked"
      ],
      [
        "ris",
        "ed"
      ],
      [
        "Ġsurp",
        "rised"
      ],
      [
        "Ġlo",
        "ved"
      ],
      [
        "z",
        "e"
      ],
      [
        "Ġh",
        "ad"
      ],
      [
        "Ġsh",
        "ow"
      ],
      [
        "Ġth",
        "at"
      ],
      [
        "Ġthe",
        "y"
      ],
      [
        "Ġfriend",
        "s"
      ],
      [
        "Ġe",
        "very"
      ],
      [
        "Ġwe",
        "re"
      ],
      [
        "Ġbes",
        "t"
      ],
      [
        "Ġw",
        "ok"
      ],
      [
        "Ġm",
        "orn"
      ],
      [
        "Ġwok",
        "e"
      ],
      [
        "Ġmorn",
        "ing"
      ],
      [
        "ud",
        "e"
      ],
      [
        "Ġli",
        "ved"
      ],
      [
        "un",
        "a"
      ],
      [
        "Ġa",
        "d"
      ],
      [
        "v",
        "u"
      ],
      [
        "ve",
        "s"
      ],
      [
        "ad",
        "e"
      ],
      [
        "al",
        "s"
      ],
      [
        "i",
        "et"
      ],
      [
        "ug",
        "o"
      ],
      [
        "v",
        "o"
      ],
      [
        "om",
        "e"
      ],
      [
        "Ġman",
        "y"
      ],
      [
        "z",
        "o"
      ],
      [
        "f",
        "e"
      ],
      [
        "a",
        "ut"
      ],
      [
        "Ġm",
        "ake"
      ],
      [
        "t",
        "u"
      ],
      [
        "Ġ",
        "D"
      ],
      [
        "Ġgi",
        "ves"
      ],
      [
        "k",
        "y"
      ],
      [
        "Ġs",
        "ky"
      ],
      [
        "Ġa",
        "l"
      ],
      [
        "u",
        "x"
      ],
      [
        "il",
        "t"
      ],
      [
        "el",
        "s"
      ],
      [
        "ar",
        "p"
      ],
      [
        "Ġr",
        "an"
      ],
      [
        "il",
        "d"
      ],
      [
        "ot",
        "s"
      ],
      [
        "c",
        "ar"
      ],
      [
        "Ġ",
        "Ġ"
      ],
      [
        "Ġp",
        "ed"
      ],
      [
        "he",
        "s"
      ],
      [
        "Ġto",
        "p"
      ],
      [
        "Ġd",
        "is"
      ],
      [
        "or",
        "d"
      ],
      [
        "Ġd",
        "e"
      ],
      [
        "Ġp",
        "ag"
      ],
      [
        "Ġh",
        "as"
      ],
      [
        "in",
        "n"
      ],
      [
        "Ġg",
        "as"
      ],
      [
        "r",
        "lo"
      ],
      [
        "Ġm",
        "ade"
      ],
      [
        "ĠA",
        "rlo"
      ],
      [
        "e",
        "o"
      ],
      [
        "ĠJ",
        "ude"
      ],
      [
        "ĠT",
        "om"
      ],
      [
        "l",
        "or"
      ],
      [
        "ub",
        "y"
      ],
      [
        "ar",
        "ed"
      ],
      [
        "ĠR",
        "uby"
      ],
      [
        "o",
        "e"
      ],
      [
        "ĠM",
        "ax"
      ],
      [
        "r",
        "ote"
      ],
      [
        "Ġw",
        "rote"
      ],
      [
        "ac",
        "k"
      ],
      [
        "os",
        "ed"
      ],
      [
        "ĠJ",
        "ack"
      ],
      [
        "G",
        "ra"
      ],
      [
        "Gra",
        "ce"
      ],
      [
        "ay",
        "la"
      ],
      [
        "Ġf",
        "ound"
      ],
      [
        "h",
        "ar"
      ],
      [
        "li",
        "e"
      ],
      [
        "har",
        "lie"
      ],
      [
        "Ġbu",
        "ilt"
      ],
      [
        "i",
        "a"
      ],
      [
        "z",
        "u"
      ],
      [
        "ri",
        "ed"
      ],
      [
        "Ġcar",
        "ried"
      ],
      [
        "m",
        "ma"
      ],
      [
        "el",
        "ix"
      ],
      [
        "Ġ",
        "Grace"
      ],
      [
        "ĠL",
        "ayla"
      ],
      [
        "Ġg",
        "ave"
      ],
      [
        "ĠC",
        "harlie"
      ],
      [
        "arp",
        "er"
      ],
      [
        "p",
        "ed"
      ],
      [
        "ĠM",
        "ia"
      ],
      [
        "ĠE",
        "mma"
      ],
      [
        "ĠF",
        "elix"
      ],
      [
        "ĠS",
        "am"
      ],
      [
        "h",
        "ie"
      ],
      [
        "op",
        "hie"
      ],
      [
        "l",
        "la"
      ],
      [
        "ĠL",
        "una"
      ],
      [
        "z",
        "a"
      ],
      [
        "Ġb",
        "lu"
      ],
      [
        "ĠH",
        "arper"
      ],
      [
        "Ġblu",
        "e"
      ],
      [
        "Ġcl",
        "osed"
      ],
      [
        "ĠE",
        "lla"
      ],
      [
        "ĠL",
        "eo"
      ],
      [
        "ĠS",
        "ophie"
      ],
      [
        "ĠLuc",
        "y"
      ],
      [
        "Ġdre",
        "w"
      ],
      [
        "ĠLuc",
        "as"
      ],
      [
        "v",
        "y"
      ],
      [
        "Ġsh",
        "ared"
      ],
      [
        "ĠF",
        "inn"
      ],
      [
        "ĠI",
        "vy"
      ],
      [
        "s",
        "la"
      ],
      [
        "ag",
        "e"
      ],
      [
        "Z",
        "oe"
      ],
      [
        "Ġli",
        "ked"
      ],
      [
        "a",
        "h"
      ],
      [
        "o",
        "ah"
      ],
      [
        "ĠH",
        "ugo"
      ],
      [
        "Ġs",
        "ang"
      ],
      [
        "s",
        "car"
      ],
      [
        "il",
        "y"
      ],
      [
        "ĠN",
        "oah"
      ],
      [
        "Ġ",
        "Zoe"
      ],
      [
        "ĠB",
        "en"
      ],
      [
        "ĠO",
        "scar"
      ],
      [
        "ĠC",
        "ora"
      ],
      [
        "Ġexp",
        "lor"
      ],
      [
        "Ġexplor",
        "ed"
      ],
      [
        "Ġ",
        "old"
      ],
      [
        "ĠL",
        "ily"
      ],
      [
        "th",
        "an"
      ],
      [
        "ou",
        "ght"
      ],
      [
        "Ġth",
        "ought"
      ],
      [
        "Ġf",
        "as"
      ],
      [
        "Ġd",
        "anc"
      ],
      [
        "Ġdanc",
        "ed"
      ],
      [
        "en",
        "ed"
      ],
      [
        "Ġop",
        "ened"
      ],
      [
        "ĠE",
        "than"
      ],
      [
        "Ġre",
        "ad"
      ],
      [
        "Ġmo",
        "ve"
      ],
      [
        "Ġplay",
        "ed"
      ],
      [
        "ĠThe",
        "o"
      ],
      [
        "ĠA",
        "va"
      ],
      [
        "ri",
        "a"
      ],
      [
        "um",
        "ped"
      ],
      [
        "Ġj",
        "umped"
      ],
      [
        "ĠI",
        "sla"
      ],
      [
        "li",
        "ce"
      ],
      [
        "Ġsa",
        "w"
      ],
      [
        "Ġt",
        "in"
      ],
      [
        "ĠA",
        "ria"
      ],
      [
        "ĠA",
        "lice"
      ],
      [
        "li",
        "ver"
      ],
      [
        "he",
        "d"
      ],
      [
        "ug",
        "hed"
      ],
      [
        "Ġla",
        "ughed"
      ],
      [
        "Ġlearn",
        "ed"
      ],
      [
        "im",
        "bed"
      ],
      [
        "Ġcl",
        "imbed"
      ],
      [
        "ver",
        "ed"
      ],
      [
        "co",
        "vered"
      ],
      [
        "Ġdis",
        "covered"
      ],
      [
        "ĠO",
        "liver"
      ],
      [
        "ĠN",
        "ora"
      ],
      [
        "f",
        "o"
      ],
      [
        "Ġhelp",
        "ed"
      ],
      [
        "c",
        "les"
      ],
      [
        "w",
        "o"
      ],
      [
        "y",
        "cles"
      ],
      [
        "Ġt",
        "wo"
      ],
      [
        "he",
        "els"
      ],
      [
        "Ġw",
        "heels"
      ],
      [
        "ic",
        "ycles"
      ],
      [
        "ĠB",
        "icycles"
      ],
      [
        "Ġped",
        "al"
      ],
      [
        "it",
        "e"
      ],
      [
        "w",
        "ay"
      ],
      [
        "Ġa",
        "way"
      ],
      [
        "ĠS",
        "tar"
      ],
      [
        "ĠS",
        "ome"
      ],
      [
        "Ġsun",
        "s"
      ],
      [
        "Ġshin",
        "e"
      ],
      [
        "ĠStar",
        "s"
      ],
      [
        "Ġro",
        "c"
      ],
      [
        "Ġb",
        "ark"
      ],
      [
        "Ġan",
        "im"
      ],
      [
        "Ġli",
        "ke"
      ],
      [
        "og",
        "s"
      ],
      [
        "ĠD",
        "ogs"
      ],
      [
        "Ġanim",
        "als"
      ],
      [
        "ave",
        "s"
      ],
      [
        "Ġw",
        "ord"
      ],
      [
        "ĠB",
        "ooks"
      ],
      [
        "ĠR",
        "ead"
      ],
      [
        "Ġhelp",
        "s"
      ],
      [
        "Ġpag",
        "es"
      ],
      [
        "Ġword",
        "s"
      ],
      [
        "ĠRead",
        "ing"
      ],
      [
        "Ġhe",
        "at"
      ],
      [
        "x",
        "y"
      ],
      [
        "re",
        "es"
      ],
      [
        "ĠT",
        "rees"
      ],
      [
        "Ġo",
        "xy"
      ],
      [
        "Ġro",
        "ots"
      ],
      [
        "Ġbr",
        "anc"
      ],
      [
        "Ġle",
        "aves"
      ],
      [
        "Ġoxy",
        "gen"
      ],
      [
        "Ġbranc",
        "hes"
      ],
      [
        "Ġr",
        "ed"
      ],
      [
        "v",
        "i"
      ],
      [
        "ve",
        "n"
      ],
      [
        "ce",
        "an"
      ],
      [
        "Ġw",
        "ater"
      ],
      [
        "ĠI",
        "ce"
      ],
      [
        "Ġli",
        "qu"
      ],
      [
        "ĠW",
        "ater"
      ],
      [
        "Ġliqu",
        "id"
      ],
      [
        "Ġl",
        "ooks"
      ],
      [
        "Ġar",
        "ound"
      ],
      [
        "Ġgo",
        "es"
      ],
      [
        "Ġo",
        "cean"
      ],
      [
        "k",
        "s"
      ],
      [
        "n",
        "ow"
      ],
      [
        "Ġo",
        "ft"
      ],
      [
        "ĠS",
        "now"
      ],
      [
        "ĠM",
        "ountain"
      ],
      [
        "Ġtal",
        "l"
      ],
      [
        "Ġroc",
        "ks"
      ],
      [
        "Ġoft",
        "en"
      ],
      [
        "ĠMountain",
        "s"
      ],
      [
        "ar",
        "m"
      ],
      [
        "Ġcu",
        "ri"
      ],
      [
        "f",
        "i"
      ],
      [
        "Ġcuri",
        "ous"
      ],
      [
        "Ġw",
        "ild"
      ],
      [
        "Ġc",
        "old"
      ],
      [
        "z",
        "i"
      ],
      [
        "Ġbr",
        "ave"
      ],
      [
        "Ġfas",
        "t"
      ],
      [
        "Ġtin",
        "y"
      ],
      [
        "in",
        "d"
      ],
      [
        "Ġso",
        "ft"
      ],
      [
        "Ġg",
        "ent"
      ],
      [
        "Ġgent",
        "le"
      ],
      [
        "p",
        "y"
      ],
      [
        "Ġh",
        "ap"
      ],
      [
        "Ġhap",
        "py"
      ],
      [
        "Ġs",
        "low"
      ],
      [
        "Ġshin",
        "y"
      ],
      [
        "Ġsil",
        "ly"
      ],
      [
        "Ġk",
        "ind"
      ],
      [
        "Ġs",
        "le"
      ],
      [
        "ep",
        "y"
      ],
      [
        "Ġsle",
        "epy"
      ],
      [
        "Ġsil",
        "ver"
      ],
      [
        "oun",
        "g"
      ],
      [
        "Ġy",
        "oung"
      ],
      [
        "Ġan",
        "ci"
      ],
      [
        "Ġ",
        "qu"
      ],
      [
        "Ġqu",
        "iet"
      ],
      [
        "Ġc",
        "le"
      ],
      [
        "Ġcle",
        "ver"
      ],
      [
        "Ġne",
        "w"
      ],
      [
        "Ġw",
        "arm"
      ],
      [
        "Ġf",
        "unny"
      ],
      [
        "Ġanci",
        "ent"
      ],
      [
        "Ġg",
        "old"
      ],
      [
        "Ġgold",
        "en"
      ],
      [
        "Ġbe",
        "aut"
      ],
      [
        "if",
        "ul"
      ],
      [
        "Ġbeaut",
        "iful"
      ],
      [
        "f",
        "u"
      ],
      [
        "Ġd",
        "og"
      ],
      [
        "b",
        "e"
      ],
      [
        "le",
        "m"
      ],
      [
        "f",
        "a"
      ],
      [
        "e",
        "m"
      ],
      [
        "ir",
        "d"
      ],
      [
        "b",
        "o"
      ],
      [
        "s",
        "t"
      ],
      [
        "g",
        "o"
      ],
      [
        "Ġc",
        "at"
      ],
      [
        "Ġs",
        "on"
      ],
      [
        "e",
        "c"
      ],
      [
        "Ġf",
        "o"
      ],
      [
        "r",
        "ar"
      ],
      [
        "Ġb",
        "al"
      ],
      [
        "Ġli",
        "b"
      ],
      [
        "Ġro",
        "b"
      ],
      [
        "Ġb",
        "ox"
      ],
      [
        "Ġt",
        "ur"
      ],
      [
        "i",
        "p"
      ],
      [
        "Ġ",
        "us"
      ],
      [
        "rar",
        "y"
      ],
      [
        "Ġlib",
        "rary"
      ],
      [
        "r",
        "ag"
      ],
      [
        "Ġf",
        "ox"
      ],
      [
        "Ġbo",
        "at"
      ],
      [
        "Ġb",
        "ear"
      ],
      [
        "Ġre",
        "s"
      ],
      [
        "ad",
        "ow"
      ],
      [
        "Ġsh",
        "adow"
      ],
      [
        "Ġdo",
        "or"
      ],
      [
        "Ġb",
        "ook"
      ],
      [
        "t",
        "or"
      ],
      [
        "Ġcl",
        "oud"
      ],
      [
        "Ġtur",
        "tle"
      ],
      [
        "Ġrob",
        "ot"
      ],
      [
        "Ġk",
        "ite"
      ],
      [
        "Ġc",
        "ook"
      ],
      [
        "Ġcook",
        "ie"
      ],
      [
        "Ġd",
        "rag"
      ],
      [
        "Ġdrag",
        "on"
      ],
      [
        "Ġad",
        "ven"
      ],
      [
        "tu",
        "re"
      ],
      [
        "Ġadven",
        "ture"
      ],
      [
        "Ġc",
        "ake"
      ],
      [
        "Ġd",
        "at"
      ],
      [
        "Ġson",
        "g"
      ],
      [
        "Ġ",
        "ow"
      ],
      [
        "Ġow",
        "l"
      ],
      [
        "Ġf",
        "low"
      ],
      [
        "Ġflow",
        "er"
      ],
      [
        "Ġm",
        "ouse"
      ],
      [
        "Ġb",
        "ird"
      ],
      [
        "Ġdre",
        "am"
      ],
      [
        "Ġbal",
        "l"
      ],
      [
        "Ġ",
        "ke"
      ],
      [
        "Ġke",
        "y"
      ],
      [
        "d",
        "ge"
      ],
      [
        "Ġbri",
        "dge"
      ],
      [
        "Ġ",
        "ul"
      ],
      [
        "Ġb",
        "unny"
      ],
      [
        "Ġh",
        "at"
      ],
      [
        "Ġ",
        "ut"
      ],
      [
        "Ġs",
        "tor"
      ],
      [
        "Ġstor",
        "y"
      ],
      [
        "b",
        "u"
      ],
      [
        "at",
        "ion"
      ],
      [
        "w",
        "or"
      ],
      [
        "wor",
        "k"
      ],
      [
        "Ġp",
        "ro"
      ],
      [
        "Ġt",
        "r"
      ],
      [
        "Ġ",
        "un"
      ],
      [
        "b",
        "a"
      ],
      [
        "Ġo",
        "s"
      ],
      [
        "Ġ",
        "et"
      ],
      [
        "Ġ",
        "er"
      ],
      [
        "Ġ",
        "ir"
      ],
      [
        "Ġ",
        "en"
      ],
      [
        "Ġ",
        "el"
      ],
      [
        "b",
        "i"
      ],
      [
        "Ġ",
        "ur"
      ],
      [
        "Ġ",
        "ol"
      ],
      [
        "e",
        "x"
      ],
      [
        "am",
        "e"
      ],
      [
        "Ġ",
        "ve"
      ],
      [
        "Ġ",
        "ot"
      ],
      [
        "d",
        "ing"
      ],
      [
        "p",
        "p"
      ],
      [
        "Ġa",
        "pp"
      ],
      [
        "Ġ",
        "il"
      ],
      [
        "a",
        "v"
      ],
      [
        "ar",
        "i"
      ],
      [
        "ad",
        "i"
      ],
      [
        "in",
        "e"
      ],
      [
        "od",
        "e"
      ],
      [
        "i",
        "al"
      ],
      [
        "Ġc",
        "om"
      ],
      [
        "c",
        "a"
      ],
      [
        "g",
        "u"
      ],
      [
        "e",
        "ri"
      ],
      [
        "c",
        "u"
      ],
      [
        "ut",
        "ion"
      ],
      [
        "b",
        "lem"
      ],
      [
        "Ġ",
        "2"
      ],
      [
        "ar",
        "d"
      ],
      [
        "an",
        "d"
      ],
      [
        "h",
        "at"
      ],
      [
        "Ġd",
        "es"
      ],
      [
        "Ġv",
        "il"
      ],
      [
        "Ġc",
        "it"
      ],
      [
        "er",
        "t"
      ],
      [
        "Ġ",
        "5"
      ],
      [
        "Ġ",
        "9"
      ],
      [
        "Ġ",
        "Q"
      ],
      [
        "g",
        "a"
      ],
      [
        "Ġ",
        "+"
      ],
      [
        "x",
        "o"
      ],
      [
        "Ġ",
        "8"
      ],
      [
        "Ġ",
        "7"
      ],
      [
        "Ġ",
        "4"
      ],
      [
        "Ġm",
        "e"
      ],
      [
        "Ġfo",
        "re"
      ],
      [
        "Ġis",
        "l"
      ],
      [
        "Ġ",
        "6"
      ],
      [
        "Ġbe",
        "ach"
      ],
      [
        "Ġ",
        "3"
      ],
      [
        "Ġp",
        "ar"
      ],
      [
        "c",
        "ho"
      ],
      [
        "Ġs",
        "cho"
      ],
      [
        "Ġscho",
        "ol"
      ],
      [
        "Ġl",
        "ake"
      ],
      [
        "g",
        "r"
      ],
      [
        "Ġplay",
        "gr"
      ],
      [
        "Ġplaygr",
        "ound"
      ],
      [
        "Ġg",
        "ard"
      ],
      [
        "Ġgard",
        "en"
      ],
      [
        "Ġn",
        "et"
      ],
      [
        "Ġfore",
        "st"
      ],
      [
        "Ġm",
        "ountain"
      ],
      [
        "Ġfar",
        "m"
      ],
      [
        "Ġc",
        "ave"
      ],
      [
        "Ġm",
        "ead"
      ],
      [
        "Ġmead",
        "ow"
      ],
      [
        "Ġisl",
        "and"
      ],
      [
        "l",
        "age"
      ],
      [
        "Ġvil",
        "lage"
      ],
      [
        "Ġar",
        "t"
      ],
      [
        "Ġcit",
        "y"
      ],
      [
        "h",
        "ouse"
      ],
      [
        "Ġtree",
        "house"
      ],
      [
        "Ġp",
        "ark"
      ],
      [
        "Ġl",
        "os"
      ],
      [
        "Ġdes",
        "ert"
      ],
      [
        "Ġin",
        "t"
      ],
      [
        "Ġz",
        "e"
      ],
      [
        "Ġh",
        "ouse"
      ],
      [
        "x",
        "u"
      ],
      [
        "p",
        "e"
      ],
      [
        "Ġp",
        "e"
      ],
      [
        "x",
        "i"
      ],
      [
        "Ġc",
        "e"
      ],
      [
        "an",
        "s"
      ],
      [
        "Ġat",
        "t"
      ],
      [
        "Ġp",
        "ap"
      ],
      [
        "x",
        "e"
      ],
      [
        "Ġs",
        "e"
      ],
      [
        "ul",
        "t"
      ],
      [
        "ri",
        "p"
      ],
      [
        "Ġf",
        "un"
      ],
      [
        "Ġf",
        "e"
      ],
      [
        "ci",
        "en"
      ],
      [
        "ur",
        "al"
      ],
      [
        "or",
        "m"
      ],
      [
        "Ġmo",
        "d"
      ],
      [
        "im",
        "iz"
      ],
      [
        "Ġn",
        "u"
      ],
      [
        "Ġc",
        "ode"
      ],
      [
        "et",
        "er"
      ],
      [
        "Ġv",
        "ari"
      ],
      [
        "eri",
        "m"
      ],
      [
        "g",
        "i"
      ],
      [
        "as",
        "et"
      ],
      [
        "p",
        "ut"
      ],
      [
        "ang",
        "u"
      ],
      [
        "Ġan",
        "al"
      ],
      [
        "Ġal",
        "go"
      ],
      [
        "c",
        "ur"
      ],
      [
        "y",
        "st"
      ],
      [
        "Ġs",
        "yst"
      ],
      [
        "as",
        "c"
      ],
      [
        "Ġsyst",
        "em"
      ],
      [
        "el",
        "li"
      ],
      [
        "m",
        "bed"
      ],
      [
        "Ġe",
        "mbed"
      ],
      [
        "Ġembed",
        "ding"
      ],
      [
        "m",
        "e"
      ],
      [
        "Ġx",
        "e"
      ],
      [
        "Ġnet",
        "work"
      ],
      [
        "Ġdat",
        "a"
      ],
      [
        "y",
        "th"
      ],
      [
        "Ġp",
        "yth"
      ],
      [
        "Ġpyth",
        "on"
      ],
      [
        "Ġexp",
        "erim"
      ],
      [
        "Ġexperim",
        "ent"
      ],
      [
        "Ġlos",
        "s"
      ],
      [
        "gen",
        "ce"
      ],
      [
        "Ġint",
        "elli"
      ],
      [
        "Ġintelli",
        "gence"
      ],
      [
        "c",
        "cur"
      ],
      [
        "Ġa",
        "ccur"
      ],
      [
        "ac",
        "y"
      ],
      [
        "Ġaccur",
        "acy"
      ],
      [
        "ic",
        "ial"
      ],
      [
        "if",
        "icial"
      ],
      [
        "Ġart",
        "ificial"
      ],
      [
        "Ġne",
        "ural"
      ],
      [
        "Ġcom",
        "put"
      ],
      [
        "Ġcomput",
        "er"
      ],
      [
        "s",
        "is"
      ],
      [
        "p",
        "lem"
      ],
      [
        "Ġ",
        "im"
      ],
      [
        "ent",
        "ation"
      ],
      [
        "plem",
        "entation"
      ],
      [
        "Ġim",
        "plementation"
      ],
      [
        "ri",
        "th"
      ],
      [
        "Ġalgo",
        "rith"
      ],
      [
        "Ġalgorith",
        "m"
      ],
      [
        "Ġlearn",
        "ing"
      ],
      [
        "Ġsol",
        "ution"
      ],
      [
        "Ġm",
        "ach"
      ],
      [
        "Ġmach",
        "ine"
      ],
      [
        "c",
        "t"
      ],
      [
        "Ġfun",
        "ct"
      ],
      [
        "Ġfunct",
        "ion"
      ],
      [
        "r",
        "u"
      ],
      [
        "Ġres",
        "ult"
      ],
      [
        "k",
        "en"
      ],
      [
        "Ġto",
        "ken"
      ],
      [
        "t",
        "imiz"
      ],
      [
        "Ġop",
        "timiz"
      ],
      [
        "Ġoptimiz",
        "ation"
      ],
      [
        "ho",
        "d"
      ],
      [
        "Ġmet",
        "hod"
      ],
      [
        "Ġj",
        "av"
      ],
      [
        "rip",
        "t"
      ],
      [
        "asc",
        "ript"
      ],
      [
        "Ġjav",
        "ascript"
      ],
      [
        "c",
        "h"
      ],
      [
        "ear",
        "ch"
      ],
      [
        "Ġres",
        "earch"
      ],
      [
        "Ġv",
        "u"
      ],
      [
        "ent",
        "ion"
      ],
      [
        "Ġatt",
        "ention"
      ],
      [
        "r",
        "ame"
      ],
      [
        "Ġf",
        "rame"
      ],
      [
        "Ġframe",
        "work"
      ],
      [
        "am",
        "eter"
      ],
      [
        "Ġpar",
        "ameter"
      ],
      [
        "Ġl",
        "angu"
      ],
      [
        "Ġlangu",
        "age"
      ],
      [
        "ain",
        "ing"
      ],
      [
        "Ġtr",
        "aining"
      ],
      [
        "r",
        "adi"
      ],
      [
        "Ġg",
        "radi"
      ],
      [
        "Ġgradi",
        "ent"
      ],
      [
        "Ġdat",
        "aset"
      ],
      [
        "ab",
        "le"
      ],
      [
        "Ġvari",
        "able"
      ],
      [
        "j",
        "ec"
      ],
      [
        "Ġpro",
        "jec"
      ],
      [
        "Ġpap",
        "er"
      ],
      [
        "Ġprojec",
        "t"
      ],
      [
        "Ġpro",
        "blem"
      ],
      [
        "Ġde",
        "ep"
      ],
      [
        "f",
        "orm"
      ],
      [
        "Ġtr",
        "ans"
      ],
      [
        "form",
        "er"
      ],
      [
        "Ġtrans",
        "former"
      ],
      [
        "ro",
        "ach"
      ],
      [
        "Ġapp",
        "roach"
      ],
      [
        "Ġs",
        "cien"
      ],
      [
        "Ġscien",
        "ce"
      ],
      [
        "y",
        "sis"
      ],
      [
        "Ġanal",
        "ysis"
      ],
      [
        "p",
        "i"
      ],
      [
        "Ġmod",
        "el"
      ],
      [
        "Ġg",
        "e"
      ],
      [
        "p",
        "o"
      ],
      [
        "Ġf",
        "u"
      ],
      [
        "Ġr",
        "u"
      ],
      [
        "Ġz",
        "o"
      ],
      [
        "Ġp",
        "o"
      ],
      [
        "m",
        "o"
      ],
      [
        "Ġd",
        "u"
      ],
      [
        "ĠW",
        "hat"
      ],
      [
        "x",
        "a"
      ],
      [
        "Ġv",
        "o"
      ],
      [
        "Ġm",
        "u"
      ],
      [
        "Ġx",
        "u"
      ],
      [
        "Ġr",
        "a"
      ],
      [
        "Ġg",
        "a"
      ],
      [
        "Ġt",
        "e"
      ],
      [
        "Ġn",
        "o"
      ],
      [
        "Ġx",
        "o"
      ],
      [
        "Ġc",
        "o"
      ],
      [
        "Ġl",
        "u"
      ],
      [
        "m",
        "u"
      ],
      [
        "Ġn",
        "a"
      ],
      [
        "Ġm",
        "a"
      ],
      [
        "m",
        "i"
      ],
      [
        "Ġf",
        "a"
      ],
      [
        "ĠĠ",
        "Ġ"
      ],
      [
        "us",
        "e"
      ],
      [
        "s",
        "o"
      ],
      [
        "Ġf",
        "i"
      ],
      [
        "Ġt",
        "u"
      ],
      [
        "Ġp",
        "a"
      ],
      [
        "Ġd",
        "i"
      ],
      [
        "ou",
        "r"
      ],
      [
        "Ġx",
        "a"
      ],
      [
        "Ġz",
        "u"
      ],
      [
        "Ġg",
        "u"
      ],
      [
        "Ġp",
        "u"
      ],
      [
        "s",
        "a"
      ],
      [
        "Ġs",
        "i"
      ],
      [
        "Ġp",
        "i"
      ],
      [
        "Ġs",
        "u"
      ],
      [
        "Ġ",
        "*"
      ],
      [
        "p",
        "a"
      ],
      [
        "Ġc",
        "a"
      ],
      [
        "s",
        "e"
      ],
      [
        "Ġb",
        "i"
      ],
      [
        "ou",
        "t"
      ],
      [
        "Ġd",
        "a"
      ],
      [
        "p",
        "u"
      ],
      [
        "Ġv",
        "a"
      ],
      [
        "Ġz",
        "a"
      ],
      [
        "Ġz",
        "i"
      ],
      [
        "Ġb",
        "a"
      ],
      [
        "Ġc",
        "i"
      ],
      [
        "s",
        "u"
      ],
      [
        "n",
        "e"
      ],
      [
        "Ġx",
        "i"
      ],
      [
        "Ġm",
        "i"
      ],
      [
        "Ġg",
        "et"
      ],
      [
        "n",
        "o"
      ],
      [
        "d",
        "u"
      ],
      [
        "n",
        "a"
      ],
      [
        "d",
        "e"
      ],
      [
        "n",
        "u"
      ],
      [
        "t",
        "e"
      ],
      [
        "Ġt",
        "a"
      ],
      [
        "in",
        "t"
      ],
      [
        "Ġt",
        "i"
      ],
      [
        "Ġv",
        "i"
      ],
      [
        "os",
        "o"
      ],
      [
        "al",
        "a"
      ],
      [
        "Ġapp",
        "les"
      ],
      [
        ")",
        ":"
      ],
      [
        "Ġtim",
        "es"
      ],
      [
        "r",
        "int"
      ],
      [
        "Ġp",
        "rint"
      ],
      [
        "Ġad",
        "ding"
      ],
      [
        "n",
        "i"
      ],
      [
        "'",
        "s"
      ],
      [
        ".",
        "."
      ],
      [
        "d",
        "a"
      ],
      [
        "d",
        "i"
      ],
      [
        "up",
        "e"
      ],
      [
        "t",
        "i"
      ],
      [
        "ax",
        "e"
      ],
      [
        "t",
        "o"
      ],
      [
        "t",
        "a"
      ],
      [
        "ug",
        "e"
      ],
      [
        "Ġ",
        "P"
      ],
      [
        "Ġo",
        "f"
      ],
      [
        "uc",
        "u"
      ],
      [
        "el",
        "f"
      ],
      [
        "ug",
        "a"
      ],
      [
        "d",
        "o"
      ],
      [
        "on",
        "a"
      ],
      [
        "op",
        "e"
      ],
      [
        "on",
        "o"
      ],
      [
        "og",
        "i"
      ],
      [
        "ud",
        "o"
      ],
      [
        "en",
        "u"
      ],
      [
        "ud",
        "u"
      ],
      [
        "ol",
        "u"
      ],
      [
        "ap",
        "o"
      ],
      [
        "at",
        "i"
      ],
      [
        "ug",
        "u"
      ],
      [
        "on",
        "e"
      ],
      [
        "op",
        "o"
      ],
      [
        "Ġde",
        "f"
      ],
      [
        "ec",
        "a"
      ],
      [
        "ou",
        "l"
      ],
      [
        "um",
        "u"
      ],
      [
        "ac",
        "u"
      ],
      [
        "on",
        "u"
      ],
      [
        "ug",
        "i"
      ],
      [
        "s",
        "i"
      ],
      [
        "ar",
        "e"
      ],
      [
        "ab",
        "e"
      ],
      [
        "ot",
        "a"
      ],
      [
        "ed",
        "e"
      ],
      [
        "id",
        "u"
      ],
      [
        "ul",
        "u"
      ],
      [
        "Ġ",
        "-"
      ],
      [
        "ad",
        "o"
      ],
      [
        "um",
        "i"
      ],
      [
        "ut",
        "u"
      ],
      [
        "ap",
        "e"
      ],
      [
        "ox",
        "e"
      ],
      [
        "ac",
        "a"
      ],
      [
        "ot",
        "o"
      ],
      [
        "ap",
        "a"
      ],
      [
        "ut",
        "a"
      ],
      [
        "en",
        "e"
      ],
      [
        "us",
        "u"
      ],
      [
        "up",
        "u"
      ],
      [
        "un",
        "e"
      ],
      [
        "uc",
        "o"
      ],
      [
        "in",
        "u"
      ],
      [
        "ad",
        "a"
      ],
      [
        "up",
        "o"
      ],
      [
        "os",
        "i"
      ],
      [
        "im",
        "e"
      ],
      [
        "ag",
        "o"
      ],
      [
        "or",
        "u"
      ],
      [
        "ab",
        "u"
      ],
      [
        "ot",
        "i"
      ],
      [
        "at",
        "o"
      ],
      [
        "ul",
        "a"
      ],
      [
        "in",
        "a"
      ],
      [
        "os",
        "e"
      ],
      [
        "ad",
        "u"
      ],
      [
        "ab",
        "o"
      ],
      [
        "am",
        "a"
      ],
      [
        "ix",
        "o"
      ],
      [
        "ed",
        "o"
      ],
      [
        "ul",
        "i"
      ],
      [
        "al",
        "u"
      ],
      [
        "id",
        "o"
      ],
      [
        "ul",
        "o"
      ],
      [
        "os",
        "a"
      ],
      [
        "uc",
        "i"
      ],
      [
        "iz",
        "a"
      ],
      [
        "ub",
        "e"
      ],
      [
        "Ġ1",
        "0"
      ],
      [
        "ar",
        "o"
      ],
      [
        "an",
        "e"
      ],
      [
        "om",
        "o"
      ],
      [
        "es",
        "o"
      ],
      [
        "od",
        "a"
      ],
      [
        "es",
        "e"
      ],
      [
        "ag",
        "i"
      ],
      [
        "as",
        "i"
      ],
      [
        "an",
        "o"
      ],
      [
        "ux",
        "e"
      ],
      [
        "ac",
        "i"
      ],
      [
        "ax",
        "u"
      ],
      [
        "at",
        "e"
      ],
      [
        "ol",
        "o"
      ],
      [
        "om",
        "a"
      ],
      [
        "al",
        "o"
      ],
      [
        "ut",
        "e"
      ],
      [
        "ab",
        "a"
      ],
      [
        "up",
        "a"
      ],
      [
        "ub",
        "i"
      ],
      [
        "ig",
        "e"
      ],
      [
        "ep",
        "a"
      ],
      [
        "ip",
        "o"
      ],
      [
        "it",
        "i"
      ],
      [
        "as",
        "e"
      ],
      [
        "ag",
        "u"
      ],
      [
        "up",
        "i"
      ],
      [
        "um",
        "o"
      ],
      [
        "in",
        "o"
      ],
      [
        "og",
        "e"
      ],
      [
        "if",
        "i"
      ],
      [
        "Ġre",
        "t"
      ],
      [
        "ed",
        "a"
      ],
      [
        "as",
        "o"
      ],
      [
        "ĠH",
        "ow"
      ],
      [
        "er",
        "u"
      ],
      [
        "os",
        "u"
      ],
      [
        "ag",
        "a"
      ],
      [
        "ud",
        "a"
      ],
      [
        "ax",
        "o"
      ],
      [
        "ig",
        "u"
      ],
      [
        "ic",
        "u"
      ],
      [
        "Ġad",
        "d"
      ],
      [
        "um",
        "a"
      ],
      [
        "ub",
        "o"
      ],
      [
        "at",
        "u"
      ],
      [
        "on",
        "i"
      ],
      [
        "uc",
        "a"
      ],
      [
        "im",
        "o"
      ],
      [
        "ur",
        "o"
      ],
      [
        "ic",
        "i"
      ],
      [
        "ir",
        "u"
      ],
      [
        "ud",
        "i"
      ],
      [
        "ol",
        "a"
      ],
      [
        "ux",
        "o"
      ],
      [
        "ed",
        "u"
      ],
      [
        "as",
        "u"
      ],
      [
        "ap",
        "i"
      ],
      [
        "ox",
        "o"
      ],
      [
        "ur",
        "u"
      ],
      [
        "ub",
        "u"
      ],
      [
        "ir",
        "o"
      ],
      [
        "am",
        "o"
      ],
      [
        "ux",
        "u"
      ],
      [
        "iz",
        "u"
      ],
      [
        "ur",
        "n"
      ],
      [
        "ix",
        "a"
      ],
      [
        "ap",
        "u"
      ],
      [
        "el",
        "a"
      ],
      [
        "op",
        "u"
      ],
      [
        "ip",
        "u"
      ],
      [
        "al",
        "i"
      ],
      [
        "en",
        "i"
      ],
      [
        "il",
        "a"
      ],
      [
        "if",
        "o"
      ],
      [
        "id",
        "i"
      ],
      [
        "ed",
        "i"
      ],
      [
        "ar",
        "u"
      ],
      [
        "id",
        "e"
      ],
      [
        "il",
        "u"
      ],
      [
        "en",
        "o"
      ],
      [
        "ic",
        "a"
      ],
      [
        "ir",
        "a"
      ],
      [
        "od",
        "u"
      ],
      [
        "ig",
        "o"
      ],
      [
        "es",
        "i"
      ],
      [
        "ox",
        "i"
      ],
      [
        "ol",
        "i"
      ],
      [
        "is",
        "u"
      ],
      [
        "if",
        "u"
      ],
      [
        "is",
        "o"
      ],
      [
        "am",
        "i"
      ],
      [
        "Ġ1",
        "1"
      ],
      [
        "is",
        "e"
      ],
      [
        "iz",
        "o"
      ],
      [
        "s",
        "elf"
      ],
      [
        "og",
        "o"
      ],
      [
        "od",
        "o"
      ],
      [
        "it",
        "u"
      ],
      [
        "ab",
        "i"
      ],
      [
        "}",
        "\""
      ],
      [
        "Ġ",
        "{"
      ],
      [
        "if",
        "a"
      ],
      [
        "ub",
        "a"
      ],
      [
        "ux",
        "a"
      ],
      [
        "om",
        "i"
      ],
      [
        "Ġ1",
        "2"
      ],
      [
        "it",
        "o"
      ],
      [
        "in",
        "i"
      ],
      [
        "ut",
        "o"
      ],
      [
        "iz",
        "e"
      ],
      [
        "Ġret",
        "urn"
      ],
      [
        "op",
        "i"
      ],
      [
        "iz",
        "i"
      ],
      [
        "at",
        "a"
      ],
      [
        "us",
        "i"
      ],
      [
        "im",
        "u"
      ],
      [
        "et",
        "u"
      ],
      [
        "ux",
        "i"
      ],
      [
        "op",
        "a"
      ],
      [
        "er",
        "a"
      ],
      [
        "ut",
        "i"
      ],
      [
        "og",
        "u"
      ],
      [
        "it",
        "a"
      ],
      [
        "un",
        "i"
      ],
      [
        "es",
        "u"
      ],
      [
        "ac",
        "o"
      ],
      [
        "en",
        "a"
      ],
      [
        "us",
        "o"
      ],
      [
        "ig",
        "a"
      ],
      [
        "ur",
        "a"
      ],
      [
        "is",
        "i"
      ],
      [
        "el",
        "u"
      ],
      [
        "ox",
        "u"
      ],
      [
        "un",
        "o"
      ],
      [
        "ic",
        "o"
      ],
      [
        "as",
        "a"
      ],
      [
        "el",
        "o"
      ],
      [
        "ix",
        "e"
      ],
      [
        "ep",
        "u"
      ],
      [
        "es",
        "a"
      ],
      [
        "ar",
        "a"
      ],
      [
        "ot",
        "u"
      ],
      [
        "Ġmo",
        "re"
      ],
      [
        "ep",
        "o"
      ],
      [
        "us",
        "a"
      ],
      [
        "ax",
        "i"
      ],
      [
        "Ġ1",
        "3"
      ],
      [
        "ax",
        "a"
      ],
      [
        "um",
        "e"
      ],
      [
        "if",
        "e"
      ],
      [
        "om",
        "u"
      ],
      [
        "Ġne",
        "x"
      ],
      [
        "Ġ",
        "i"
      ],
      [
        "Ġ1",
        "4"
      ],
      [
        "ip",
        "i"
      ],
      [
        "Ġle",
        "g"
      ],
      [
        "an",
        "i"
      ],
      [
        "ix",
        "u"
      ],
      [
        "am",
        "u"
      ],
      [
        "or",
        "o"
      ],
      [
        "an",
        "u"
      ],
      [
        "et",
        "a"
      ],
      [
        "id",
        "a"
      ],
      [
        "er",
        "o"
      ],
      [
        "is",
        "a"
      ],
      [
        "Ġlo",
        "ve"
      ],
      [
        "Ġh",
        "ow"
      ],
      [
        "ĠI",
        "f"
      ],
      [
        "an",
        "a"
      ],
      [
        "od",
        "i"
      ],
      [
        "Ġ1",
        "5"
      ],
      [
        "Ġ",
        "?"
      ],
      [
        "in",
        "k"
      ],
      [
        "ol",
        "ution"
      ],
      [
        "ĠS",
        "olution"
      ],
      [
        "Ġe",
        "qu"
      ],
      [
        "Ġth",
        "ink"
      ],
      [
        "ro",
        "blem"
      ],
      [
        "ĠP",
        "roblem"
      ],
      [
        "Ġequ",
        "als"
      ],
      [
        "'",
        "m"
      ],
      [
        "ĠT",
        "hat"
      ],
      [
        "us",
        "t"
      ],
      [
        "ĠH",
        "i"
      ],
      [
        "ĠW",
        "ow"
      ],
      [
        "Ġj",
        "ust"
      ],
      [
        "un",
        "u"
      ],
      [
        "Ġ",
        "if"
      ],
      [
        "Ġ",
        ".."
      ],
      [
        "ĠA",
        "ft"
      ],
      [
        "ĠC",
        "ount"
      ],
      [
        "Ġcom",
        "es"
      ],
      [
        "Ġnex",
        "t"
      ],
      [
        "Ġ..",
        "."
      ],
      [
        "ĠAft",
        "er"
      ],
      [
        "ex",
        "e"
      ],
      [
        "im",
        "a"
      ],
      [
        "Ġthe",
        "m"
      ],
      [
        "ĠB",
        "eca"
      ],
      [
        "ĠBeca",
        "use"
      ],
      [
        "ĠL",
        "et"
      ],
      [
        "Ġbr",
        "ing"
      ],
      [
        "ĠY",
        "es"
      ],
      [
        "ĠD",
        "o"
      ],
      [
        "ot",
        "al"
      ],
      [
        "ig",
        "i"
      ],
      [
        "ep",
        "i"
      ],
      [
        "ep",
        "e"
      ],
      [
        "Ġc",
        "ap"
      ],
      [
        "ec",
        "u"
      ],
      [
        "Ġ1",
        "6"
      ],
      [
        "b",
        "er"
      ],
      [
        "ox",
        "a"
      ],
      [
        "et",
        "i"
      ],
      [
        "im",
        "i"
      ],
      [
        "ip",
        "a"
      ],
      [
        "et",
        "e"
      ],
      [
        "ix",
        "i"
      ],
      [
        "r",
        "an"
      ],
      [
        "Ġ1",
        "7"
      ],
      [
        "n",
        "ame"
      ],
      [
        "le",
        "l"
      ],
      [
        "et",
        "o"
      ],
      [
        "le",
        "r"
      ],
      [
        "el",
        "i"
      ],
      [
        "em",
        "i"
      ],
      [
        "Ġ1",
        "8"
      ],
      [
        "ex",
        "a"
      ],
      [
        "il",
        "i"
      ],
      [
        "_",
        "_"
      ],
      [
        "ĠĠ",
        "ĠĠ"
      ],
      [
        "ĠĠĠĠ",
        "ĠĠĠ"
      ],
      [
        "li",
        "ght"
      ],
      [
        "Ġsun",
        "light"
      ],
      [
        "ant",
        "s"
      ],
      [
        "Ġne",
        "ed"
      ],
      [
        "it",
        "al"
      ],
      [
        "ĠF",
        "ran"
      ],
      [
        "Ġcap",
        "ital"
      ],
      [
        "ĠFran",
        "ce"
      ],
      [
        "ex",
        "u"
      ],
      [
        "um",
        "ber"
      ],
      [
        "umber",
        "s"
      ],
      [
        "}\"",
        ")"
      ],
      [
        "ex",
        "o"
      ],
      [
        "Ġleg",
        "s"
      ],
      [
        ")",
        ")"
      ],
      [
        "Ġ",
        "#"
      ],
      [
        "e",
        "ven"
      ],
      [
        "Ġ1",
        "9"
      ],
      [
        "og",
        "a"
      ],
      [
        "em",
        "o"
      ],
      [
        "le",
        "t"
      ],
      [
        "re",
        "t"
      ],
      [
        "ri",
        "t"
      ],
      [
        "Ġ",
        "u"
      ],
      [
        "Ġ",
        "unn"
      ],
      [
        "ip",
        "e"
      ],
      [
        "Ġs",
        "um"
      ],
      [
        "ol",
        "or"
      ],
      [
        "in",
        "it"
      ],
      [
        "1",
        "0"
      ],
      [
        "em",
        "u"
      ],
      [
        "re",
        "r"
      ],
      [
        "em",
        "e"
      ],
      [
        "ex",
        "i"
      ],
      [
        "1",
        "2"
      ],
      [
        "re",
        "et"
      ],
      [
        "re",
        "l"
      ],
      [
        "Ġ",
        "ild"
      ],
      [
        "ri",
        "r"
      ],
      [
        "ot",
        "os"
      ],
      [
        "ar",
        "is"
      ],
      [
        "Ġto",
        "t"
      ],
      [
        "1",
        "3"
      ],
      [
        "Ġf",
        "or"
      ],
      [
        "1",
        "5"
      ],
      [
        "Ġd",
        "ur"
      ],
      [
        "as",
        "s"
      ],
      [
        "1",
        "4"
      ],
      [
        "1",
        "8"
      ],
      [
        "1",
        "6"
      ],
      [
        "1",
        "7"
      ],
      [
        "ri",
        "l"
      ],
      [
        "ang",
        "e"
      ],
      [
        "Ġf",
        "our"
      ],
      [
        "Ġ",
        "ven"
      ],
      [
        "1",
        "9"
      ],
      [
        "Ġc",
        "olor"
      ],
      [
        "Ġdur",
        "ing"
      ],
      [
        "H",
        "i"
      ],
      [
        "Ġ",
        "__"
      ],
      [
        "Ġa",
        "m"
      ],
      [
        "Ġs",
        "elf"
      ],
      [
        "Ġg",
        "reet"
      ],
      [
        "Ġcl",
        "ass"
      ],
      [
        "__",
        "("
      ],
      [
        "h",
        "y"
      ],
      [
        "h",
        "otos"
      ],
      [
        "l",
        "ants"
      ],
      [
        "n",
        "t"
      ],
      [
        "r",
        "ou"
      ],
      [
        "y",
        "nt"
      ],
      [
        "Ġp",
        "hotos"
      ],
      [
        "Ġpl",
        "ants"
      ],
      [
        "Ġth",
        "rou"
      ],
      [
        "ĠW",
        "hy"
      ],
      [
        "hes",
        "is"
      ],
      [
        "Ġfo",
        "od"
      ],
      [
        "ĠP",
        "lants"
      ],
      [
        "ynt",
        "hesis"
      ],
      [
        "Ġphotos",
        "ynthesis"
      ],
      [
        "Ġthrou",
        "gh"
      ],
      [
        "ĠP",
        "aris"
      ],
      [
        "Ġ2",
        "0"
      ],
      [
        "2",
        "0"
      ],
      [
        "T",
        "otal"
      ],
      [
        "n",
        "umbers"
      ],
      [
        "t",
        "otal"
      ],
      [
        "Ġ",
        "["
      ],
      [
        "Ġn",
        "umbers"
      ],
      [
        "Ġtot",
        "al"
      ],
      [
        "Ġr",
        "ange"
      ],
      [
        "Ġ9",
        "8"
      ],
      [
        "Ġdo",
        "es"
      ],
      [
        "ad",
        "d"
      ],
      [
        "Ġprint",
        "s"
      ],
      [
        "Ġ",
        "%"
      ],
      [
        "Ġ",
        "0"
      ],
      [
        "Ġ=",
        "="
      ],
      [
        "Ġ",
        "ves"
      ],
      [
        "Ġv",
        "us"
      ],
      [
        "Ġ8",
        "8"
      ],
      [
        "Ġ9",
        "3"
      ],
      [
        "Ġ9",
        "4"
      ],
      [
        "e",
        "es"
      ],
      [
        "Ġh",
        "one"
      ],
      [
        "ĠB",
        "ees"
      ],
      [
        "Ġbe",
        "es"
      ],
      [
        "Ġhone",
        "y"
      ],
      [
        "Ġ9",
        "6"
      ],
      [
        "Ġ5",
        "8"
      ],
      [
        "ing",
        "e"
      ],
      [
        "Ġ7",
        "3"
      ],
      [
        "Ġ9",
        "9"
      ],
      [
        "Ġr",
        "os"
      ],
      [
        "Ġ7",
        "9"
      ],
      [
        "Ġ8",
        "7"
      ],
      [
        "Ġ7",
        "4"
      ],
      [
        "Ġ9",
        "0"
      ],
      [
        "Ġ6",
        "9"
      ],
      [
        "Ġ8",
        "3"
      ],
      [
        "Ġ7",
        "7"
      ],
      [
        "Ġ7",
        "8"
      ],
      [
        "Ġ8",
        "0"
      ],
      [
        "Ġ5",
        "3"
      ],
      [
        "Ġ8",
        "9"
      ],
      [
        "Ġ4",
        "4"
      ],
      [
        "Ġ6",
        "8"
      ],
      [
        "Ġ7",
        "6"
      ],
      [
        "Ġ6",
        "7"
      ],
      [
        "Ġ9",
        "2"
      ],
      [
        "Ġ7",
        "5"
      ],
      [
        "Ġ5",
        "9"
      ],
      [
        "Ġ8",
        "5"
      ],
      [
        "Ġ4",
        "9"
      ],
      [
        "Ġ4",
        "3"
      ],
      [
        "Ġ6",
        "0"
      ],
      [
        "Ġ2",
        "9"
      ],
      [
        "Ġ6",
        "4"
      ],
      [
        "Ġ8",
        "4"
      ],
      [
        "Ġ3",
        "5"
      ],
      [
        "Ġ8",
        "6"
      ],
      [
        "Ġ2",
        "4"
      ],
      [
        "Ġ6",
        "5"
      ],
      [
        "Ġ5",
        "5"
      ],
      [
        "Ġ9",
        "5"
      ],
      [
        "Ġ9",
        "7"
      ],
      [
        "Ġz",
        "id"
      ],
      [
        "Ġn",
        "ub"
      ],
      [
        "Ġ7",
        "0"
      ],
      [
        "Ġ6",
        "3"
      ],
      [
        "Ġ4",
        "0"
      ],
      [
        "Ġ5",
        "4"
      ],
      [
        "Ġ3",
        "4"
      ],
      [
        "Ġ3",
        "3"
      ],
      [
        "Ġ3",
        "8"
      ],
      [
        "Ġ6",
        "6"
      ],
      [
        "Ġ5",
        "7"
      ],
      [
        "Ġ5",
        "0"
      ],
      [
        "Ġri",
        "d"
      ],
      [
        "Ġ2",
        "8"
      ],
      [
        "Ġ6",
        "2"
      ],
      [
        "Ġ",
        "ird"
      ],
      [
        "Ġpe",
        "g"
      ],
      [
        "Ġ5",
        "6"
      ],
      [
        "Ġ7",
        "2"
      ],
      [
        "Ġ3",
        "0"
      ],
      [
        "Ġ4",
        "7"
      ],
      [
        "Ġ8",
        "2"
      ],
      [
        "Ġ3",
        "9"
      ],
      [
        "Ġ3",
        "6"
      ],
      [
        "Ġ2",
        "6"
      ],
      [
        "Ġn",
        "ig"
      ],
      [
        "Ġ4",
        "8"
      ],
      [
        "Ġ3",
        "7"
      ],
      [
        "Ġ",
        "urp"
      ],
      [
        "Ġ5",
        "2"
      ],
      [
        "Ġ2",
        "3"
      ],
      [
        "Ġ2",
        "7"
      ],
      [
        "Ġ4",
        "6"
      ],
      [
        "Ġ4",
        "5"
      ],
      [
        "Ġn",
        "in"
      ],
      [
        "Ġ4",
        "2"
      ],
      [
        "Ġ2",
        "2"
      ],
      [
        "Ġre",
        "z"
      ],
      [
        "Ġ2",
        "5"
      ],
      [
        "Ġen",
        "n"
      ],
      [
        "Ġ3",
        "2"
      ],
      [
        "Ġet",
        "f"
      ],
      [
        "Ġf",
        "id"
      ],
      [
        "Ġan",
        "b"
      ],
      [
        "Ġon",
        "p"
      ],
      [
        "Ġat",
        "g"
      ],
      [
        "Ġz",
        "al"
      ],
      [
        "1",
        "1"
      ],
      [
        "Ġ",
        "els"
      ],
      [
        "Ġor",
        "m"
      ],
      [
        "Ġf",
        "ip"
      ],
      [
        "Ġb",
        "ol"
      ],
      [
        "Ġx",
        "ud"
      ],
      [
        "Ġg",
        "if"
      ],
      [
        "Ġc",
        "id"
      ],
      [
        "Ġd",
        "iz"
      ],
      [
        "Ġm",
        "ux"
      ],
      [
        "Ġx",
        "ar"
      ],
      [
        "Ġl",
        "op"
      ],
      [
        "Ġz",
        "ip"
      ],
      [
        "Ġp",
        "ad"
      ],
      [
        "Ġga",
        "z"
      ],
      [
        "Ġx",
        "ap"
      ],
      [
        "Ġ",
        "ots"
      ],
      [
        "Ġbe",
        "g"
      ],
      [
        "Ġfi",
        "il"
      ],
      [
        "Ġv",
        "ab"
      ],
      [
        "Ġse",
        "v"
      ],
      [
        "Ġt",
        "et"
      ],
      [
        "Ġal",
        "d"
      ],
      [
        "Ġ",
        "ver"
      ],
      [
        "Ġd",
        "ic"
      ],
      [
        "Ġne",
        "m"
      ],
      [
        "ord",
        "e"
      ],
      [
        "is",
        "li"
      ],
      [
        "Ġg",
        "up"
      ],
      [
        "Ġm",
        "id"
      ],
      [
        "Ġf",
        "og"
      ],
      [
        "Ġx",
        "ox"
      ],
      [
        "Ġt",
        "ut"
      ],
      [
        "Ġl",
        "as"
      ],
      [
        "Ġx",
        "ot"
      ],
      [
        "Ġm",
        "it"
      ],
      [
        "Ġ",
        "end"
      ],
      [
        "Ġt",
        "am"
      ],
      [
        "Ġmo",
        "f"
      ],
      [
        "Ġ10",
        "0"
      ],
      [
        "Ġf",
        "es"
      ],
      [
        "Ġos",
        "s"
      ],
      [
        "Ġt",
        "ux"
      ],
      [
        "Ġma",
        "os"
      ],
      [
        "Ġo",
        "st"
      ],
      [
        "Ġb",
        "us"
      ],
      [
        "Ġs",
        "iz"
      ],
      [
        "Ġm",
        "ad"
      ],
      [
        "Ġot",
        "ut"
      ],
      [
        "Ġdo",
        "z"
      ],
      [
        "an",
        "ro"
      ],
      [
        "Ġp",
        "en"
      ],
      [
        "Ġp",
        "ux"
      ],
      [
        "Ġar",
        "n"
      ],
      [
        "Ġf",
        "upe"
      ],
      [
        "Ġze",
        "ot"
      ],
      [
        "Ġv",
        "ug"
      ],
      [
        "Ġno",
        "z"
      ],
      [
        "Ġz",
        "od"
      ],
      [
        "Ġs",
        "us"
      ],
      [
        "f",
        "udo"
      ],
      [
        "Ġd",
        "ug"
      ],
      [
        "Ġf",
        "os"
      ],
      [
        "Ġon",
        "c"
      ],
      [
        "Ġur",
        "g"
      ],
      [
        "le",
        "or"
      ],
      [
        "Ġri",
        "z"
      ],
      [
        "Ġm",
        "ig"
      ],
      [
        "Ġot",
        "p"
      ],
      [
        "ol",
        "ca"
      ],
      [
        "Ġx",
        "ic"
      ],
      [
        "Ġx",
        "um"
      ],
      [
        "Ġd",
        "an"
      ],
      [
        "za",
        "un"
      ],
      [
        "Ġz",
        "uc"
      ],
      [
        "Ġd",
        "ir"
      ],
      [
        "Ġgi",
        "ve"
      ],
      [
        "Ġz",
        "up"
      ],
      [
        "Ġza",
        "el"
      ],
      [
        "Ġir",
        "p"
      ],
      [
        "Ġd",
        "if"
      ],
      [
        "Ġr",
        "in"
      ],
      [
        "Ġet",
        "el"
      ],
      [
        "Ġl",
        "om"
      ],
      [
        "Ġas",
        "g"
      ],
      [
        "Ġm",
        "ab"
      ],
      [
        "un",
        "vo"
      ],
      [
        "Ġt",
        "ag"
      ],
      [
        "us",
        "it"
      ],
      [
        "Ġle",
        "m"
      ],
      [
        "Ġd",
        "et"
      ],
      [
        "Ġit",
        "g"
      ],
      [
        "Ġf",
        "ax"
      ],
      [
        "Ġp",
        "es"
      ],
      [
        "Ġos",
        "z"
      ],
      [
        "Ġle",
        "il"
      ],
      [
        "Ġxe",
        "g"
      ],
      [
        "Ġen",
        "ge"
      ],
      [
        "le",
        "ir"
      ],
      [
        "Ġul",
        "s"
      ],
      [
        "Ġd",
        "am"
      ],
      [
        "Ġp",
        "ir"
      ],
      [
        "Ġn",
        "ido"
      ],
      [
        "Ġz",
        "in"
      ],
      [
        "Ġz",
        "ot"
      ],
      [
        "Ġ",
        "ilt"
      ],
      [
        "Ġg",
        "um"
      ],
      [
        "Ġfe",
        "v"
      ],
      [
        "Ġz",
        "is"
      ],
      [
        "Ġg",
        "at"
      ],
      [
        "Ġbu",
        "ar"
      ],
      [
        "Ġc",
        "os"
      ],
      [
        "Ġz",
        "ux"
      ],
      [
        "Ġn",
        "ed"
      ],
      [
        "9",
        "4"
      ],
      [
        "Ġz",
        "am"
      ],
      [
        "ri",
        "al"
      ],
      [
        "Ġmo",
        "c"
      ],
      [
        "9",
        "6"
      ],
      [
        "4",
        "2"
      ],
      [
        "8",
        "5"
      ],
      [
        "8",
        "6"
      ],
      [
        "7",
        "0"
      ],
      [
        "Ġut",
        "b"
      ],
      [
        "ce",
        "f"
      ],
      [
        "Ġet",
        "d"
      ],
      [
        "ard",
        "i"
      ],
      [
        "it",
        "se"
      ],
      [
        "Ġl",
        "ap"
      ],
      [
        "Ġran",
        "e"
      ],
      [
        "Ġt",
        "ir"
      ],
      [
        "Ġp",
        "ep"
      ],
      [
        "Ġur",
        "t"
      ],
      [
        "7",
        "4"
      ],
      [
        "zu",
        "f"
      ],
      [
        "7",
        "2"
      ],
      [
        "3",
        "3"
      ],
      [
        "Ġon",
        "na"
      ],
      [
        "9",
        "2"
      ],
      [
        "an",
        "bi"
      ],
      [
        "Ġ8",
        "1"
      ],
      [
        "Ġpo",
        "c"
      ],
      [
        "Ġ9",
        "1"
      ],
      [
        "Ġte",
        "os"
      ],
      [
        "Ġr",
        "un"
      ],
      [
        "on",
        "fo"
      ],
      [
        "Ġc",
        "ot"
      ],
      [
        "Ġd",
        "os"
      ],
      [
        "or",
        "in"
      ],
      [
        "Ġva",
        "us"
      ],
      [
        "Ġp",
        "ub"
      ],
      [
        "Ġ6",
        "1"
      ],
      [
        "Ġli",
        "ul"
      ],
      [
        "Ġman",
        "o"
      ],
      [
        "Ġxu",
        "z"
      ],
      [
        "Ġb",
        "oma"
      ],
      [
        "Ġmo",
        "v"
      ],
      [
        "Ġra",
        "f"
      ],
      [
        "8",
        "4"
      ],
      [
        "an",
        "f"
      ],
      [
        "9",
        "5"
      ],
      [
        "Ġut",
        "m"
      ],
      [
        "Ġt",
        "ex"
      ],
      [
        "8",
        "0"
      ],
      [
        "Ġat",
        "in"
      ],
      [
        "Ġir",
        "m"
      ],
      [
        "Ġm",
        "ut"
      ],
      [
        "Ġn",
        "ap"
      ],
      [
        "7",
        "3"
      ],
      [
        "Ġp",
        "et"
      ],
      [
        "Ġul",
        "g"
      ],
      [
        "9",
        "0"
      ],
      [
        "Ġin",
        "lo"
      ],
      [
        "Ġv",
        "on"
      ],
      [
        "Ġna",
        "vi"
      ],
      [
        "Ġl",
        "our"
      ],
      [
        "Ġv",
        "ize"
      ],
      [
        "Ġdo",
        "c"
      ],
      [
        "Ġd",
        "um"
      ],
      [
        "Ġd",
        "ar"
      ],
      [
        "Ġg",
        "il"
      ],
      [
        "Ġv",
        "ita"
      ],
      [
        "8",
        "3"
      ],
      [
        "Ġb",
        "os"
      ],
      [
        "Ġt",
        "ul"
      ],
      [
        "Ġc",
        "ax"
      ],
      [
        "Ġor",
        "g"
      ],
      [
        "Ġol",
        "m"
      ],
      [
        "Ġvo",
        "v"
      ],
      [
        "Ġm",
        "at"
      ],
      [
        "Ġto",
        "c"
      ],
      [
        "el",
        "at"
      ],
      [
        "Ġra",
        "z"
      ],
      [
        "Ġl",
        "es"
      ],
      [
        "Ġd",
        "in"
      ],
      [
        "Ġx",
        "es"
      ],
      [
        "Ġol",
        "p"
      ],
      [
        "Ġz",
        "ap"
      ],
      [
        "Ġz",
        "ar"
      ],
      [
        "Ġos",
        "il"
      ],
      [
        "Ġfa",
        "f"
      ],
      [
        "Ġme",
        "b"
      ],
      [
        "Ġci",
        "ot"
      ],
      [
        "Ġan",
        "lo"
      ],
      [
        "Ġx",
        "id"
      ],
      [
        "6",
        "6"
      ],
      [
        "Ġma",
        "un"
      ],
      [
        "on",
        "t"
      ],
      [
        "Ġz",
        "ul"
      ],
      [
        "Ġs",
        "ix"
      ],
      [
        "Ġf",
        "ux"
      ],
      [
        "Ġan",
        "p"
      ],
      [
        "Ġr",
        "us"
      ],
      [
        "Ġor",
        "t"
      ],
      [
        "Ġbo",
        "fi"
      ],
      [
        "9",
        "3"
      ],
      [
        "Ġb",
        "ar"
      ],
      [
        "os",
        "du"
      ],
      [
        "5",
        "4"
      ],
      [
        "Ġp",
        "ox"
      ],
      [
        "Ġsa",
        "ut"
      ],
      [
        "Ġv",
        "osa"
      ],
      [
        "Ġer",
        "on"
      ],
      [
        "Ġb",
        "im"
      ],
      [
        "Ġz",
        "un"
      ],
      [
        "Ġv",
        "om"
      ],
      [
        "Ġfu",
        "z"
      ],
      [
        "Ġr",
        "ub"
      ],
      [
        "zo",
        "al"
      ],
      [
        "Ġus",
        "f"
      ],
      [
        "Ġx",
        "at"
      ],
      [
        "Ġve",
        "z"
      ],
      [
        "Ġm",
        "up"
      ],
      [
        "Ġp",
        "at"
      ],
      [
        "Ġse",
        "f"
      ],
      [
        "Ġc",
        "em"
      ],
      [
        "Ġun",
        "er"
      ],
      [
        "ba",
        "as"
      ],
      [
        "Ġge",
        "g"
      ],
      [
        "Ġsi",
        "b"
      ],
      [
        "at",
        "xu"
      ],
      [
        "Ġd",
        "it"
      ],
      [
        "Ġur",
        "b"
      ],
      [
        "Ġpe",
        "f"
      ],
      [
        "8",
        "2"
      ],
      [
        "Ġal",
        "x"
      ],
      [
        "Ġs",
        "ud"
      ],
      [
        "Ġal",
        "b"
      ],
      [
        "Ġer",
        "me"
      ],
      [
        "Ġun",
        "m"
      ],
      [
        "fa",
        "er"
      ],
      [
        "Ġunn",
        "e"
      ],
      [
        "Ġb",
        "un"
      ],
      [
        "in",
        "pi"
      ],
      [
        "Ġp",
        "uc"
      ],
      [
        "Ġul",
        "n"
      ],
      [
        "Ġut",
        "t"
      ],
      [
        "z",
        "ude"
      ],
      [
        "fe",
        "on"
      ],
      [
        "Ġun",
        "il"
      ],
      [
        "Ġb",
        "ub"
      ],
      [
        "Ġor",
        "fo"
      ],
      [
        "Ġs",
        "ed"
      ],
      [
        "Ġbu",
        "f"
      ],
      [
        "Ġgo",
        "f"
      ],
      [
        "Ġun",
        "g"
      ],
      [
        "Ġmo",
        "z"
      ],
      [
        "Ġm",
        "on"
      ],
      [
        "Ġbe",
        "c"
      ],
      [
        "an",
        "ul"
      ],
      [
        "Ġ7",
        "1"
      ],
      [
        "Ġdi",
        "ot"
      ],
      [
        "6",
        "0"
      ],
      [
        "Ġr",
        "ulo"
      ],
      [
        "Ġas",
        "s"
      ],
      [
        "Ġut",
        "p"
      ],
      [
        "Ġt",
        "an"
      ],
      [
        "5",
        "0"
      ],
      [
        "5",
        "2"
      ],
      [
        "Ġol",
        "n"
      ],
      [
        "Ġlo",
        "le"
      ],
      [
        "Ġd",
        "ox"
      ],
      [
        "ur",
        "on"
      ],
      [
        "6",
        "2"
      ],
      [
        "Ġg",
        "ux"
      ],
      [
        "Ġz",
        "ud"
      ],
      [
        "Ġle",
        "us"
      ],
      [
        "Ġer",
        "v"
      ],
      [
        "Ġdu",
        "f"
      ],
      [
        "Ġbi",
        "vi"
      ],
      [
        "ze",
        "bo"
      ],
      [
        "Ġs",
        "em"
      ],
      [
        "Ġfu",
        "v"
      ],
      [
        "Ġel",
        "n"
      ],
      [
        "Ġv",
        "um"
      ],
      [
        "Ġz",
        "osu"
      ],
      [
        "Ġn",
        "os"
      ],
      [
        "Ġr",
        "ala"
      ],
      [
        "Ġor",
        "n"
      ],
      [
        "Ġgo",
        "b"
      ],
      [
        "Ġm",
        "ud"
      ],
      [
        "al",
        "ta"
      ],
      [
        "Ġus",
        "at"
      ],
      [
        "Ġt",
        "uc"
      ],
      [
        "Ġg",
        "ub"
      ],
      [
        "ĠF",
        "als"
      ],
      [
        "ĠFals",
        "e"
      ],
      [
        "Ġn",
        "ad"
      ],
      [
        "ĠT",
        "ru"
      ],
      [
        "al",
        "on"
      ],
      [
        "ĠTru",
        "e"
      ],
      [
        "Ġ4",
        "1"
      ],
      [
        "Ġnu",
        "ut"
      ],
      [
        "Ġn",
        "og"
      ],
      [
        "Ġ5",
        "1"
      ],
      [
        "Ġv",
        "og"
      ],
      [
        "Ġp",
        "up"
      ],
      [
        "Ġba",
        "fo"
      ],
      [
        "8",
        "7"
      ],
      [
        "Ġet",
        "ot"
      ],
      [
        "Ġl",
        "alu"
      ],
      [
        "9",
        "7"
      ],
      [
        "Ġt",
        "if"
      ],
      [
        "Ġg",
        "ap"
      ],
      [
        "Ġon",
        "b"
      ],
      [
        "Ġir",
        "c"
      ],
      [
        "2",
        "3"
      ],
      [
        "Ġbo",
        "c"
      ],
      [
        "4",
        "0"
      ],
      [
        "6",
        "3"
      ],
      [
        "8",
        "8"
      ],
      [
        "Ġxa",
        "at"
      ],
      [
        "le",
        "ce"
      ],
      [
        "Ġdu",
        "z"
      ],
      [
        "9",
        "1"
      ],
      [
        "ur",
        "an"
      ],
      [
        "5",
        "6"
      ],
      [
        "7",
        "7"
      ],
      [
        "Ġg",
        "un"
      ],
      [
        "9",
        "8"
      ],
      [
        "Ġ2",
        "1"
      ],
      [
        "5",
        "3"
      ],
      [
        "4",
        "3"
      ],
      [
        "Ġas",
        "be"
      ],
      [
        "Ġf",
        "av"
      ],
      [
        "Ġzo",
        "ol"
      ],
      [
        "Ġb",
        "el"
      ],
      [
        "al",
        "go"
      ],
      [
        "Ġen",
        "f"
      ],
      [
        "Ġn",
        "ag"
      ],
      [
        "Ġme",
        "us"
      ],
      [
        "5",
        "8"
      ],
      [
        "et",
        "ni"
      ],
      [
        "ris",
        "a"
      ],
      [
        "ut",
        "or"
      ],
      [
        "Ġs",
        "if"
      ],
      [
        "Ġdo",
        "ce"
      ],
      [
        "2",
        "6"
      ],
      [
        "Ġge",
        "ot"
      ],
      [
        "5",
        "7"
      ],
      [
        "Ġfi",
        "er"
      ],
      [
        "Ġb",
        "ug"
      ],
      [
        "Ġr",
        "uc"
      ],
      [
        "Ġne",
        "un"
      ],
      [
        "Ġgi",
        "z"
      ],
      [
        "fi",
        "ve"
      ],
      [
        "Ġer",
        "z"
      ],
      [
        "Ġt",
        "ar"
      ],
      [
        "Ġin",
        "fi"
      ],
      [
        "Ġb",
        "ot"
      ],
      [
        "Ġl",
        "an"
      ],
      [
        "Ġv",
        "ig"
      ],
      [
        "4",
        "4"
      ],
      [
        "i",
        "ret"
      ],
      [
        "Ġas",
        "p"
      ],
      [
        "Ġ3",
        "1"
      ],
      [
        "le",
        "bo"
      ],
      [
        "Ġis",
        "d"
      ],
      [
        "Ġul",
        "p"
      ],
      [
        "Ġru",
        "an"
      ],
      [
        "Ġer",
        "g"
      ],
      [
        "as",
        "re"
      ],
      [
        "Ġd",
        "ep"
      ],
      [
        "Ġin",
        "v"
      ],
      [
        "9",
        "9"
      ],
      [
        "i",
        "lel"
      ],
      [
        "Ġb",
        "aba"
      ],
      [
        "Ġve",
        "c"
      ],
      [
        "Ġsu",
        "is"
      ],
      [
        "3",
        "0"
      ],
      [
        "f",
        "ear"
      ],
      [
        "it",
        "no"
      ],
      [
        "Ġxu",
        "el"
      ],
      [
        "Ġl",
        "is"
      ],
      [
        "Ġf",
        "iz"
      ],
      [
        "Ġna",
        "il"
      ],
      [
        "7",
        "6"
      ],
      [
        "Ġ",
        "inge"
      ],
      [
        "Ġf",
        "in"
      ],
      [
        "Ġan",
        "c"
      ],
      [
        "Ġp",
        "it"
      ],
      [
        "Ġg",
        "ig"
      ],
      [
        "Ġve",
        "an"
      ],
      [
        "Ġt",
        "it"
      ],
      [
        "Ġt",
        "un"
      ],
      [
        "Ġcu",
        "el"
      ],
      [
        "re",
        "ur"
      ],
      [
        "Ġd",
        "im"
      ],
      [
        "Ġul",
        "z"
      ],
      [
        "Ġos",
        "r"
      ],
      [
        "Ġbi",
        "is"
      ],
      [
        "Ġp",
        "ig"
      ],
      [
        "Ġr",
        "ag"
      ],
      [
        "Ġs",
        "ad"
      ],
      [
        "Ġc",
        "une"
      ],
      [
        "Ġr",
        "ube"
      ],
      [
        "als",
        "i"
      ],
      [
        "Ġze",
        "z"
      ],
      [
        "Ġmu",
        "as"
      ],
      [
        "Ġn",
        "ux"
      ],
      [
        "Ġus",
        "n"
      ],
      [
        "Ġpa",
        "f"
      ],
      [
        "Ġm",
        "ed"
      ],
      [
        "Ġd",
        "el"
      ],
      [
        "Ġit",
        "r"
      ],
      [
        "Ġga",
        "ol"
      ],
      [
        "4",
        "6"
      ],
      [
        "Ġsa",
        "m"
      ],
      [
        "Ġle",
        "at"
      ],
      [
        "Ġal",
        "ce"
      ],
      [
        "fa",
        "za"
      ],
      [
        "Ġmi",
        "v"
      ],
      [
        "at",
        "ve"
      ],
      [
        "Ġp",
        "isu"
      ],
      [
        "Ġx",
        "un"
      ],
      [
        "Ġz",
        "er"
      ],
      [
        "Ġve",
        "as"
      ],
      [
        "Ġd",
        "id"
      ],
      [
        "Ġpe",
        "co"
      ],
      [
        "Ġvu",
        "ze"
      ],
      [
        "Ġxu",
        "us"
      ],
      [
        "Ġd",
        "ol"
      ],
      [
        "et",
        "gu"
      ],
      [
        "el",
        "mo"
      ],
      [
        "Ġzo",
        "il"
      ],
      [
        "2",
        "2"
      ],
      [
        "Ġo",
        "lel"
      ],
      [
        "Ġat",
        "b"
      ],
      [
        "Ġle",
        "fu"
      ],
      [
        "Ġcu",
        "x"
      ],
      [
        "Ġos",
        "so"
      ],
      [
        "Ġfe",
        "er"
      ],
      [
        "Ġar",
        "ol"
      ],
      [
        "Ġso",
        "vo"
      ],
      [
        "7",
        "8"
      ],
      [
        "Ġt",
        "ab"
      ],
      [
        "Ġb",
        "it"
      ],
      [
        "Ġc",
        "oso"
      ],
      [
        "Ġg",
        "od"
      ],
      [
        "Ġr",
        "ul"
      ],
      [
        "fe",
        "f"
      ],
      [
        "Ġot",
        "z"
      ],
      [
        "Ġbi",
        "b"
      ],
      [
        "Ġg",
        "uc"
      ],
      [
        "Ġn",
        "ut"
      ],
      [
        "Ġsa",
        "at"
      ],
      [
        "Ġv",
        "ot"
      ],
      [
        "Ġgu",
        "is"
      ],
      [
        "Ġpi",
        "b"
      ],
      [
        "Ġl",
        "ut"
      ],
      [
        "Ġf",
        "uc"
      ],
      [
        "Ġd",
        "ax"
      ],
      [
        "Ġp",
        "al"
      ],
      [
        "Ġr",
        "en"
      ],
      [
        "Ġv",
        "as"
      ],
      [
        "Ġul",
        "or"
      ],
      [
        "Ġir",
        "ar"
      ],
      [
        "v",
        "ulo"
      ],
      [
        "Ġut",
        "n"
      ],
      [
        "Ġra",
        "er"
      ],
      [
        "Ġb",
        "uc"
      ],
      [
        "en",
        "un"
      ],
      [
        "Ġla",
        "is"
      ],
      [
        "Ġer",
        "d"
      ],
      [
        "Ġir",
        "in"
      ],
      [
        "Ġme",
        "el"
      ],
      [
        "is",
        "ga"
      ],
      [
        "Ġv",
        "id"
      ],
      [
        "Ġen",
        "is"
      ],
      [
        "Ġil",
        "pe"
      ],
      [
        "Ġf",
        "ul"
      ],
      [
        "ol",
        "vi"
      ],
      [
        "Ġv",
        "ag"
      ],
      [
        "Ġin",
        "ur"
      ],
      [
        "Ġ",
        "ent"
      ],
      [
        "Ġm",
        "es"
      ],
      [
        "va",
        "il"
      ],
      [
        "Ġ",
        "ing"
      ],
      [
        "Ġre",
        "b"
      ],
      [
        "Ġre",
        "is"
      ],
      [
        "Ġbu",
        "en"
      ],
      [
        "Ġde",
        "ri"
      ],
      [
        "Ġm",
        "ex"
      ],
      [
        "Ġas",
        "un"
      ],
      [
        "Ġut",
        "l"
      ],
      [
        "Ġpar",
        "o"
      ],
      [
        "Ġru",
        "un"
      ],
      [
        "Ġl",
        "oun"
      ],
      [
        "Ġto",
        "d"
      ],
      [
        "Ġf",
        "et"
      ],
      [
        "Ġz",
        "ic"
      ],
      [
        "Ġgi",
        "p"
      ],
      [
        "Ġbu",
        "ut"
      ],
      [
        "Ġpa",
        "as"
      ],
      [
        "Ġt",
        "as"
      ],
      [
        "Ġs",
        "our"
      ],
      [
        "Ġp",
        "izu"
      ],
      [
        "Ġan",
        "ve"
      ],
      [
        "Ġz",
        "ogi"
      ],
      [
        "zu",
        "ot"
      ],
      [
        "Ġz",
        "em"
      ],
      [
        "Ġen",
        "vo"
      ],
      [
        "Ġb",
        "elo"
      ],
      [
        "Ġca",
        "et"
      ],
      [
        "Ġb",
        "ag"
      ],
      [
        "al",
        "ol"
      ],
      [
        "Ġat",
        "xi"
      ],
      [
        "Ġe",
        "let"
      ],
      [
        "Ġas",
        "it"
      ],
      [
        "Ġxe",
        "z"
      ],
      [
        "Ġl",
        "un"
      ],
      [
        "as",
        "el"
      ],
      [
        "on",
        "xo"
      ],
      [
        "Ġx",
        "iet"
      ],
      [
        "Ġin",
        "z"
      ],
      [
        "Ġal",
        "n"
      ],
      [
        "ce",
        "pu"
      ],
      [
        "Ġv",
        "ix"
      ],
      [
        "vo",
        "at"
      ],
      [
        "Ġal",
        "m"
      ],
      [
        "Ġol",
        "v"
      ],
      [
        "Ġlu",
        "ar"
      ],
      [
        "Ġn",
        "im"
      ],
      [
        "ul",
        "p"
      ],
      [
        "Ġz",
        "on"
      ],
      [
        "Ġul",
        "d"
      ],
      [
        "Ġen",
        "ut"
      ],
      [
        "Ġil",
        "nu"
      ],
      [
        "Ġnu",
        "ul"
      ],
      [
        "Ġvo",
        "be"
      ],
      [
        "Ġte",
        "g"
      ],
      [
        "4",
        "5"
      ],
      [
        "Ġl",
        "ar"
      ],
      [
        "Ġd",
        "ut"
      ],
      [
        "ul",
        "vo"
      ],
      [
        "Ġon",
        "t"
      ],
      [
        "Ġen",
        "p"
      ],
      [
        "Ġdu",
        "or"
      ],
      [
        "Ġna",
        "z"
      ],
      [
        "Ġi",
        "lel"
      ],
      [
        "ar",
        "ma"
      ],
      [
        "ul",
        "it"
      ],
      [
        "Ġul",
        "m"
      ],
      [
        "Ġil",
        "f"
      ],
      [
        "Ġse",
        "en"
      ],
      [
        "Ġma",
        "f"
      ],
      [
        "Ġt",
        "esi"
      ],
      [
        "Ġc",
        "ut"
      ],
      [
        "Ġn",
        "on"
      ],
      [
        "Ġn",
        "us"
      ],
      [
        "Ġmo",
        "g"
      ],
      [
        "Ġc",
        "us"
      ],
      [
        "Ġni",
        "p"
      ],
      [
        "Ġar",
        "pe"
      ],
      [
        "Ġno",
        "at"
      ],
      [
        "Ġb",
        "og"
      ],
      [
        "Ġf",
        "ic"
      ],
      [
        "or",
        "va"
      ],
      [
        "Ġv",
        "am"
      ],
      [
        "Ġri",
        "ru"
      ],
      [
        "Ġor",
        "x"
      ],
      [
        "Ġxu",
        "in"
      ],
      [
        "Ġno",
        "os"
      ],
      [
        "ot",
        "no"
      ],
      [
        "Ġre",
        "p"
      ],
      [
        "Ġla",
        "v"
      ],
      [
        "Ġge",
        "ze"
      ],
      [
        "8",
        "1"
      ],
      [
        "Ġv",
        "if"
      ],
      [
        "Ġxi",
        "b"
      ],
      [
        "Ġl",
        "acu"
      ],
      [
        "ve",
        "bo"
      ],
      [
        "Ġc",
        "ig"
      ],
      [
        "er",
        "an"
      ],
      [
        "fu",
        "un"
      ],
      [
        "Ġus",
        "z"
      ],
      [
        "Ġlu",
        "ot"
      ],
      [
        "Ġzu",
        "fu"
      ],
      [
        "Ġc",
        "alu"
      ],
      [
        "il",
        "os"
      ],
      [
        "fe",
        "vo"
      ],
      [
        "fo",
        "or"
      ],
      [
        "Ġen",
        "b"
      ],
      [
        "Ġm",
        "ug"
      ],
      [
        "Ġg",
        "apu"
      ],
      [
        "Ġcu",
        "f"
      ],
      [
        "Ġpo",
        "an"
      ],
      [
        "Ġt",
        "en"
      ],
      [
        "Ġus",
        "l"
      ],
      [
        "Ġxu",
        "is"
      ],
      [
        "Ġma",
        "as"
      ],
      [
        "Ġb",
        "edo"
      ],
      [
        "an",
        "ot"
      ],
      [
        "Ġn",
        "ar"
      ],
      [
        "Ġv",
        "ade"
      ],
      [
        "Ġni",
        "ol"
      ],
      [
        "Ġda",
        "al"
      ],
      [
        "Ġl",
        "on"
      ],
      [
        "Ġf",
        "esa"
      ],
      [
        "Ġg",
        "iro"
      ],
      [
        "Ġfa",
        "vu"
      ],
      [
        "5",
        "5"
      ],
      [
        "Ġt",
        "er"
      ],
      [
        "Ġgi",
        "vu"
      ],
      [
        "Ġus",
        "er"
      ],
      [
        "Ġb",
        "if"
      ],
      [
        "Ġri",
        "ut"
      ],
      [
        "Ġal",
        "t"
      ],
      [
        "Ġir",
        "fe"
      ],
      [
        "Ġte",
        "ir"
      ],
      [
        "Ġl",
        "ag"
      ],
      [
        "Ġf",
        "ol"
      ],
      [
        "Ġit",
        "z"
      ],
      [
        "Ġx",
        "op"
      ],
      [
        "vi",
        "ba"
      ],
      [
        "4",
        "7"
      ],
      [
        "Ġc",
        "ub"
      ],
      [
        "os",
        "us"
      ],
      [
        "Ġm",
        "os"
      ],
      [
        "us",
        "pi"
      ],
      [
        "Ġma",
        "ol"
      ],
      [
        "Ġzi",
        "le"
      ],
      [
        "in",
        "ur"
      ],
      [
        "Ġs",
        "ox"
      ],
      [
        "Ġbe",
        "fe"
      ],
      [
        "za",
        "le"
      ],
      [
        "Ġxu",
        "ut"
      ],
      [
        "Ġc",
        "ic"
      ],
      [
        "Ġd",
        "ul"
      ],
      [
        "Ġz",
        "av"
      ],
      [
        "Ġa",
        "lp"
      ],
      [
        "Ġm",
        "uc"
      ],
      [
        "Ġat",
        "er"
      ],
      [
        "Ġro",
        "f"
      ],
      [
        "Ġcat",
        "e"
      ],
      [
        "Ġil",
        "s"
      ],
      [
        "on",
        "po"
      ],
      [
        "Ġus",
        "x"
      ],
      [
        "Ġun",
        "is"
      ],
      [
        "Ġxa",
        "on"
      ],
      [
        "3",
        "6"
      ],
      [
        "Ġg",
        "id"
      ],
      [
        "Ġn",
        "ote"
      ],
      [
        "Ġne",
        "f"
      ],
      [
        "Ġel",
        "in"
      ],
      [
        "on",
        "vu"
      ],
      [
        "Ġx",
        "ad"
      ],
      [
        "Ġni",
        "x"
      ],
      [
        "Ġm",
        "in"
      ],
      [
        "Ġbe",
        "il"
      ],
      [
        "Ġs",
        "ut"
      ],
      [
        "4",
        "8"
      ],
      [
        "Ġat",
        "us"
      ],
      [
        "Ġri",
        "or"
      ],
      [
        "Ġut",
        "s"
      ],
      [
        "Ġse",
        "ut"
      ],
      [
        "Ġis",
        "t"
      ],
      [
        "Ġre",
        "un"
      ],
      [
        "orn",
        "o"
      ],
      [
        "Ġde",
        "g"
      ],
      [
        "Ġer",
        "s"
      ],
      [
        "Ġg",
        "oso"
      ],
      [
        "ot",
        "ru"
      ],
      [
        "Ġga",
        "zi"
      ],
      [
        "Ġl",
        "id"
      ],
      [
        "Ġn",
        "ite"
      ],
      [
        "2",
        "5"
      ],
      [
        "Ġra",
        "fe"
      ],
      [
        "Ġg",
        "ec"
      ],
      [
        "Ġsa",
        "b"
      ],
      [
        "Ġs",
        "udu"
      ],
      [
        "Ġar",
        "b"
      ],
      [
        "Ġna",
        "f"
      ],
      [
        "Ġl",
        "olu"
      ],
      [
        "Ġd",
        "il"
      ],
      [
        "Ġet",
        "pi"
      ],
      [
        "Ġru",
        "vu"
      ],
      [
        "Ġin",
        "s"
      ],
      [
        "ant",
        "o"
      ],
      [
        "il",
        "ut"
      ],
      [
        "Ġot",
        "or"
      ],
      [
        "u",
        "us"
      ],
      [
        "Ġbe",
        "at"
      ],
      [
        "Ġgo",
        "be"
      ],
      [
        "Ġbe",
        "be"
      ],
      [
        "Ġm",
        "alu"
      ],
      [
        "Ġbe",
        "z"
      ],
      [
        "Ġet",
        "c"
      ],
      [
        "Ġve",
        "x"
      ],
      [
        "Ġgi",
        "b"
      ],
      [
        "7",
        "5"
      ],
      [
        "Ġl",
        "ox"
      ],
      [
        "Ġto",
        "va"
      ],
      [
        "Ġer",
        "ni"
      ],
      [
        "ul",
        "at"
      ],
      [
        "Ġz",
        "ir"
      ],
      [
        "7",
        "1"
      ],
      [
        "7",
        "9"
      ],
      [
        "Ġs",
        "el"
      ],
      [
        "Ġs",
        "op"
      ],
      [
        "Ġru",
        "z"
      ],
      [
        "Ġz",
        "en"
      ],
      [
        "Ġni",
        "ba"
      ],
      [
        "4",
        "9"
      ],
      [
        "Ġfo",
        "as"
      ],
      [
        "Ġet",
        "un"
      ],
      [
        "4",
        "1"
      ],
      [
        "Ġz",
        "if"
      ],
      [
        "Ġir",
        "t"
      ],
      [
        "6",
        "8"
      ],
      [
        "in",
        "lo"
      ],
      [
        "v",
        "alu"
      ],
      [
        "5",
        "9"
      ],
      [
        "5",
        "1"
      ],
      [
        "Ġfa",
        "al"
      ],
      [
        "6",
        "1"
      ],
      [
        "Ġv",
        "os"
      ],
      [
        "3",
        "9"
      ],
      [
        "2",
        "7"
      ],
      [
        "Ġg",
        "idu"
      ],
      [
        "Ġul",
        "do"
      ],
      [
        "2",
        "9"
      ],
      [
        "an",
        "ma"
      ],
      [
        "2",
        "4"
      ],
      [
        "3",
        "7"
      ],
      [
        "Ġbu",
        "in"
      ],
      [
        "Ġit",
        "nu"
      ],
      [
        "Ġul",
        "l"
      ],
      [
        "2",
        "1"
      ],
      [
        "0",
        "0"
      ],
      [
        "Ġat",
        "p"
      ],
      [
        "6",
        "5"
      ],
      [
        "3",
        "1"
      ],
      [
        "gu",
        "in"
      ],
      [
        "Ġpi",
        "vu"
      ],
      [
        "il",
        "mu"
      ],
      [
        "fo",
        "b"
      ],
      [
        "Ġta",
        "ce"
      ],
      [
        "6",
        "9"
      ],
      [
        "ul",
        "da"
      ],
      [
        "8",
        "9"
      ],
      [
        "Ġd",
        "opa"
      ],
      [
        "Ġfe",
        "ul"
      ],
      [
        "Ġn",
        "ir"
      ],
      [
        "Ġvo",
        "re"
      ],
      [
        "Ġmu",
        "v"
      ],
      [
        "Ġzu",
        "ot"
      ],
      [
        "Ġva",
        "ir"
      ],
      [
        "3",
        "5"
      ],
      [
        "Ġf",
        "ici"
      ],
      [
        "Ġze",
        "ze"
      ],
      [
        "Ġba",
        "os"
      ],
      [
        "Ġc",
        "ipa"
      ],
      [
        "Ġen",
        "c"
      ],
      [
        "Ġil",
        "me"
      ],
      [
        "Ġs",
        "ubi"
      ],
      [
        "Ġmi",
        "en"
      ],
      [
        "Ġc",
        "es"
      ],
      [
        "Ġpo",
        "f"
      ],
      [
        "Ġvo",
        "c"
      ],
      [
        "Ġvi",
        "vu"
      ],
      [
        "Ġd",
        "uma"
      ],
      [
        "Ġr",
        "upa"
      ],
      [
        "Ġp",
        "ide"
      ],
      [
        "va",
        "el"
      ],
      [
        "Ġg",
        "av"
      ],
      [
        "er",
        "ce"
      ],
      [
        "Ġr",
        "ux"
      ],
      [
        "Ġr",
        "uca"
      ],
      [
        "Ġit",
        "re"
      ],
      [
        "Ġon",
        "il"
      ],
      [
        "Ġor",
        "c"
      ],
      [
        "Ġce",
        "f"
      ],
      [
        "Ġnu",
        "un"
      ],
      [
        "Ġg",
        "ion"
      ],
      [
        "Ġpo",
        "at"
      ],
      [
        "Ġpa",
        "it"
      ],
      [
        "u",
        "ris"
      ],
      [
        "Ġd",
        "un"
      ],
      [
        "Ġis",
        "g"
      ],
      [
        "Ġet",
        "v"
      ],
      [
        "Ġb",
        "ica"
      ],
      [
        "in",
        "is"
      ],
      [
        "Ġli",
        "fe"
      ],
      [
        "Ġar",
        "vo"
      ],
      [
        "Ġse",
        "bi"
      ],
      [
        "Ġl",
        "ave"
      ],
      [
        "Ġat",
        "ar"
      ],
      [
        "Ġman",
        "u"
      ],
      [
        "Ġdog",
        "o"
      ],
      [
        "Ġos",
        "ve"
      ],
      [
        "Ġil",
        "vu"
      ],
      [
        "Ġun",
        "d"
      ],
      [
        "Ġfu",
        "os"
      ],
      [
        "Ġxo",
        "f"
      ],
      [
        "Ġmi",
        "ir"
      ],
      [
        "Ġb",
        "op"
      ],
      [
        "Ġto",
        "la"
      ],
      [
        "il",
        "us"
      ],
      [
        "Ġx",
        "onu"
      ],
      [
        "go",
        "ci"
      ],
      [
        "Ġpa",
        "os"
      ],
      [
        "Ġp",
        "od"
      ],
      [
        "ol",
        "b"
      ],
      [
        "as",
        "z"
      ],
      [
        "Ġg",
        "el"
      ],
      [
        "Ġis",
        "f"
      ],
      [
        "Ġin",
        "il"
      ],
      [
        "Ġar",
        "as"
      ],
      [
        "Ġir",
        "r"
      ],
      [
        "Ġpi",
        "le"
      ],
      [
        "Ġg",
        "ab"
      ],
      [
        "Ġg",
        "edu"
      ],
      [
        "le",
        "ge"
      ],
      [
        "Ġmo",
        "x"
      ],
      [
        "v",
        "udi"
      ],
      [
        "Ġt",
        "el"
      ],
      [
        "Ġl",
        "us"
      ],
      [
        "ce",
        "b"
      ],
      [
        "Ġv",
        "ipi"
      ],
      [
        "Ġxe",
        "al"
      ],
      [
        "Ġfa",
        "fu"
      ],
      [
        "3",
        "4"
      ],
      [
        "6",
        "7"
      ],
      [
        "Ġr",
        "ur"
      ],
      [
        "Ġpu",
        "is"
      ],
      [
        "6",
        "4"
      ],
      [
        "Ġt",
        "ud"
      ],
      [
        "Ġm",
        "uta"
      ],
      [
        "Ġp",
        "op"
      ],
      [
        "al",
        "bi"
      ],
      [
        "Ġit",
        "m"
      ],
      [
        "Ġx",
        "og"
      ],
      [
        "ved",
        "o"
      ],
      [
        "Ġar",
        "g"
      ],
      [
        "Ġar",
        "or"
      ],
      [
        "Ġso",
        "f"
      ],
      [
        "Ġpe",
        "vi"
      ],
      [
        "f",
        "uru"
      ],
      [
        "Ġs",
        "alo"
      ],
      [
        "Ġb",
        "out"
      ],
      [
        "Ġd",
        "ap"
      ],
      [
        "er",
        "do"
      ],
      [
        "Ġz",
        "ex"
      ],
      [
        "Ġar",
        "p"
      ],
      [
        "Ġgo",
        "c"
      ],
      [
        "Ġb",
        "at"
      ],
      [
        "Ġb",
        "ago"
      ],
      [
        "en",
        "zo"
      ],
      [
        "Ġto",
        "xo"
      ],
      [
        "ot",
        "li"
      ],
      [
        "Ġon",
        "xa"
      ],
      [
        "Ġle",
        "os"
      ],
      [
        "Ġus",
        "be"
      ],
      [
        "Ġge",
        "on"
      ],
      [
        "Ġvo",
        "ce"
      ],
      [
        "Ġpi",
        "v"
      ],
      [
        "Ġxi",
        "ur"
      ],
      [
        "3",
        "8"
      ],
      [
        "Ġt",
        "emi"
      ],
      [
        "Ġm",
        "is"
      ],
      [
        "Ġit",
        "zi"
      ],
      [
        "Ġx",
        "em"
      ],
      [
        "fe",
        "ve"
      ],
      [
        "gu",
        "is"
      ],
      [
        "Ġnu",
        "le"
      ],
      [
        "izo",
        "os"
      ],
      [
        "b",
        "uru"
      ],
      [
        "o",
        "rit"
      ],
      [
        "Ġd",
        "oru"
      ],
      [
        "ri",
        "ca"
      ],
      [
        "on",
        "ot"
      ],
      [
        "at",
        "et"
      ],
      [
        "Ġv",
        "agu"
      ],
      [
        "Ġare",
        "l"
      ],
      [
        "Ġun",
        "p"
      ],
      [
        "Ġet",
        "n"
      ],
      [
        "Ġet",
        "p"
      ],
      [
        "Ġel",
        "ir"
      ],
      [
        "Ġpe",
        "ut"
      ],
      [
        "Ġzo",
        "z"
      ],
      [
        "Ġzi",
        "ri"
      ],
      [
        "Ġci",
        "v"
      ],
      [
        "le",
        "ri"
      ],
      [
        "os",
        "mi"
      ],
      [
        "Ġx",
        "abu"
      ],
      [
        "Ġmo",
        "p"
      ],
      [
        "Ġin",
        "c"
      ],
      [
        "va",
        "er"
      ],
      [
        "Ġor",
        "r"
      ],
      [
        "Ġbu",
        "un"
      ],
      [
        "Ġet",
        "as"
      ],
      [
        "Ġil",
        "n"
      ],
      [
        "f",
        "ono"
      ],
      [
        "Ġf",
        "ous"
      ],
      [
        "Ġp",
        "el"
      ],
      [
        "ot",
        "as"
      ],
      [
        "Ġv",
        "an"
      ],
      [
        "Ġre",
        "m"
      ],
      [
        "Ġbu",
        "v"
      ],
      [
        "Ġfo",
        "b"
      ],
      [
        "Ġus",
        "c"
      ],
      [
        "Ġtu",
        "as"
      ],
      [
        "2",
        "8"
      ],
      [
        "Ġp",
        "out"
      ],
      [
        "ol",
        "ze"
      ],
      [
        "Ġv",
        "ip"
      ],
      [
        "ir",
        "at"
      ],
      [
        "Ġin",
        "el"
      ],
      [
        "Ġor",
        "ne"
      ],
      [
        "Ġos",
        "pe"
      ],
      [
        "gu",
        "fi"
      ],
      [
        "Ġven",
        "o"
      ],
      [
        "Ġt",
        "ifa"
      ],
      [
        "Ġs",
        "ig"
      ],
      [
        "Ġm",
        "ati"
      ],
      [
        "il",
        "mo"
      ],
      [
        "fe",
        "gu"
      ],
      [
        "Ġur",
        "se"
      ],
      [
        "Ġxe",
        "v"
      ],
      [
        "o",
        "zo"
      ],
      [
        "z",
        "ina"
      ],
      [
        "Ġg",
        "os"
      ],
      [
        "Ġg",
        "agi"
      ],
      [
        "et",
        "po"
      ],
      [
        "Ġx",
        "ino"
      ],
      [
        "Ġbe",
        "v"
      ],
      [
        "Ġre",
        "ro"
      ],
      [
        "Ġdo",
        "f"
      ],
      [
        "fa",
        "os"
      ],
      [
        "Ġur",
        "n"
      ],
      [
        "Ġba",
        "f"
      ],
      [
        "is",
        "un"
      ],
      [
        "ol",
        "vo"
      ],
      [
        "Ġx",
        "or"
      ],
      [
        "Ġe",
        "ril"
      ],
      [
        "Ġtog",
        "i"
      ],
      [
        "Ġun",
        "ma"
      ],
      [
        "Ġir",
        "b"
      ],
      [
        "Ġru",
        "v"
      ],
      [
        "Ġru",
        "et"
      ],
      [
        "a",
        "zu"
      ],
      [
        "v",
        "aco"
      ],
      [
        "Ġf",
        "ir"
      ],
      [
        "Ġn",
        "epu"
      ],
      [
        "ol",
        "m"
      ],
      [
        "Ġre",
        "r"
      ],
      [
        "Ġon",
        "g"
      ],
      [
        "Ġel",
        "mo"
      ],
      [
        "Ġdu",
        "at"
      ],
      [
        "Ġca",
        "is"
      ],
      [
        "Ġmi",
        "b"
      ],
      [
        "at",
        "ir"
      ],
      [
        "Ġus",
        "al"
      ],
      [
        "Ġus",
        "mu"
      ],
      [
        "Ġse",
        "g"
      ],
      [
        "Ġb",
        "en"
      ],
      [
        "Ġb",
        "oda"
      ],
      [
        "it",
        "du"
      ],
      [
        "or",
        "or"
      ],
      [
        "at",
        "ma"
      ],
      [
        "Ġv",
        "ed"
      ],
      [
        "Ġre",
        "zu"
      ],
      [
        "ci",
        "ot"
      ],
      [
        "Ġos",
        "c"
      ],
      [
        "Ġpe",
        "z"
      ],
      [
        "Ġse",
        "zi"
      ],
      [
        "a",
        "f"
      ],
      [
        "Ġt",
        "at"
      ],
      [
        "Ġb",
        "od"
      ],
      [
        "at",
        "ga"
      ],
      [
        "ut",
        "l"
      ],
      [
        "os",
        "b"
      ],
      [
        "Ġx",
        "uc"
      ],
      [
        "Ġcu",
        "et"
      ],
      [
        "Ġut",
        "z"
      ],
      [
        "Ġmu",
        "it"
      ],
      [
        "Ġzi",
        "en"
      ],
      [
        "as",
        "gu"
      ],
      [
        "Ġm",
        "un"
      ],
      [
        "Ġan",
        "n"
      ],
      [
        "ol",
        "ir"
      ],
      [
        "ur",
        "ul"
      ],
      [
        "Ġro",
        "ol"
      ],
      [
        "vi",
        "ve"
      ],
      [
        "ven",
        "e"
      ],
      [
        "zi",
        "an"
      ],
      [
        "Ġt",
        "is"
      ],
      [
        "as",
        "va"
      ],
      [
        "Ġm",
        "uda"
      ],
      [
        "an",
        "va"
      ],
      [
        "ri",
        "m"
      ],
      [
        "ot",
        "ti"
      ],
      [
        "Ġx",
        "ag"
      ],
      [
        "Ġx",
        "im"
      ],
      [
        "Ġx",
        "ec"
      ],
      [
        "zo",
        "z"
      ],
      [
        "mi",
        "it"
      ],
      [
        "Ġca",
        "os"
      ],
      [
        "Ġp",
        "og"
      ],
      [
        "Ġut",
        "at"
      ],
      [
        "Ġen",
        "lu"
      ],
      [
        "Ġmi",
        "ve"
      ],
      [
        "Ġmi",
        "er"
      ],
      [
        "Ġf",
        "aca"
      ],
      [
        "Ġg",
        "er"
      ],
      [
        "Ġv",
        "axe"
      ],
      [
        "Ġre",
        "xa"
      ],
      [
        "Ġmag",
        "o"
      ],
      [
        "Ġbo",
        "z"
      ],
      [
        "Ġbo",
        "le"
      ],
      [
        "Ġus",
        "d"
      ],
      [
        "Ġir",
        "xo"
      ],
      [
        "Ġen",
        "x"
      ],
      [
        "Ġxu",
        "ri"
      ],
      [
        "Ġfa",
        "at"
      ],
      [
        "Ġsi",
        "ve"
      ],
      [
        "Ġza",
        "f"
      ],
      [
        "Ġa",
        "ler"
      ],
      [
        "Ġb",
        "iz"
      ],
      [
        "Ġf",
        "el"
      ],
      [
        "le",
        "p"
      ],
      [
        "Ġr",
        "am"
      ],
      [
        "Ġr",
        "ug"
      ],
      [
        "ot",
        "xu"
      ],
      [
        "Ġx",
        "utu"
      ],
      [
        "Ġni",
        "ri"
      ],
      [
        "Ġtal",
        "u"
      ],
      [
        "Ġar",
        "ce"
      ],
      [
        "Ġne",
        "b"
      ],
      [
        "Ġri",
        "it"
      ],
      [
        "Ġon",
        "x"
      ],
      [
        "zo",
        "as"
      ],
      [
        "zu",
        "zu"
      ],
      [
        "Ġme",
        "bu"
      ],
      [
        "Ġze",
        "al"
      ],
      [
        "Ġs",
        "ous"
      ],
      [
        "Ġb",
        "ad"
      ],
      [
        "Ġd",
        "oul"
      ],
      [
        "or",
        "ge"
      ],
      [
        "Ġz",
        "ax"
      ],
      [
        "ir",
        "on"
      ],
      [
        "Ġin",
        "m"
      ],
      [
        "Ġre",
        "ar"
      ],
      [
        "Ġon",
        "z"
      ],
      [
        "Ġut",
        "g"
      ],
      [
        "Ġxa",
        "is"
      ],
      [
        "Ġs",
        "id"
      ],
      [
        "re",
        "c"
      ],
      [
        "Ġg",
        "og"
      ],
      [
        "Ġis",
        "ce"
      ],
      [
        "ge",
        "et"
      ],
      [
        "Ġil",
        "ge"
      ],
      [
        "Ġmu",
        "z"
      ],
      [
        "Ġb",
        "om"
      ],
      [
        "Ġg",
        "op"
      ],
      [
        "Ġat",
        "l"
      ],
      [
        "Ġin",
        "ro"
      ],
      [
        "Ġas",
        "n"
      ],
      [
        "Ġon",
        "n"
      ],
      [
        "Ġlo",
        "ol"
      ],
      [
        "Ġal",
        "zi"
      ],
      [
        "Ġlu",
        "f"
      ],
      [
        "Ġs",
        "usa"
      ],
      [
        "Ġd",
        "ite"
      ],
      [
        "at",
        "xe"
      ],
      [
        "Ġr",
        "ar"
      ],
      [
        "Ġli",
        "g"
      ],
      [
        "Ġx",
        "ub"
      ],
      [
        "Ġso",
        "an"
      ],
      [
        "Ġol",
        "g"
      ],
      [
        "Ġme",
        "ma"
      ],
      [
        "Ġva",
        "ze"
      ],
      [
        "Ġzi",
        "ir"
      ],
      [
        "Ġs",
        "ear"
      ],
      [
        "Ġs",
        "oxe"
      ],
      [
        "Ġl",
        "otu"
      ],
      [
        "on",
        "ta"
      ],
      [
        "Ġp",
        "om"
      ],
      [
        "Ġal",
        "en"
      ],
      [
        "fi",
        "va"
      ],
      [
        "Ġur",
        "ce"
      ],
      [
        "Ġmu",
        "an"
      ],
      [
        "Ġga",
        "ot"
      ],
      [
        "Ġt",
        "axa"
      ],
      [
        "Ġc",
        "elu"
      ],
      [
        "Ġg",
        "ulu"
      ],
      [
        "Ġn",
        "ira"
      ],
      [
        "ir",
        "lu"
      ],
      [
        "Ġro",
        "bo"
      ],
      [
        "Ġxo",
        "in"
      ],
      [
        "Ġta",
        "it"
      ],
      [
        "Ġt",
        "asa"
      ],
      [
        "Ġf",
        "ala"
      ],
      [
        "ur",
        "os"
      ],
      [
        "Ġor",
        "s"
      ],
      [
        "Ġcu",
        "za"
      ],
      [
        "Ġer",
        "zi"
      ],
      [
        "Ġce",
        "ul"
      ],
      [
        "Ġvu",
        "z"
      ],
      [
        "Ġtu",
        "z"
      ],
      [
        "Ġt",
        "ane"
      ],
      [
        "on",
        "an"
      ],
      [
        "Ġp",
        "id"
      ],
      [
        "Ġn",
        "is"
      ],
      [
        "er",
        "at"
      ],
      [
        "Ġv",
        "un"
      ],
      [
        "bo",
        "b"
      ],
      [
        "Ġfo",
        "vi"
      ],
      [
        "Ġve",
        "mo"
      ],
      [
        "Ġot",
        "l"
      ],
      [
        "Ġot",
        "vo"
      ],
      [
        "Ġse",
        "us"
      ],
      [
        "Ġdu",
        "an"
      ],
      [
        "Ġl",
        "axe"
      ],
      [
        "Ġn",
        "axe"
      ],
      [
        "ol",
        "no"
      ],
      [
        "ol",
        "to"
      ],
      [
        "Ġx",
        "ep"
      ],
      [
        "Ġx",
        "ix"
      ],
      [
        "Ġv",
        "ubi"
      ],
      [
        "ir",
        "gu"
      ],
      [
        "Ġni",
        "le"
      ],
      [
        "Ġcu",
        "en"
      ],
      [
        "les",
        "e"
      ],
      [
        "Ġul",
        "ut"
      ],
      [
        "Ġve",
        "lu"
      ],
      [
        "Ġme",
        "ce"
      ],
      [
        "Ġfe",
        "us"
      ],
      [
        "Ġvu",
        "an"
      ],
      [
        "Ġfu",
        "fi"
      ],
      [
        "Ġs",
        "ugi"
      ],
      [
        "en",
        "ci"
      ],
      [
        "Ġc",
        "agi"
      ],
      [
        "ri",
        "on"
      ],
      [
        "il",
        "ul"
      ],
      [
        "Ġr",
        "ud"
      ],
      [
        "Ġr",
        "ate"
      ],
      [
        "el",
        "on"
      ],
      [
        "Ġz",
        "era"
      ],
      [
        "Ġat",
        "me"
      ],
      [
        "Ġro",
        "v"
      ],
      [
        "Ġlo",
        "is"
      ],
      [
        "Ġla",
        "ir"
      ],
      [
        "zu",
        "it"
      ],
      [
        "Ġun",
        "as"
      ],
      [
        "Ġel",
        "fa"
      ],
      [
        "Ġti",
        "ur"
      ],
      [
        "Ġf",
        "od"
      ],
      [
        "Ġx",
        "ul"
      ],
      [
        "Ġv",
        "iz"
      ],
      [
        "Ġat",
        "os"
      ],
      [
        "Ġcu",
        "os"
      ],
      [
        "be",
        "er"
      ],
      [
        "Ġvu",
        "za"
      ],
      [
        "Ġs",
        "it"
      ],
      [
        "Ġs",
        "omo"
      ],
      [
        "Ġb",
        "eda"
      ],
      [
        "Ġd",
        "ear"
      ],
      [
        "Ġg",
        "upu"
      ],
      [
        "un",
        "er"
      ],
      [
        "Ġn",
        "ug"
      ],
      [
        "Ġre",
        "tu"
      ],
      [
        "Ġor",
        "z"
      ],
      [
        "Ġun",
        "et"
      ],
      [
        "Ġir",
        "z"
      ],
      [
        "Ġme",
        "ul"
      ],
      [
        "Ġvo",
        "on"
      ],
      [
        "Ġpi",
        "us"
      ],
      [
        "Ġzi",
        "ur"
      ],
      [
        "Ġt",
        "em"
      ],
      [
        "Ġd",
        "alo"
      ],
      [
        "Ġp",
        "ip"
      ],
      [
        "Ġar",
        "us"
      ],
      [
        "ci",
        "er"
      ],
      [
        "Ġon",
        "m"
      ],
      [
        "Ġmet",
        "e"
      ],
      [
        "Ġcu",
        "ce"
      ],
      [
        "Ġze",
        "ba"
      ],
      [
        "Ġlu",
        "v"
      ],
      [
        "Ġt",
        "ugu"
      ],
      [
        "Ġn",
        "ol"
      ],
      [
        "Ġsa",
        "in"
      ],
      [
        "Ġx",
        "av"
      ],
      [
        "Ġri",
        "x"
      ],
      [
        "Ġla",
        "ar"
      ],
      [
        "bo",
        "ce"
      ],
      [
        "Ġel",
        "zi"
      ],
      [
        "b",
        "oun"
      ],
      [
        "Ġto",
        "on"
      ],
      [
        "Ġto",
        "no"
      ],
      [
        "Ġp",
[...]
